{
  "version": "1.0",
  "truncation": null,
  "padding": null,
  "added_tokens": [],
  "normalizer": null,
  "pre_tokenizer": null,
  "post_processor": null,
  "decoder": null,
  "model": {
    "type": "BPE",
    "dropout": null,
    "unk_token": "<unk>",
    "continuing_subword_prefix": null,
    "end_of_word_suffix": null,
    "fuse_unk": false,
    "byte_fallback": false,
    "ignore_merges": false,
    "vocab": {
      "<pad>": 0,
      "<unk>": 1,
      "<bos>": 2,
      "<eos>": 3,
      "!": 4,
      "!@": 5,
      "\"": 6,
      "\"\"": 7,
      "\"\"\"\"": 8,
      "\"\\\"\"\"\"": 9,
      "\"mis": 10,
      "#": 11,
      "#$": 12,
      "$": 13,
      "$_": 14,
      "%": 15,
      "&": 16,
      "&1980": 17,
      "'": 18,
      "(": 19,
      ")": 20,
      "*": 21,
      "**": 22,
      "***": 23,
      "+": 24,
      "++": 25,
      "+++": 26,
      "+-": 27,
      ",": 28,
      ",.": 29,
      ",.,.": 30,
      ",bla": 31,
      ",bla,bla": 32,
      "-": 33,
      "--": 34,
      "-12": 35,
      "-123": 36,
      "-2": 37,
      "-21": 38,
      "-7": 39,
      "-F": 40,
      "-Feb": 41,
      "-Feb-": 42,
      "-J": 43,
      "-N": 44,
      "-Nov": 45,
      "-Nov-": 46,
      "-z": 47,
      ".": 48,
      "..": 49,
      "...": 50,
      ".0": 51,
      ".03": 52,
      ".06": 53,
      ".16": 54,
      ".2008": 55,
      ".O": 56,
      ".com": 57,
      ".madrid": 58,
      ".o.": 59,
      ".z": 60,
      "/": 61,
      "/*": 62,
      "//": 63,
      "//54": 64,
      "//54//": 65,
      "/04": 66,
      "/05/": 67,
      "/08": 68,
      "/09": 69,
      "/15": 70,
      "/15/": 71,
      "/84": 72,
      "0": 73,
      "0.": 74,
      "00": 75,
      "000": 76,
      "0000": 77,
      "0000ru": 78,
      "0000rub": 79,
      "0007": 80,
      "001": 81,
      "0011": 82,
      "002": 83,
      "003": 84,
      "004": 85,
      "005": 86,
      "006": 87,
      "007": 88,
      "01": 89,
      "010": 90,
      "0102": 91,
      "01022005": 92,
      "0106": 93,
      "0111": 94,
      "0123": 95,
      "012369": 96,
      "01236987": 97,
      "0123698745": 98,
      "0123698745angel": 99,
      "0124": 100,
      "015": 101,
      "017": 102,
      "0179": 103,
      "018": 104,
      "02": 105,
      "0205": 106,
      "0213": 107,
      "0219": 108,
      "021955": 109,
      "022": 110,
      "023": 111,
      "0283": 112,
      "029": 113,
      "03": 114,
      "03..": 115,
      "0302": 116,
      "0306": 117,
      "0312": 118,
      "0313": 119,
      "032": 120,
      "0323": 121,
      "033": 122,
      "0364": 123,
      "038": 124,
      "0392": 125,
      "0392b": 126,
      "0392b8": 127,
      "04": 128,
      "0404": 129,
      "0408": 130,
      "0417": 131,
      "0420": 132,
      "0429": 133,
      "0435": 134,
      "045": 135,
      "048": 136,
      "0490": 137,
      "05": 138,
      "05-": 139,
      "05/": 140,
      "0502": 141,
      "0505": 142,
      "0511": 143,
      "051970": 144,
      "053": 145,
      "0585": 146,
      "059": 147,
      "06": 148,
      "06\"": 149,
      "06.": 150,
      "0609": 151,
      "0610": 152,
      "062": 153,
      "062001": 154,
      "065": 155,
      "0667": 156,
      "067": 157,
      "07": 158,
      "0706": 159,
      "0707": 160,
      "070788": 161,
      "07078811": 162,
      "07078811amac": 163,
      "0774": 164,
      "0780": 165,
      "0793": 166,
      "0794": 167,
      "08": 168,
      "08-": 169,
      "08.": 170,
      "0803": 171,
      "0804": 172,
      "0806": 173,
      "0811": 174,
      "0812": 175,
      "0829": 176,
      "083": 177,
      "0877": 178,
      "09": 179,
      "0987654321": 180,
      "0988": 181,
      "0990": 182,
      "0iv": 183,
      "0ivir": 184,
      "0n": 185,
      "1": 186,
      "1.": 187,
      "1.44": 188,
      "1.44563": 189,
      "10": 190,
      "10.03": 191,
      "100": 192,
      "1001": 193,
      "1002": 194,
      "1004": 195,
      "1005": 196,
      "1008": 197,
      "101": 198,
      "1015": 199,
      "1016": 200,
      "1018": 201,
      "102": 202,
      "1020": 203,
      "1025": 204,
      "103": 205,
      "104": 206,
      "105": 207,
      "106": 208,
      "107": 209,
      "108": 210,
      "1084": 211,
      "109": 212,
      "1097": 213,
      "11": 214,
      "110": 215,
      "1102": 216,
      "1103": 217,
      "1104": 218,
      "110473": 219,
      "1105": 220,
      "1108": 221,
      "1109": 222,
      "111": 223,
      "11111": 224,
      "1112": 225,
      "112": 226,
      "1127": 227,
      "115": 228,
      "116": 229,
      "1163": 230,
      "1165": 231,
      "117": 232,
      "1185": 233,
      "119": 234,
      "1193": 235,
      "12": 236,
      "12-": 237,
      "120": 238,
      "1201": 239,
      "1202": 240,
      "1203": 241,
      "1204": 242,
      "1205": 243,
      "1209": 244,
      "1212": 245,
      "1213": 246,
      "1215": 247,
      "1222": 248,
      "123": 249,
      "1231": 250,
      "1234": 251,
      "12345": 252,
      "123456": 253,
      "123456789": 254,
      "124": 255,
      "1246": 256,
      "125": 257,
      "1260": 258,
      "1289": 259,
      "129": 260,
      "13": 261,
      "130": 262,
      "1302": 263,
      "1305": 264,
      "1306": 265,
      "1308": 266,
      "1310": 267,
      "1312": 268,
      "1313": 269,
      "1325": 270,
      "134": 271,
      "1348": 272,
      "135": 273,
      "136": 274,
      "1377": 275,
      "137713": 276,
      "13ni": 277,
      "13niche": 278,
      "13niche13": 279,
      "14": 280,
      "140": 281,
      "1402": 282,
      "1403": 283,
      "1404": 284,
      "1414": 285,
      "1415": 286,
      "144": 287,
      "145": 288,
      "147": 289,
      "149": 290,
      "14jer": 291,
      "15": 292,
      "1500": 293,
      "1504": 294,
      "1508": 295,
      "1510": 296,
      "1512": 297,
      "1518": 298,
      "152": 299,
      "1520": 300,
      "1528": 301,
      "155": 302,
      "1565": 303,
      "157": 304,
      "158": 305,
      "159": 306,
      "1593": 307,
      "15ami": 308,
      "15ami1": 309,
      "16": 310,
      "1601": 311,
      "1606": 312,
      "1612": 313,
      "162": 314,
      "163": 315,
      "164": 316,
      "1678": 317,
      "17": 318,
      "1702": 319,
      "1704": 320,
      "1707": 321,
      "1711": 322,
      "1715": 323,
      "1722": 324,
      "173": 325,
      "173173": 326,
      "176": 327,
      "177": 328,
      "1788": 329,
      "1789": 330,
      "18": 331,
      "1803": 332,
      "1807": 333,
      "1808": 334,
      "1809": 335,
      "1810": 336,
      "1811": 337,
      "1818": 338,
      "182": 339,
      "183": 340,
      "18469": 341,
      "186": 342,
      "187": 343,
      "189": 344,
      "19": 345,
      "190": 346,
      "1902": 347,
      "1904": 348,
      "1905": 349,
      "1909": 350,
      "1925": 351,
      "1929": 352,
      "193": 353,
      "1934": 354,
      "1939": 355,
      "194": 356,
      "1940": 357,
      "1945": 358,
      "195": 359,
      "1950": 360,
      "1953": 361,
      "1955": 362,
      "1956": 363,
      "1957": 364,
      "1959": 365,
      "196": 366,
      "1960": 367,
      "1961": 368,
      "1962": 369,
      "1963": 370,
      "1964": 371,
      "1965": 372,
      "1966": 373,
      "1967": 374,
      "1968": 375,
      "1969": 376,
      "197": 377,
      "1970": 378,
      "1971": 379,
      "1972": 380,
      "1973": 381,
      "1974": 382,
      "1975": 383,
      "1976": 384,
      "1977": 385,
      "1978": 386,
      "1979": 387,
      "198": 388,
      "1980": 389,
      "1981": 390,
      "1982": 391,
      "1983": 392,
      "1984": 393,
      "198419": 394,
      "1985": 395,
      "1986": 396,
      "1987": 397,
      "1988": 398,
      "1989": 399,
      "199": 400,
      "1990": 401,
      "1991": 402,
      "1992": 403,
      "1993": 404,
      "1994": 405,
      "1995": 406,
      "1996": 407,
      "1997": 408,
      "1998": 409,
      "1999": 410,
      "19999": 411,
      "1a": 412,
      "1d": 413,
      "1r": 414,
      "2": 415,
      "2.": 416,
      "2.64": 417,
      "2.7": 418,
      "2.71983": 419,
      "2.rob": 420,
      "2.roble": 421,
      "20": 422,
      "200": 423,
      "2000": 424,
      "2001": 425,
      "2002": 426,
      "2003": 427,
      "2004": 428,
      "2005": 429,
      "2006": 430,
      "200607": 431,
      "2007": 432,
      "2008": 433,
      "2009": 434,
      "2010": 435,
      "2012": 436,
      "202": 437,
      "2022": 438,
      "203": 439,
      "205": 440,
      "206": 441,
      "207": 442,
      "208": 443,
      "209": 444,
      "21": 445,
      "210": 446,
      "2104": 447,
      "2105": 448,
      "2106": 449,
      "211": 450,
      "2112": 451,
      "212": 452,
      "216": 453,
      "217": 454,
      "21E+11": 455,
      "22": 456,
      "2202": 457,
      "22021955": 458,
      "2204": 459,
      "2205": 460,
      "2211": 461,
      "2212": 462,
      "222": 463,
      "2222": 464,
      "223": 465,
      "225": 466,
      "2273": 467,
      "23": 468,
      "230": 469,
      "2303": 470,
      "2308": 471,
      "2309": 472,
      "2310": 473,
      "23112": 474,
      "2313": 475,
      "2325": 476,
      "233": 477,
      "234": 478,
      "2344": 479,
      "2345": 480,
      "236": 481,
      "2369": 482,
      "2387": 483,
      "23E+14": 484,
      "23b": 485,
      "24": 486,
      "2402": 487,
      "2403": 488,
      "2404": 489,
      "241": 490,
      "2410": 491,
      "2412": 492,
      "242": 493,
      "244": 494,
      "2456": 495,
      "246": 496,
      "2469": 497,
      "248": 498,
      "24878": 499,
      "2493": 500,
      "24@": 501,
      "25": 502,
      "2502": 503,
      "2507": 504,
      "2510": 505,
      "2511": 506,
      "254": 507,
      "256": 508,
      "2579": 509,
      "258": 510,
      "2583": 511,
      "26": 512,
      "2601": 513,
      "2606": 514,
      "2607": 515,
      "2612": 516,
      "2626": 517,
      "2627": 518,
      "2628": 519,
      "263": 520,
      "265": 521,
      "266": 522,
      "26de": 523,
      "26deoctubre": 524,
      "27": 525,
      "2702": 526,
      "2705": 527,
      "2710": 528,
      "2712": 529,
      "2720": 530,
      "2723": 531,
      "273": 532,
      "274": 533,
      "2749": 534,
      "275": 535,
      "277": 536,
      "2786": 537,
      "2793": 538,
      "28": 539,
      "280": 540,
      "2810": 541,
      "2812": 542,
      "283": 543,
      "284": 544,
      "285": 545,
      "287": 546,
      "288": 547,
      "289": 548,
      "29": 549,
      "2902": 550,
      "2903": 551,
      "2905": 552,
      "2907": 553,
      "2908": 554,
      "2909": 555,
      "290987": 556,
      "2910": 557,
      "2912": 558,
      "293": 559,
      "29364": 560,
      "2E+11": 561,
      "2i": 562,
      "2l": 563,
      "2s": 564,
      "3": 565,
      "3.": 566,
      "30": 567,
      "300": 568,
      "3000": 569,
      "3005": 570,
      "3009": 571,
      "3012": 572,
      "302": 573,
      "303": 574,
      "304": 575,
      "308": 576,
      "309": 577,
      "31": 578,
      "310": 579,
      "3112": 580,
      "312": 581,
      "313": 582,
      "314": 583,
      "3148": 584,
      "318": 585,
      "32": 586,
      "321": 587,
      "325": 588,
      "3259": 589,
      "328": 590,
      "33": 591,
      "332": 592,
      "333": 593,
      "334": 594,
      "337": 595,
      "338": 596,
      "34": 597,
      "344": 598,
      "349": 599,
      "35": 600,
      "350": 601,
      "3529": 602,
      "353": 603,
      "354": 604,
      "355": 605,
      "357": 606,
      "3589": 607,
      "36": 608,
      "3627": 609,
      "366": 610,
      "369": 611,
      "37": 612,
      "379": 613,
      "38": 614,
      "380": 615,
      "3853": 616,
      "39": 617,
      "3=": 618,
      "3D": 619,
      "3d": 620,
      "3d4": 621,
      "3de": 622,
      "3e": 623,
      "3e4r": 624,
      "3l": 625,
      "3mar": 626,
      "3n": 627,
      "3s": 628,
      "4": 629,
      "40": 630,
      "402": 631,
      "404": 632,
      "407": 633,
      "407078811amac": 634,
      "41": 635,
      "412": 636,
      "413": 637,
      "414": 638,
      "42": 639,
      "426": 640,
      "427": 641,
      "43": 642,
      "44": 643,
      "444": 644,
      "4455": 645,
      "4464": 646,
      "449": 647,
      "449107": 648,
      "45": 649,
      "456": 650,
      "46": 651,
      "464": 652,
      "469": 653,
      "47": 654,
      "474": 655,
      "48": 656,
      "4800": 657,
      "486": 658,
      "486r": 659,
      "489": 660,
      "49": 661,
      "4_": 662,
      "4e": 663,
      "4ever": 664,
      "4mi": 665,
      "4r": 666,
      "5": 667,
      "5.": 668,
      "50": 669,
      "5000": 670,
      "505": 671,
      "51": 672,
      "518": 673,
      "52": 674,
      "520": 675,
      "521": 676,
      "524": 677,
      "529": 678,
      "53": 679,
      "535": 680,
      "5370": 681,
      "54": 682,
      "5426": 683,
      "54ndr": 684,
      "54ndr486r": 685,
      "55": 686,
      "5513": 687,
      "555": 688,
      "556": 689,
      "559": 690,
      "55983": 691,
      "56": 692,
      "562": 693,
      "563": 694,
      "564": 695,
      "5674": 696,
      "5682": 697,
      "5694": 698,
      "57": 699,
      "5704": 700,
      "574": 701,
      "576": 702,
      "5799": 703,
      "58": 704,
      "5806": 705,
      "59": 706,
      "5983": 707,
      "598399": 708,
      "5up": 709,
      "5up$": 710,
      "6": 711,
      "6.": 712,
      "60": 713,
      "6013": 714,
      "605": 715,
      "609": 716,
      "61": 717,
      "612": 718,
      "616": 719,
      "617": 720,
      "619": 721,
      "62": 722,
      "622": 723,
      "626": 724,
      "629": 725,
      "63": 726,
      "630": 727,
      "6325": 728,
      "6369": 729,
      "639": 730,
      "64": 731,
      "642": 732,
      "65": 733,
      "6512": 734,
      "654": 735,
      "655": 736,
      "656": 737,
      "66": 738,
      "663": 739,
      "664": 740,
      "666": 741,
      "6666": 742,
      "667": 743,
      "6684": 744,
      "67": 745,
      "674": 746,
      "675": 747,
      "678": 748,
      "6789": 749,
      "678922": 750,
      "68": 751,
      "6816": 752,
      "686": 753,
      "69": 754,
      "693": 755,
      "696": 756,
      "6969": 757,
      "6pu": 758,
      "6pu3": 759,
      "7": 760,
      "7.": 761,
      "70": 762,
      "708": 763,
      "709": 764,
      "71": 765,
      "712": 766,
      "717": 767,
      "72": 768,
      "721": 769,
      "7213": 770,
      "726": 771,
      "73": 772,
      "731": 773,
      "74": 774,
      "740": 775,
      "7415ami1": 776,
      "75": 777,
      "753": 778,
      "76": 779,
      "761": 780,
      "767": 781,
      "77": 782,
      "774": 783,
      "775": 784,
      "777": 785,
      "7777": 786,
      "7780": 787,
      "7786": 788,
      "779": 789,
      "78": 790,
      "786": 791,
      "789": 792,
      "79": 793,
      "7913": 794,
      "796": 795,
      "797": 796,
      "799": 797,
      "7bi": 798,
      "7bi4mi": 799,
      "8": 800,
      "8.": 801,
      "80": 802,
      "805": 803,
      "809": 804,
      "81": 805,
      "812": 806,
      "813": 807,
      "814": 808,
      "82": 809,
      "827": 810,
      "83": 811,
      "8322": 812,
      "835": 813,
      "839": 814,
      "84": 815,
      "8444": 816,
      "845": 817,
      "847": 818,
      "8484": 819,
      "8485": 820,
      "849": 821,
      "84y": 822,
      "85": 823,
      "859": 824,
      "86": 825,
      "87": 826,
      "87654": 827,
      "87654321": 828,
      "878": 829,
      "88": 830,
      "884": 831,
      "8847": 832,
      "888": 833,
      "8888": 834,
      "88888888": 835,
      "89": 836,
      "89*": 837,
      "890": 838,
      "8913": 839,
      "8925": 840,
      "898": 841,
      "8E+11": 842,
      "8d": 843,
      "9": 844,
      "9.": 845,
      "90": 846,
      "900": 847,
      "905": 848,
      "909": 849,
      "91": 850,
      "911": 851,
      "917": 852,
      "91726": 853,
      "918": 854,
      "92": 855,
      "9214": 856,
      "93": 857,
      "94": 858,
      "945up$": 859,
      "946": 860,
      "95": 861,
      "952": 862,
      "957": 863,
      "9570794": 864,
      "96": 865,
      "9609": 866,
      "963": 867,
      "964": 868,
      "965": 869,
      "97": 870,
      "975": 871,
      "977": 872,
      "9778913": 873,
      "98": 874,
      "987": 875,
      "99": 876,
      "990": 877,
      "993": 878,
      "994": 879,
      "999": 880,
      "9999": 881,
      "9d": 882,
      "9d9d": 883,
      "9e": 884,
      "9ja": 885,
      "9ja6pu3": 886,
      "<": 887,
      "=": 888,
      "=3D": 889,
      "=C": 890,
      "=C3=": 891,
      "=C3=A": 892,
      "=C3=A0": 893,
      "=C3=A7": 894,
      "=C3=A9": 895,
      "=C3=B": 896,
      ">": 897,
      "?": 898,
      "@": 899,
      "@@": 900,
      "@@@@": 901,
      "@_": 902,
      "@_32": 903,
      "@hotmail.com": 904,
      "@l": 905,
      "@m": 906,
      "@no": 907,
      "@nochi": 908,
      "@nochipa": 909,
      "@tag": 910,
      "A": 911,
      "AB": 912,
      "AC": 913,
      "ACH": 914,
      "ACU": 915,
      "AD": 916,
      "AI": 917,
      "AJ": 918,
      "AL": 919,
      "AL0": 920,
      "ALEX": 921,
      "ALF": 922,
      "ALFUH": 923,
      "ALFUHR": 924,
      "ALFUHRER": 925,
      "ALIN": 926,
      "AM": 927,
      "AMO": 928,
      "AMOR": 929,
      "AN": 930,
      "AND": 931,
      "ANDRE": 932,
      "ANDREA": 933,
      "ANG": 934,
      "ANGELI": 935,
      "ANI": 936,
      "ANTO": 937,
      "ANTONIO": 938,
      "AP": 939,
      "AR": 940,
      "ARG": 941,
      "ARIO": 942,
      "ARLOS": 943,
      "ARMIN": 944,
      "AS": 945,
      "AS2006": 946,
      "AT": 947,
      "ATO": 948,
      "AU": 949,
      "AV": 950,
      "AVI": 951,
      "AVIER": 952,
      "AY": 953,
      "AZ": 954,
      "Ab": 955,
      "Acu": 956,
      "Acuario": 957,
      "Am": 958,
      "Ar": 959,
      "At": 960,
      "B": 961,
      "BAR": 962,
      "BAS": 963,
      "BB": 964,
      "BE": 965,
      "BE26": 966,
      "BEL": 967,
      "BEME": 968,
      "BER": 969,
      "BES": 970,
      "BET": 971,
      "BETO": 972,
      "BI": 973,
      "BIEN": 974,
      "BRE": 975,
      "Be": 976,
      "Bet": 977,
      "Beto": 978,
      "C": 979,
      "CA": 980,
      "CARLOS": 981,
      "CAS": 982,
      "CE": 983,
      "CES": 984,
      "CH": 985,
      "CHAR": 986,
      "CHIL": 987,
      "CHILO": 988,
      "CHO": 989,
      "CI": 990,
      "CIA": 991,
      "CIL": 992,
      "CIO": 993,
      "CO": 994,
      "CO@_32": 995,
      "COM": 996,
      "COR": 997,
      "COS": 998,
      "COY": 999,
      "Ch": 1000,
      "D": 1001,
      "DA": 1002,
      "DAALFUHRER": 1003,
      "DAD": 1004,
      "DANI": 1005,
      "DANIEL": 1006,
      "DE": 1007,
      "DEDE": 1008,
      "DEN": 1009,
      "DENOV": 1010,
      "DF": 1011,
      "DI": 1012,
      "DO": 1013,
      "DOR": 1014,
      "DR": 1015,
      "DU": 1016,
      "De": 1017,
      "Dream": 1018,
      "Dreamfal": 1019,
      "Dreamfal1": 1020,
      "Dul": 1021,
      "Dules": 1022,
      "E": 1023,
      "E+": 1024,
      "E+11": 1025,
      "E+12": 1026,
      "E+13": 1027,
      "E+14": 1028,
      "E+15": 1029,
      "EL": 1030,
      "ELI": 1031,
      "ELIN": 1032,
      "ELO": 1033,
      "EN": 1034,
      "ENCIA": 1035,
      "ENI": 1036,
      "ER": 1037,
      "ERN": 1038,
      "ERNO": 1039,
      "ERO": 1040,
      "ES": 1041,
      "ESC": 1042,
      "ESTA": 1043,
      "ESTAM": 1044,
      "ESTAMBIEN": 1045,
      "ESU": 1046,
      "ET": 1047,
      "EX": 1048,
      "Efron": 1049,
      "El": 1050,
      "F": 1051,
      "FELI": 1052,
      "FL": 1053,
      "FLIA": 1054,
      "FLIA7415ami1": 1055,
      "FLO": 1056,
      "FO": 1057,
      "FR": 1058,
      "Fla": 1059,
      "G": 1060,
      "GA": 1061,
      "GAS": 1062,
      "GAY": 1063,
      "GE": 1064,
      "GI": 1065,
      "GIRL": 1066,
      "GO": 1067,
      "GU": 1068,
      "H": 1069,
      "HAZ": 1070,
      "HAZEL": 1071,
      "HER": 1072,
      "HU": 1073,
      "Hammar": 1074,
      "Hammarby": 1075,
      "I": 1076,
      "IA": 1077,
      "IA2008": 1078,
      "IAN": 1079,
      "IE": 1080,
      "IEM": 1081,
      "IEMBRE": 1082,
      "II": 1083,
      "IL": 1084,
      "ILL": 1085,
      "ILLO": 1086,
      "IN": 1087,
      "IO": 1088,
      "IS": 1089,
      "ISTO": 1090,
      "IT": 1091,
      "ITA": 1092,
      "ITAR": 1093,
      "J": 1094,
      "JA": 1095,
      "JAVIER": 1096,
      "JE": 1097,
      "JESU": 1098,
      "JESUS": 1099,
      "JO": 1100,
      "JU": 1101,
      "K": 1102,
      "KE": 1103,
      "KI": 1104,
      "Ka": 1105,
      "L": 1106,
      "LA": 1107,
      "LAL0": 1108,
      "LARG": 1109,
      "LE": 1110,
      "LEO": 1111,
      "LI": 1112,
      "LO": 1113,
      "LOS": 1114,
      "LU": 1115,
      "LUCIA": 1116,
      "M": 1117,
      "MA": 1118,
      "MA16": 1119,
      "MA16RO26": 1120,
      "MAR": 1121,
      "MAti": 1122,
      "MAtiCO@_32": 1123,
      "ME": 1124,
      "MF": 1125,
      "MI": 1126,
      "MIEN": 1127,
      "MIN": 1128,
      "MIS": 1129,
      "MO": 1130,
      "MON": 1131,
      "MONT": 1132,
      "MONTRE": 1133,
      "MU": 1134,
      "Ma": 1135,
      "Mar": 1136,
      "Mel": 1137,
      "Mv": 1138,
      "N": 1139,
      "NA": 1140,
      "NAM": 1141,
      "NC": 1142,
      "NE": 1143,
      "NES": 1144,
      "NI": 1145,
      "NIO": 1146,
      "NRL": 1147,
      "NRL290987": 1148,
      "O": 1149,
      "OL": 1150,
      "OU": 1151,
      "OV": 1152,
      "P": 1153,
      "PAL": 1154,
      "PALENCIA": 1155,
      "PE": 1156,
      "PI": 1157,
      "PO": 1158,
      "PP": 1159,
      "PR": 1160,
      "PRIN": 1161,
      "PRINCES": 1162,
      "PRINCESA": 1163,
      "PU": 1164,
      "Q": 1165,
      "QMF": 1166,
      "QU": 1167,
      "QUE": 1168,
      "QUI": 1169,
      "QUIERO": 1170,
      "R": 1171,
      "RA": 1172,
      "RAN": 1173,
      "RE": 1174,
      "REN": 1175,
      "RI": 1176,
      "RL": 1177,
      "RO": 1178,
      "RO26": 1179,
      "Ro": 1180,
      "S": 1181,
      "SA": 1182,
      "SAN": 1183,
      "SE": 1184,
      "SI": 1185,
      "SIL": 1186,
      "SO": 1187,
      "SOY": 1188,
      "ST": 1189,
      "SU": 1190,
      "T": 1191,
      "TA": 1192,
      "TE": 1193,
      "TEQUIERO": 1194,
      "TER": 1195,
      "TI": 1196,
      "TIA": 1197,
      "TO": 1198,
      "TY": 1199,
      "Ti": 1200,
      "U": 1201,
      "UH": 1202,
      "UL": 1203,
      "URI": 1204,
      "V": 1205,
      "VAL": 1206,
      "VER": 1207,
      "VIL": 1208,
      "Vale": 1209,
      "W": 1210,
      "X": 1211,
      "Y": 1212,
      "YT": 1213,
      "Z": 1214,
      "ZA": 1215,
      "ZZ": 1216,
      "Zac": 1217,
      "ZacEfron": 1218,
      "[": 1219,
      "\\": 1220,
      "\\\"\"\"\"": 1221,
      "\\\"\"\"\"\"": 1222,
      "\\'": 1223,
      "\\'\\'": 1224,
      "\\'\\'\\'": 1225,
      "]": 1226,
      "^": 1227,
      "_": 1228,
      "_08": 1229,
      "_1": 1230,
      "_12": 1231,
      "_14": 1232,
      "_4": 1233,
      "_7": 1234,
      "_eiser": 1235,
      "_sal": 1236,
      "_y_": 1237,
      "_y_nanc": 1238,
      "_y_nancy_": 1239,
      "_y_nancy_102": 1240,
      "`": 1241,
      "a": 1242,
      "a.": 1243,
      "a0": 1244,
      "a1": 1245,
      "a123": 1246,
      "a18": 1247,
      "a2007": 1248,
      "a23": 1249,
      "a37": 1250,
      "a6": 1251,
      "aa": 1252,
      "aar": 1253,
      "aat": 1254,
      "ab": 1255,
      "aba": 1256,
      "abb": 1257,
      "abc": 1258,
      "abcd": 1259,
      "abd": 1260,
      "abe": 1261,
      "abea": 1262,
      "abeach": 1263,
      "abel": 1264,
      "abeth": 1265,
      "abi": 1266,
      "abil": 1267,
      "abilidad": 1268,
      "abl": 1269,
      "ablan": 1270,
      "ablanca": 1271,
      "able": 1272,
      "ablitas": 1273,
      "abog": 1274,
      "abon": 1275,
      "abor": 1276,
      "abr": 1277,
      "abu": 1278,
      "abuco": 1279,
      "abuco1956": 1280,
      "ac": 1281,
      "aca": 1282,
      "acap": 1283,
      "acar": 1284,
      "acat": 1285,
      "ace": 1286,
      "aci": 1287,
      "acion": 1288,
      "aciones": 1289,
      "acita": 1290,
      "acito": 1291,
      "ack": 1292,
      "aco": 1293,
      "acola": 1294,
      "act": 1295,
      "acu": 1296,
      "ad": 1297,
      "ada": 1298,
      "adalu": 1299,
      "adalupe": 1300,
      "ade": 1301,
      "adec": 1302,
      "adel": 1303,
      "adem": 1304,
      "adey": 1305,
      "adi": 1306,
      "adiator": 1307,
      "adie": 1308,
      "adios": 1309,
      "admin": 1310,
      "administracion": 1311,
      "ado": 1312,
      "adol": 1313,
      "adona": 1314,
      "ador": 1315,
      "adora": 1316,
      "ados": 1317,
      "adr": 1318,
      "adra": 1319,
      "adre": 1320,
      "adri": 1321,
      "adrian": 1322,
      "adrid": 1323,
      "adu": 1324,
      "ady": 1325,
      "ae": 1326,
      "aer": 1327,
      "af": 1328,
      "ag": 1329,
      "agar": 1330,
      "agarcia": 1331,
      "agat": 1332,
      "agay": 1333,
      "agayor": 1334,
      "agna": 1335,
      "ago": 1336,
      "agro": 1337,
      "agu": 1338,
      "aguas": 1339,
      "ah": 1340,
      "ahara": 1341,
      "ahid": 1342,
      "ahr": 1343,
      "ahran": 1344,
      "ail": 1345,
      "aina": 1346,
      "aitor": 1347,
      "aj": 1348,
      "aja": 1349,
      "ajes": 1350,
      "aji": 1351,
      "ajo": 1352,
      "ak": 1353,
      "al": 1354,
      "ala": 1355,
      "alab": 1356,
      "alam": 1357,
      "alan": 1358,
      "albe": 1359,
      "albert": 1360,
      "albertito": 1361,
      "alberto": 1362,
      "alc": 1363,
      "alcant": 1364,
      "alcatra": 1365,
      "alcatraz": 1366,
      "ald": 1367,
      "alder": 1368,
      "alderia": 1369,
      "aldiv": 1370,
      "aldo": 1371,
      "aldon": 1372,
      "aldu": 1373,
      "ale": 1374,
      "alej": 1375,
      "alejand": 1376,
      "alejandra": 1377,
      "alejandro": 1378,
      "alem": 1379,
      "alen": 1380,
      "alena": 1381,
      "alenbe": 1382,
      "aleon": 1383,
      "ales": 1384,
      "alest": 1385,
      "alex": 1386,
      "alexand": 1387,
      "aley": 1388,
      "alez": 1389,
      "alfon": 1390,
      "alfre": 1391,
      "ali": 1392,
      "alia": 1393,
      "alic": 1394,
      "alil": 1395,
      "alina": 1396,
      "alinda": 1397,
      "alis": 1398,
      "aliz": 1399,
      "alki": 1400,
      "all": 1401,
      "allah": 1402,
      "alle": 1403,
      "allero": 1404,
      "alli": 1405,
      "allica": 1406,
      "ally": 1407,
      "alma": 1408,
      "almag": 1409,
      "alo": 1410,
      "aloka": 1411,
      "alon": 1412,
      "alonga": 1413,
      "alonso": 1414,
      "alp": 1415,
      "alto": 1416,
      "alu": 1417,
      "alucia": 1418,
      "aluk": 1419,
      "aluk2": 1420,
      "alv": 1421,
      "alys": 1422,
      "am": 1423,
      "ama": 1424,
      "amac": 1425,
      "amada": 1426,
      "amadre": 1427,
      "amam": 1428,
      "aman": 1429,
      "amar": 1430,
      "amaria": 1431,
      "amarina": 1432,
      "amaya": 1433,
      "amb": 1434,
      "ame": 1435,
      "amed": 1436,
      "amejor": 1437,
      "amel": 1438,
      "amelo": 1439,
      "amer": 1440,
      "amer88": 1441,
      "americ": 1442,
      "america": 1443,
      "ami": 1444,
      "amig": 1445,
      "amigos": 1446,
      "amil": 1447,
      "amily": 1448,
      "amino": 1449,
      "amire": 1450,
      "amirez": 1451,
      "ammar": 1452,
      "amo": 1453,
      "amon": 1454,
      "amor": 1455,
      "amores": 1456,
      "amoreter": 1457,
      "amoreterno": 1458,
      "amoz": 1459,
      "ams": 1460,
      "amster": 1461,
      "amsterdam": 1462,
      "amsung": 1463,
      "an": 1464,
      "ana": 1465,
      "anab": 1466,
      "anada": 1467,
      "anazer": 1468,
      "anazerim": 1469,
      "anazerimar": 1470,
      "anc": 1471,
      "and": 1472,
      "anda": 1473,
      "andalo": 1474,
      "ande": 1475,
      "andesa": 1476,
      "andez": 1477,
      "andia": 1478,
      "ando": 1479,
      "andr": 1480,
      "andre": 1481,
      "andrea": 1482,
      "andres": 1483,
      "andy": 1484,
      "ane": 1485,
      "ang": 1486,
      "anga": 1487,
      "angab": 1488,
      "angel": 1489,
      "angelo": 1490,
      "angels": 1491,
      "ani": 1492,
      "ani22": 1493,
      "ania": 1494,
      "anic": 1495,
      "anie": 1496,
      "aniel": 1497,
      "anim": 1498,
      "anita": 1499,
      "anj": 1500,
      "anni": 1501,
      "ano": 1502,
      "anon": 1503,
      "anos": 1504,
      "ans": 1505,
      "ant": 1506,
      "ante": 1507,
      "antel": 1508,
      "anter": 1509,
      "anti": 1510,
      "antin": 1511,
      "anto": 1512,
      "anton": 1513,
      "antonio": 1514,
      "antos": 1515,
      "anueva": 1516,
      "any": 1517,
      "anz": 1518,
      "anza": 1519,
      "ap": 1520,
      "apa": 1521,
      "apat": 1522,
      "ape": 1523,
      "apo": 1524,
      "apol": 1525,
      "appy": 1526,
      "apr": 1527,
      "ar": 1528,
      "ara": 1529,
      "aran": 1530,
      "arbol": 1531,
      "arboleda": 1532,
      "arch": 1533,
      "arco": 1534,
      "arcoiris": 1535,
      "ard": 1536,
      "ardin": 1537,
      "ardinero": 1538,
      "ardo": 1539,
      "are": 1540,
      "arealonga": 1541,
      "arely": 1542,
      "aren": 1543,
      "ares": 1544,
      "aret": 1545,
      "arg": 1546,
      "ari": 1547,
      "aria": 1548,
      "arian": 1549,
      "arianne": 1550,
      "ariel": 1551,
      "ario": 1552,
      "arita": 1553,
      "ark": 1554,
      "arl": 1555,
      "arlie": 1556,
      "arlin": 1557,
      "arm": 1558,
      "armand": 1559,
      "armando": 1560,
      "aro": 1561,
      "aroa": 1562,
      "aron": 1563,
      "arot": 1564,
      "arquit": 1565,
      "arquitec": 1566,
      "arquitect": 1567,
      "arr": 1568,
      "arra": 1569,
      "arre": 1570,
      "arri": 1571,
      "arro": 1572,
      "arry": 1573,
      "arrypot": 1574,
      "ars": 1575,
      "art": 1576,
      "arte": 1577,
      "arth": 1578,
      "arthur": 1579,
      "artur": 1580,
      "arturito": 1581,
      "arturo": 1582,
      "ary": 1583,
      "as": 1584,
      "as16": 1585,
      "asa": 1586,
      "asanueva": 1587,
      "asdf": 1588,
      "asdfasdf": 1589,
      "ase": 1590,
      "aseg": 1591,
      "asegura": 1592,
      "ash": 1593,
      "ashion": 1594,
      "ashley": 1595,
      "asi": 1596,
      "asito": 1597,
      "asm": 1598,
      "asma": 1599,
      "aso": 1600,
      "ason": 1601,
      "asr": 1602,
      "ass": 1603,
      "assw": 1604,
      "assword": 1605,
      "ast": 1606,
      "aste": 1607,
      "asti": 1608,
      "astique": 1609,
      "astr": 1610,
      "astur": 1611,
      "asu": 1612,
      "asy": 1613,
      "asyyo": 1614,
      "at": 1615,
      "at.madrid": 1616,
      "ata": 1617,
      "ate": 1618,
      "ateamo": 1619,
      "athan": 1620,
      "ati": 1621,
      "ation": 1622,
      "aton": 1623,
      "ator": 1624,
      "atra": 1625,
      "att": 1626,
      "au": 1627,
      "aud": 1628,
      "audi": 1629,
      "audrey": 1630,
      "audrey26": 1631,
      "aur": 1632,
      "aurel": 1633,
      "aurelio": 1634,
      "aust": 1635,
      "austin": 1636,
      "av": 1637,
      "avad": 1638,
      "avanz": 1639,
      "ave": 1640,
      "avefenix": 1641,
      "aven": 1642,
      "aver": 1643,
      "avez": 1644,
      "avida": 1645,
      "avil": 1646,
      "avito": 1647,
      "avo": 1648,
      "avr": 1649,
      "ax": 1650,
      "axel": 1651,
      "axl": 1652,
      "ay": 1653,
      "aya": 1654,
      "ayariel": 1655,
      "ayel": 1656,
      "aygar": 1657,
      "aygaru": 1658,
      "ayle": 1659,
      "ayleenl": 1660,
      "ayleenloy": 1661,
      "aylin": 1662,
      "ayo": 1663,
      "aypap": 1664,
      "ayu": 1665,
      "az": 1666,
      "aza": 1667,
      "azar": 1668,
      "azer": 1669,
      "azerty": 1670,
      "azmin": 1671,
      "azo": 1672,
      "azon": 1673,
      "azorel": 1674,
      "azqu": 1675,
      "azquez": 1676,
      "azu": 1677,
      "azul": 1678,
      "azz": 1679,
      "b": 1680,
      "b-": 1681,
      "b3": 1682,
      "b82": 1683,
      "ba": 1684,
      "bab": 1685,
      "baba123": 1686,
      "baby": 1687,
      "bac": 1688,
      "bad": 1689,
      "bail": 1690,
      "baj": 1691,
      "bal": 1692,
      "ball": 1693,
      "balon": 1694,
      "balonces": 1695,
      "baloncesto": 1696,
      "bam": 1697,
      "ban": 1698,
      "bao": 1699,
      "bar": 1700,
      "barbac": 1701,
      "barby": 1702,
      "barcel": 1703,
      "barcelona": 1704,
      "barr": 1705,
      "baru": 1706,
      "bas": 1707,
      "bash": 1708,
      "bast": 1709,
      "bastian": 1710,
      "bat": 1711,
      "bax": 1712,
      "bb": 1713,
      "bbbb": 1714,
      "bbbbbbbb": 1715,
      "bc": 1716,
      "bd": 1717,
      "be": 1718,
      "bea": 1719,
      "bear": 1720,
      "beat": 1721,
      "beatriz": 1722,
      "bebe": 1723,
      "bebo": 1724,
      "beca": 1725,
      "becer": 1726,
      "beck": 1727,
      "becor": 1728,
      "bed": 1729,
      "bego": 1730,
      "bek": 1731,
      "bel": 1732,
      "beld": 1733,
      "belen": 1734,
      "bell": 1735,
      "bella": 1736,
      "bem": 1737,
      "ben": 1738,
      "bened": 1739,
      "benedetti": 1740,
      "beni": 1741,
      "benito": 1742,
      "ber": 1743,
      "bere": 1744,
      "beren": 1745,
      "berenice": 1746,
      "bern": 1747,
      "bernie": 1748,
      "bero": 1749,
      "berry": 1750,
      "bert": 1751,
      "berto": 1752,
      "berton": 1753,
      "bertonet": 1754,
      "bertonetur": 1755,
      "bertoneturbo": 1756,
      "bes": 1757,
      "bess": 1758,
      "best": 1759,
      "bet": 1760,
      "beto": 1761,
      "betor": 1762,
      "betty": 1763,
      "bety": 1764,
      "bg": 1765,
      "bi": 1766,
      "bian": 1767,
      "bianca": 1768,
      "bibek": 1769,
      "bibian": 1770,
      "bicho": 1771,
      "bid": 1772,
      "bil": 1773,
      "bilal": 1774,
      "bill": 1775,
      "bin": 1776,
      "binod": 1777,
      "bip": 1778,
      "bit": 1779,
      "bitch": 1780,
      "biza": 1781,
      "bj": 1782,
      "bl": 1783,
      "bla": 1784,
      "black": 1785,
      "blan": 1786,
      "blanc": 1787,
      "blancanie": 1788,
      "bless": 1789,
      "bling": 1790,
      "blink": 1791,
      "blink182": 1792,
      "blu": 1793,
      "bm": 1794,
      "bn": 1795,
      "bo": 1796,
      "bob": 1797,
      "bobb": 1798,
      "bol": 1799,
      "bom": 1800,
      "bombon": 1801,
      "bon": 1802,
      "bona": 1803,
      "bond": 1804,
      "bonita": 1805,
      "bor": 1806,
      "born": 1807,
      "bos": 1808,
      "bot": 1809,
      "bou": 1810,
      "boy": 1811,
      "br": 1812,
      "bra": 1813,
      "brail": 1814,
      "brav": 1815,
      "bravo": 1816,
      "braz": 1817,
      "brazil": 1818,
      "brazilian": 1819,
      "brazilianflow": 1820,
      "bre": 1821,
      "brend": 1822,
      "brero": 1823,
      "bri": 1824,
      "brian": 1825,
      "brig": 1826,
      "bril": 1827,
      "brito": 1828,
      "bro": 1829,
      "bros": 1830,
      "bru": 1831,
      "bs": 1832,
      "bu": 1833,
      "buena": 1834,
      "bur": 1835,
      "burbu": 1836,
      "by": 1837,
      "c": 1838,
      "ca": 1839,
      "ca-": 1840,
      "cab": 1841,
      "cach": 1842,
      "cacho": 1843,
      "cachor": 1844,
      "cachorr": 1845,
      "cador": 1846,
      "cal": 1847,
      "cali": 1848,
      "cam": 1849,
      "camaron": 1850,
      "camil": 1851,
      "camilita": 1852,
      "camp": 1853,
      "campeon": 1854,
      "can": 1855,
      "canc": 1856,
      "cand": 1857,
      "candelita": 1858,
      "canto": 1859,
      "cap": 1860,
      "capric": 1861,
      "capricornio": 1862,
      "car": 1863,
      "carac": 1864,
      "carit": 1865,
      "carl": 1866,
      "carla": 1867,
      "carlitos": 1868,
      "carlos": 1869,
      "carmel": 1870,
      "carmen": 1871,
      "carolina": 1872,
      "carped": 1873,
      "carpediem": 1874,
      "carrera": 1875,
      "carrera380": 1876,
      "cas": 1877,
      "casa": 1878,
      "casan": 1879,
      "cast": 1880,
      "cat": 1881,
      "catalina": 1882,
      "cate": 1883,
      "cay": 1884,
      "cc": 1885,
      "ccaygaru": 1886,
      "ce": 1887,
      "cec": 1888,
      "ced": 1889,
      "cedes": 1890,
      "cel": 1891,
      "cen": 1892,
      "cena": 1893,
      "cent": 1894,
      "cep": 1895,
      "cer": 1896,
      "ces": 1897,
      "cesar": 1898,
      "cess": 1899,
      "ch": 1900,
      "cha": 1901,
      "chach": 1902,
      "chal": 1903,
      "chap": 1904,
      "chard": 1905,
      "charlie": 1906,
      "charm": 1907,
      "chas": 1908,
      "chat": 1909,
      "che": 1910,
      "ched": 1911,
      "chel": 1912,
      "chelito": 1913,
      "chen": 1914,
      "chez": 1915,
      "chi": 1916,
      "chic": 1917,
      "chick": 1918,
      "chil": 1919,
      "chim": 1920,
      "chin": 1921,
      "ching": 1922,
      "chiqu": 1923,
      "chiquita": 1924,
      "chis": 1925,
      "chito": 1926,
      "chiv": 1927,
      "chivas": 1928,
      "cho": 1929,
      "choc": 1930,
      "chocol": 1931,
      "chocolate": 1932,
      "chos": 1933,
      "chris": 1934,
      "christ": 1935,
      "chu": 1936,
      "chucha": 1937,
      "chuel": 1938,
      "chul": 1939,
      "chulo": 1940,
      "chum": 1941,
      "chund": 1942,
      "chus": 1943,
      "ci": 1944,
      "cia": 1945,
      "cielo": 1946,
      "cielo04": 1947,
      "ciento": 1948,
      "cillo": 1949,
      "cion": 1950,
      "cito": 1951,
      "cj": 1952,
      "ck": 1953,
      "cky": 1954,
      "cl": 1955,
      "cleop": 1956,
      "cleopatra": 1957,
      "cli": 1958,
      "co": 1959,
      "coc": 1960,
      "cocacola": 1961,
      "coco": 1962,
      "cocol": 1963,
      "col": 1964,
      "cold": 1965,
      "com": 1966,
      "compar": 1967,
      "compart": 1968,
      "compu": 1969,
      "comput": 1970,
      "con": 1971,
      "cond": 1972,
      "cone": 1973,
      "conej": 1974,
      "conejito": 1975,
      "conlo": 1976,
      "conloquet": 1977,
      "conloqueted": 1978,
      "conqu": 1979,
      "conquista": 1980,
      "cons": 1981,
      "cont": 1982,
      "contras": 1983,
      "conver": 1984,
      "converse": 1985,
      "cop": 1986,
      "copia": 1987,
      "cor": 1988,
      "corazon": 1989,
      "corp": 1990,
      "corpion": 1991,
      "corre": 1992,
      "cot": 1993,
      "cou": 1994,
      "coucou": 1995,
      "cr": 1996,
      "cre": 1997,
      "cris": 1998,
      "crist": 1999,
      "cristian": 2000,
      "cristo": 2001,
      "cro": 2002,
      "cron": 2003,
      "ct": 2004,
      "ctvs": 2005,
      "ctvsctvs": 2006,
      "cu": 2007,
      "cualki": 2008,
      "cul": 2009,
      "cum": 2010,
      "cur": 2011,
      "cute": 2012,
      "cv": 2013,
      "cx": 2014,
      "cy": 2015,
      "d": 2016,
      "da": 2017,
      "dak": 2018,
      "dakota": 2019,
      "dam": 2020,
      "damian": 2021,
      "dan": 2022,
      "daniel": 2023,
      "dany": 2024,
      "dar": 2025,
      "dares": 2026,
      "daresdar": 2027,
      "das": 2028,
      "dasdas": 2029,
      "dash": 2030,
      "dav": 2031,
      "david": 2032,
      "de": 2033,
      "dead": 2034,
      "dec": 2035,
      "deg": 2036,
      "dejulio": 2037,
      "dejunio": 2038,
      "del": 2039,
      "dele": 2040,
      "delfin": 2041,
      "dell": 2042,
      "delpi": 2043,
      "delpiero": 2044,
      "dem": 2045,
      "demon": 2046,
      "der": 2047,
      "dere": 2048,
      "des": 2049,
      "dez": 2050,
      "df": 2051,
      "dg": 2052,
      "dh": 2053,
      "di": 2054,
      "dia": 2055,
      "dic": 2056,
      "diciembre": 2057,
      "did": 2058,
      "diddl": 2059,
      "die": 2060,
      "diego": 2061,
      "difer": 2062,
      "dion": 2063,
      "div": 2064,
      "divino": 2065,
      "dj": 2066,
      "dl": 2067,
      "do": 2068,
      "dog": 2069,
      "dol": 2070,
      "dom": 2071,
      "domin": 2072,
      "don": 2073,
      "dos": 2074,
      "doteamo": 2075,
      "dou": 2076,
      "doudou": 2077,
      "dow": 2078,
      "dra": 2079,
      "dragon": 2080,
      "dre": 2081,
      "dres": 2082,
      "dri": 2083,
      "du": 2084,
      "duel": 2085,
      "duele": 2086,
      "dul": 2087,
      "dulce": 2088,
      "dun": 2089,
      "dur": 2090,
      "dy": 2091,
      "dylan": 2092,
      "e": 2093,
      "e.": 2094,
      "e15": 2095,
      "e2": 2096,
      "e3": 2097,
      "e_": 2098,
      "eb": 2099,
      "ec": 2100,
      "eca": 2101,
      "ecas": 2102,
      "ech": 2103,
      "ecita": 2104,
      "eco": 2105,
      "ecor": 2106,
      "ecos": 2107,
      "ecostom": 2108,
      "ecostomus": 2109,
      "ecostomusgu": 2110,
      "ecostomusgupy": 2111,
      "ect": 2112,
      "ector": 2113,
      "ed": 2114,
      "eda": 2115,
      "edacito": 2116,
      "edad": 2117,
      "eder": 2118,
      "edia": 2119,
      "edu": 2120,
      "eer": 2121,
      "ef": 2122,
      "efante": 2123,
      "efen": 2124,
      "efenix": 2125,
      "eg": 2126,
      "ega": 2127,
      "egra": 2128,
      "egro": 2129,
      "ei": 2130,
      "ein": 2131,
      "eis": 2132,
      "eiser": 2133,
      "eiser_eiser": 2134,
      "el": 2135,
      "ela": 2136,
      "elamor": 2137,
      "elap": 2138,
      "elas": 2139,
      "elda": 2140,
      "ele": 2141,
      "elefante": 2142,
      "elem": 2143,
      "eleon": 2144,
      "elfi": 2145,
      "eli": 2146,
      "eliDAD": 2147,
      "elia": 2148,
      "eling": 2149,
      "elis": 2150,
      "elita": 2151,
      "eliz": 2152,
      "elizabeth": 2153,
      "ell": 2154,
      "ella": 2155,
      "ellano": 2156,
      "eller": 2157,
      "elly": 2158,
      "elmas": 2159,
      "elmejor": 2160,
      "elmo": 2161,
      "elo": 2162,
      "elos": 2163,
      "els": 2164,
      "ely": 2165,
      "em": 2166,
      "eman": 2167,
      "emaria": 2168,
      "embre": 2169,
      "eme": 2170,
      "emela": 2171,
      "emente": 2172,
      "emer": 2173,
      "emil": 2174,
      "emilio": 2175,
      "emin": 2176,
      "eminis": 2177,
      "emmanuel": 2178,
      "emon": 2179,
      "en": 2180,
      "ena": 2181,
      "ena73": 2182,
      "enamor": 2183,
      "enamorada": 2184,
      "enamorado": 2185,
      "enay": 2186,
      "enc": 2187,
      "encia": 2188,
      "end": 2189,
      "endi": 2190,
      "enero": 2191,
      "enez": 2192,
      "enfer": 2193,
      "eng": 2194,
      "enger": 2195,
      "engo": 2196,
      "enita": 2197,
      "enjamin": 2198,
      "enl": 2199,
      "eno": 2200,
      "enov": 2201,
      "enoviembre": 2202,
      "ense": 2203,
      "ent": 2204,
      "enta": 2205,
      "ente": 2206,
      "entes": 2207,
      "enti": 2208,
      "ento": 2209,
      "entos": 2210,
      "entosrar": 2211,
      "entosraros": 2212,
      "ep": 2213,
      "er": 2214,
      "era": 2215,
      "erah": 2216,
      "eras": 2217,
      "ere": 2218,
      "eres": 2219,
      "eri": 2220,
      "eric": 2221,
      "erj": 2222,
      "ero": 2223,
      "err": 2224,
      "errero": 2225,
      "ers": 2226,
      "erte": 2227,
      "erva": 2228,
      "es": 2229,
      "esa": 2230,
      "esauri": 2231,
      "escar": 2232,
      "escorpion": 2233,
      "esen": 2234,
      "eses": 2235,
      "esita": 2236,
      "esme": 2237,
      "eso": 2238,
      "esol": 2239,
      "esp": 2240,
      "ess": 2241,
      "essenger": 2242,
      "est": 2243,
      "este": 2244,
      "estef": 2245,
      "estic": 2246,
      "esto": 2247,
      "estr": 2248,
      "estre": 2249,
      "estrell": 2250,
      "estrella": 2251,
      "estrellita": 2252,
      "estu": 2253,
      "estud": 2254,
      "et": 2255,
      "eta": 2256,
      "etam": 2257,
      "ete": 2258,
      "eteamo": 2259,
      "eter": 2260,
      "eth": 2261,
      "eti": 2262,
      "etit": 2263,
      "eton": 2264,
      "etro": 2265,
      "ette": 2266,
      "etti": 2267,
      "ev": 2268,
      "eva": 2269,
      "ever": 2270,
      "ex": 2271,
      "exter": 2272,
      "ey": 2273,
      "eyor": 2274,
      "ez": 2275,
      "f": 2276,
      "fa": 2277,
      "fab": 2278,
      "fabi": 2279,
      "fac": 2280,
      "fad": 2281,
      "fal": 2282,
      "family": 2283,
      "fan": 2284,
      "fant": 2285,
      "far": 2286,
      "fas": 2287,
      "fashion": 2288,
      "fat": 2289,
      "fb82": 2290,
      "fe": 2291,
      "fea": 2292,
      "feb": 2293,
      "febrero": 2294,
      "feder": 2295,
      "fel": 2296,
      "feli": 2297,
      "felicidad": 2298,
      "felipe": 2299,
      "feliz": 2300,
      "fen": 2301,
      "fer": 2302,
      "fern": 2303,
      "fernanda": 2304,
      "ff": 2305,
      "ffh": 2306,
      "fg": 2307,
      "fi": 2308,
      "fid": 2309,
      "fidel": 2310,
      "fideliDAD": 2311,
      "fideliDAD03": 2312,
      "fideliDAD031008": 2313,
      "fiel": 2314,
      "field": 2315,
      "fin": 2316,
      "fir": 2317,
      "firu": 2318,
      "fito": 2319,
      "fj": 2320,
      "fl": 2321,
      "fla": 2322,
      "flaco": 2323,
      "flor": 2324,
      "flores": 2325,
      "flow": 2326,
      "fo": 2327,
      "foc": 2328,
      "focus": 2329,
      "fon": 2330,
      "fonsec": 2331,
      "fonseca": 2332,
      "foot": 2333,
      "football": 2334,
      "for": 2335,
      "ford": 2336,
      "fordfi": 2337,
      "forever": 2338,
      "formal": 2339,
      "fot": 2340,
      "fox": 2341,
      "foz": 2342,
      "fr": 2343,
      "fra": 2344,
      "fran": 2345,
      "franc": 2346,
      "francis": 2347,
      "franco": 2348,
      "fre": 2349,
      "fres": 2350,
      "fri": 2351,
      "friend": 2352,
      "friends": 2353,
      "fron": 2354,
      "fu": 2355,
      "fuentes": 2356,
      "ful": 2357,
      "fut": 2358,
      "fv": 2359,
      "g": 2360,
      "g5": 2361,
      "ga": 2362,
      "gab": 2363,
      "gabri": 2364,
      "gaby": 2365,
      "gado": 2366,
      "gal": 2367,
      "gall": 2368,
      "gan": 2369,
      "gar": 2370,
      "garcia": 2371,
      "garita": 2372,
      "garybar": 2373,
      "garybarlow": 2374,
      "gat": 2375,
      "gb": 2376,
      "ge": 2377,
      "geminis": 2378,
      "gen": 2379,
      "genitor": 2380,
      "geov": 2381,
      "geovanni": 2382,
      "ger": 2383,
      "gerard": 2384,
      "gerardo": 2385,
      "gg": 2386,
      "gh": 2387,
      "ghg": 2388,
      "gi": 2389,
      "gian": 2390,
      "gim": 2391,
      "ginger": 2392,
      "gio": 2393,
      "giov": 2394,
      "girl": 2395,
      "gis": 2396,
      "giv": 2397,
      "gk": 2398,
      "gl": 2399,
      "gladiator": 2400,
      "glor": 2401,
      "gm": 2402,
      "go": 2403,
      "gol": 2404,
      "gon": 2405,
      "gonz": 2406,
      "gonzalez": 2407,
      "gor": 2408,
      "gord": 2409,
      "goso": 2410,
      "got": 2411,
      "gr": 2412,
      "grac": 2413,
      "granada": 2414,
      "gre": 2415,
      "green": 2416,
      "gris": 2417,
      "gros": 2418,
      "grum": 2419,
      "gs": 2420,
      "gt": 2421,
      "gu": 2422,
      "guadalupe": 2423,
      "guapo": 2424,
      "gue": 2425,
      "guera": 2426,
      "guerrero": 2427,
      "guez": 2428,
      "guim": 2429,
      "guimos": 2430,
      "guimosavanz": 2431,
      "guita": 2432,
      "gur": 2433,
      "gurl": 2434,
      "gus": 2435,
      "gust": 2436,
      "gustavo": 2437,
      "gy": 2438,
      "h": 2439,
      "h2": 2440,
      "ha": 2441,
      "hal": 2442,
      "ham": 2443,
      "han": 2444,
      "happy": 2445,
      "harrypot": 2446,
      "has": 2447,
      "hat": 2448,
      "hd": 2449,
      "hdf": 2450,
      "he": 2451,
      "head": 2452,
      "heart": 2453,
      "hel": 2454,
      "hell": 2455,
      "hen": 2456,
      "henry": 2457,
      "her": 2458,
      "herine": 2459,
      "herm": 2460,
      "herman": 2461,
      "hermosa": 2462,
      "hg": 2463,
      "hi": 2464,
      "hia": 2465,
      "hio": 2466,
      "hip": 2467,
      "his": 2468,
      "hj": 2469,
      "ho": 2470,
      "hoc": 2471,
      "hol": 2472,
      "hola": 2473,
      "hom": 2474,
      "homero": 2475,
      "hop": 2476,
      "hor": 2477,
      "hormig": 2478,
      "horse": 2479,
      "hot": 2480,
      "hotmail": 2481,
      "hotmail.com": 2482,
      "house": 2483,
      "hu": 2484,
      "huev": 2485,
      "hugo": 2486,
      "hur": 2487,
      "hy": 2488,
      "i": 2489,
      "i-": 2490,
      "i10": 2491,
      "ia": 2492,
      "ia10": 2493,
      "ia13": 2494,
      "ia2": 2495,
      "ial": 2496,
      "iam": 2497,
      "ian": 2498,
      "iana": 2499,
      "iano": 2500,
      "iany": 2501,
      "ianza": 2502,
      "ias": 2503,
      "ib": 2504,
      "ic": 2505,
      "ic23": 2506,
      "ica": 2507,
      "icam": 2508,
      "icas": 2509,
      "ice": 2510,
      "icente": 2511,
      "ich": 2512,
      "icia": 2513,
      "icidad": 2514,
      "icil": 2515,
      "icio": 2516,
      "icion": 2517,
      "icl": 2518,
      "icles": 2519,
      "ico": 2520,
      "icos": 2521,
      "ics": 2522,
      "id": 2523,
      "ida": 2524,
      "idad": 2525,
      "idane": 2526,
      "idane2006": 2527,
      "idas": 2528,
      "ide": 2529,
      "ider": 2530,
      "ides": 2531,
      "idia": 2532,
      "ido": 2533,
      "idos": 2534,
      "ie": 2535,
      "iel": 2536,
      "ielo": 2537,
      "iem": 2538,
      "iembre": 2539,
      "iempre": 2540,
      "ien": 2541,
      "ier": 2542,
      "ierou": 2543,
      "ierou_sal": 2544,
      "ifac": 2545,
      "ig": 2546,
      "igh": 2547,
      "igital": 2548,
      "ign": 2549,
      "igo": 2550,
      "igu": 2551,
      "ii": 2552,
      "ik": 2553,
      "ika": 2554,
      "il": 2555,
      "ila": 2556,
      "ild": 2557,
      "ile": 2558,
      "ilega": 2559,
      "ill": 2560,
      "illa": 2561,
      "illana": 2562,
      "illas": 2563,
      "ille": 2564,
      "illo": 2565,
      "illon": 2566,
      "illos": 2567,
      "illus": 2568,
      "ilov": 2569,
      "ilove": 2570,
      "ilove(": 2571,
      "iloved": 2572,
      "iloveu": 2573,
      "iloveu4ever": 2574,
      "iloveyou": 2575,
      "ilsa": 2576,
      "ilu": 2577,
      "im": 2578,
      "ima": 2579,
      "imaf": 2580,
      "ime": 2581,
      "imi": 2582,
      "imir": 2583,
      "immig": 2584,
      "immigrand": 2585,
      "immigrands": 2586,
      "imo": 2587,
      "impl": 2588,
      "implemente": 2589,
      "in": 2590,
      "in92": 2591,
      "ina": 2592,
      "inad": 2593,
      "ind": 2594,
      "inda": 2595,
      "indie": 2596,
      "ine": 2597,
      "ines": 2598,
      "ing": 2599,
      "inger": 2600,
      "ingo": 2601,
      "inha": 2602,
      "ini": 2603,
      "ink": 2604,
      "ino": 2605,
      "int": 2606,
      "inter": 2607,
      "inv": 2608,
      "io": 2609,
      "ion": 2610,
      "iop": 2611,
      "ior": 2612,
      "ios": 2613,
      "iota": 2614,
      "iouf": 2615,
      "iouf2": 2616,
      "ip": 2617,
      "ipo": 2618,
      "ique": 2619,
      "ir": 2620,
      "ira": 2621,
      "irchen": 2622,
      "iria": 2623,
      "iris": 2624,
      "irl": 2625,
      "iro": 2626,
      "iron": 2627,
      "iros": 2628,
      "iros2007": 2629,
      "is": 2630,
      "isa": 2631,
      "isabel": 2632,
      "isc": 2633,
      "isd": 2634,
      "ise": 2635,
      "ises": 2636,
      "ish": 2637,
      "isima": 2638,
      "isis": 2639,
      "isma": 2640,
      "ismo": 2641,
      "ismy": 2642,
      "iso": 2643,
      "ison": 2644,
      "isra": 2645,
      "israel": 2646,
      "issa": 2647,
      "ist": 2648,
      "ista": 2649,
      "istad": 2650,
      "istan": 2651,
      "iste": 2652,
      "ister": 2653,
      "istol": 2654,
      "istols": 2655,
      "istr": 2656,
      "istracion": 2657,
      "isy": 2658,
      "it": 2659,
      "ita": 2660,
      "ita1": 2661,
      "ita10": 2662,
      "ita27": 2663,
      "itaa": 2664,
      "itacion": 2665,
      "ital": 2666,
      "italinda": 2667,
      "itar": 2668,
      "itario": 2669,
      "itas": 2670,
      "ite": 2671,
      "ith": 2672,
      "itha": 2673,
      "ito": 2674,
      "itor": 2675,
      "itor18": 2676,
      "itos": 2677,
      "itp": 2678,
      "itu": 2679,
      "ity": 2680,
      "itz": 2681,
      "iu": 2682,
      "ius": 2683,
      "iv": 2684,
      "iva": 2685,
      "ivan": 2686,
      "ive": 2687,
      "iver": 2688,
      "ivida": 2689,
      "ivonne": 2690,
      "ivoy": 2691,
      "ivoyconloqueted": 2692,
      "ix": 2693,
      "iy": 2694,
      "iz": 2695,
      "izu": 2696,
      "izz": 2697,
      "j": 2698,
      "ja": 2699,
      "jack": 2700,
      "jagayor": 2701,
      "jaime": 2702,
      "jam": 2703,
      "james": 2704,
      "jamin": 2705,
      "jan": 2706,
      "jav": 2707,
      "javier": 2708,
      "jaz": 2709,
      "je": 2710,
      "jer": 2711,
      "jes": 2712,
      "jesus": 2713,
      "jf": 2714,
      "ji": 2715,
      "jim": 2716,
      "jimenez": 2717,
      "jk": 2718,
      "jn": 2719,
      "jo": 2720,
      "jo11": 2721,
      "joan": 2722,
      "jod": 2723,
      "joh": 2724,
      "john": 2725,
      "joma": 2726,
      "jon": 2727,
      "jor": 2728,
      "jord": 2729,
      "jorge": 2730,
      "jos": 2731,
      "jose": 2732,
      "josel": 2733,
      "joseluis": 2734,
      "jr": 2735,
      "jt": 2736,
      "jtm": 2737,
      "jtm6": 2738,
      "ju": 2739,
      "juan": 2740,
      "juana": 2741,
      "juanc": 2742,
      "juancarlos": 2743,
      "jud": 2744,
      "jul": 2745,
      "julia": 2746,
      "julio": 2747,
      "jun": 2748,
      "junio": 2749,
      "juntos": 2750,
      "jur": 2751,
      "just": 2752,
      "k": 2753,
      "k.": 2754,
      "k@": 2755,
      "k_": 2756,
      "ka": 2757,
      "ka_": 2758,
      "kab": 2759,
      "kar": 2760,
      "karazorel": 2761,
      "karen": 2762,
      "karina": 2763,
      "karl": 2764,
      "karlos": 2765,
      "karol": 2766,
      "karr": 2767,
      "kat": 2768,
      "kater": 2769,
      "katherine": 2770,
      "kaul": 2771,
      "kaulitz": 2772,
      "kay": 2773,
      "ke": 2774,
      "kel": 2775,
      "ken": 2776,
      "ker": 2777,
      "kero": 2778,
      "kes": 2779,
      "kh": 2780,
      "khady": 2781,
      "khkh": 2782,
      "ki": 2783,
      "kiero": 2784,
      "kik": 2785,
      "kiki": 2786,
      "kim": 2787,
      "kin": 2788,
      "king": 2789,
      "kio": 2790,
      "kis": 2791,
      "kiss": 2792,
      "kit": 2793,
      "kita": 2794,
      "kitt": 2795,
      "kittkarr": 2796,
      "kn": 2797,
      "knot": 2798,
      "kon": 2799,
      "kr": 2800,
      "kris": 2801,
      "ktor": 2802,
      "ku": 2803,
      "kur": 2804,
      "ky": 2805,
      "l": 2806,
      "la": 2807,
      "lac": 2808,
      "lach": 2809,
      "lad": 2810,
      "lady": 2811,
      "lag": 2812,
      "laguera": 2813,
      "lah": 2814,
      "lal": 2815,
      "lam": 2816,
      "lamas": 2817,
      "lamejor": 2818,
      "lamisma": 2819,
      "lan": 2820,
      "land": 2821,
      "lar": 2822,
      "las": 2823,
      "lau": 2824,
      "laun": 2825,
      "laur": 2826,
      "lav": 2827,
      "lay": 2828,
      "laz": 2829,
      "lc": 2830,
      "ld": 2831,
      "le": 2832,
      "led": 2833,
      "leinad": 2834,
      "len": 2835,
      "lene": 2836,
      "leo": 2837,
      "leon": 2838,
      "leonardo": 2839,
      "leop": 2840,
      "lest": 2841,
      "let": 2842,
      "lev": 2843,
      "ley": 2844,
      "li": 2845,
      "libert": 2846,
      "libertad": 2847,
      "libre": 2848,
      "lidia": 2849,
      "life": 2850,
      "lig": 2851,
      "lil": 2852,
      "lili": 2853,
      "lim": 2854,
      "lin": 2855,
      "lind": 2856,
      "linda": 2857,
      "lio": 2858,
      "lip": 2859,
      "lipknot": 2860,
      "lips": 2861,
      "lis": 2862,
      "lita": 2863,
      "litu": 2864,
      "liver": 2865,
      "ll": 2866,
      "lo": 2867,
      "lobos": 2868,
      "loc": 2869,
      "location": 2870,
      "loch": 2871,
      "loco": 2872,
      "loka": 2873,
      "lol": 2874,
      "lola": 2875,
      "lor": 2876,
      "lorenay": 2877,
      "los": 2878,
      "lou": 2879,
      "loul": 2880,
      "loulou": 2881,
      "lov": 2882,
      "love": 2883,
      "lover": 2884,
      "loves": 2885,
      "low": 2886,
      "lp": 2887,
      "lpma": 2888,
      "lpma2204": 2889,
      "lr": 2890,
      "lu": 2891,
      "lucas": 2892,
      "luci": 2893,
      "luis": 2894,
      "lun": 2895,
      "lup": 2896,
      "lupita": 2897,
      "luz": 2898,
      "ly": 2899,
      "lz": 2900,
      "m": 2901,
      "m55": 2902,
      "ma": 2903,
      "mabel": 2904,
      "mac": 2905,
      "mad": 2906,
      "madrid": 2907,
      "mag": 2908,
      "maid": 2909,
      "maiden": 2910,
      "mail": 2911,
      "major": 2912,
      "mak": 2913,
      "mal": 2914,
      "maldon": 2915,
      "malen": 2916,
      "malindie": 2917,
      "mall": 2918,
      "mallor": 2919,
      "mallorca": 2920,
      "mam": 2921,
      "mama": 2922,
      "mami": 2923,
      "mamo": 2924,
      "man": 2925,
      "mand": 2926,
      "mandy": 2927,
      "mania": 2928,
      "manuel": 2929,
      "manuel_y_nancy_102": 2930,
      "maqu": 2931,
      "mar": 2932,
      "marc": 2933,
      "marcela": 2934,
      "mari": 2935,
      "maria": 2936,
      "marian": 2937,
      "mariana": 2938,
      "mario": 2939,
      "marip": 2940,
      "maripos": 2941,
      "maris": 2942,
      "maro": 2943,
      "mars": 2944,
      "martin": 2945,
      "mary": 2946,
      "mas": 2947,
      "mat": 2948,
      "mate": 2949,
      "maur": 2950,
      "mauricio": 2951,
      "max": 2952,
      "may": 2953,
      "mayo": 2954,
      "mb": 2955,
      "mc": 2956,
      "me": 2957,
      "med": 2958,
      "medic": 2959,
      "mejor": 2960,
      "mel": 2961,
      "mem": 2962,
      "memys": 2963,
      "memyselfi": 2964,
      "men": 2965,
      "mer": 2966,
      "mercedes": 2967,
      "messenger": 2968,
      "met": 2969,
      "metal": 2970,
      "metalica": 2971,
      "metallica": 2972,
      "mex": 2973,
      "mh": 2974,
      "mi": 2975,
      "miamor": 2976,
      "mibebe": 2977,
      "mic": 2978,
      "micamino": 2979,
      "michel": 2980,
      "michil": 2981,
      "mico": 2982,
      "micor": 2983,
      "mig": 2984,
      "miguel": 2985,
      "mih": 2986,
      "mil": 2987,
      "milag": 2988,
      "milagros": 2989,
      "mim": 2990,
      "min": 2991,
      "mio": 2992,
      "mis": 2993,
      "misa": 2994,
      "misamores": 2995,
      "misterio": 2996,
      "mivida": 2997,
      "mm": 2998,
      "mn": 2999,
      "mng5": 3000,
      "mo": 3001,
      "moh": 3002,
      "mol": 3003,
      "molin": 3004,
      "mom": 3005,
      "mon": 3006,
      "monse": 3007,
      "mont": 3008,
      "mor": 3009,
      "moren": 3010,
      "morenita": 3011,
      "moron": 3012,
      "mos": 3013,
      "motor": 3014,
      "mou": 3015,
      "mr": 3016,
      "ms": 3017,
      "mt": 3018,
      "mu": 3019,
      "muki": 3020,
      "mun": 3021,
      "mus": 3022,
      "must": 3023,
      "mv": 3024,
      "my": 3025,
      "myfamily": 3026,
      "n": 3027,
      "n1": 3028,
      "na": 3029,
      "nabuco1956": 3030,
      "naj": 3031,
      "nal": 3032,
      "nalb": 3033,
      "nam": 3034,
      "namid": 3035,
      "nan": 3036,
      "nana": 3037,
      "nanc": 3038,
      "nancy": 3039,
      "nar": 3040,
      "naru": 3041,
      "naruto": 3042,
      "nas": 3043,
      "nat": 3044,
      "natalia": 3045,
      "nav": 3046,
      "nd": 3047,
      "ndr": 3048,
      "ne": 3049,
      "nell": 3050,
      "nen": 3051,
      "ner": 3052,
      "nes": 3053,
      "neska": 3054,
      "ness": 3055,
      "neur": 3056,
      "new": 3057,
      "ney": 3058,
      "ni": 3059,
      "nic": 3060,
      "nice": 3061,
      "nick": 3062,
      "nickel": 3063,
      "nicole": 3064,
      "nina": 3065,
      "nis": 3066,
      "nj": 3067,
      "no": 3068,
      "nom": 3069,
      "nor": 3070,
      "nos": 3071,
      "not": 3072,
      "notengo": 3073,
      "nov": 3074,
      "novembre": 3075,
      "noviembre": 3076,
      "now": 3077,
      "num": 3078,
      "nun": 3079,
      "nur": 3080,
      "nurita": 3081,
      "ny": 3082,
      "nz": 3083,
      "o": 3084,
      "o.": 3085,
      "o2007": 3086,
      "o22": 3087,
      "ob": 3088,
      "oc": 3089,
      "oca": 3090,
      "ocam": 3091,
      "oce": 3092,
      "ock": 3093,
      "oco": 3094,
      "ocon": 3095,
      "oct": 3096,
      "octav": 3097,
      "octavio": 3098,
      "octo": 3099,
      "octu": 3100,
      "octubre": 3101,
      "od": 3102,
      "ode": 3103,
      "odel": 3104,
      "odio": 3105,
      "odont": 3106,
      "odontologa": 3107,
      "ody": 3108,
      "og": 3109,
      "oglio": 3110,
      "oh": 3111,
      "oj": 3112,
      "ojitos": 3113,
      "ok": 3114,
      "oki": 3115,
      "ol": 3116,
      "ola": 3117,
      "olas": 3118,
      "old": 3119,
      "ole": 3120,
      "olin": 3121,
      "olina": 3122,
      "olita": 3123,
      "olo": 3124,
      "olo26": 3125,
      "ologa": 3126,
      "olop": 3127,
      "olor": 3128,
      "olove": 3129,
      "olv": 3130,
      "om": 3131,
      "oma": 3132,
      "oman": 3133,
      "omar": 3134,
      "omas": 3135,
      "ome": 3136,
      "omer": 3137,
      "omo": 3138,
      "omor": 3139,
      "omosal": 3140,
      "omu": 3141,
      "omuxo": 3142,
      "on": 3143,
      "ona": 3144,
      "onder": 3145,
      "one": 3146,
      "oness": 3147,
      "oni": 3148,
      "onica": 3149,
      "onimo": 3150,
      "only": 3151,
      "onn": 3152,
      "onne": 3153,
      "ono": 3154,
      "ont": 3155,
      "oo": 3156,
      "op": 3157,
      "opar": 3158,
      "oparati": 3159,
      "opr": 3160,
      "or": 3161,
      "ora": 3162,
      "ord": 3163,
      "ordin": 3164,
      "ords": 3165,
      "orel": 3166,
      "orion": 3167,
      "orld": 3168,
      "orn": 3169,
      "ornio": 3170,
      "oro": 3171,
      "orr": 3172,
      "os": 3173,
      "os05": 3174,
      "osa": 3175,
      "osal": 3176,
      "oscar": 3177,
      "osito": 3178,
      "osm": 3179,
      "osmio": 3180,
      "oso": 3181,
      "oss": 3182,
      "ost": 3183,
      "ot": 3184,
      "ota": 3185,
      "oth": 3186,
      "oto": 3187,
      "otor": 3188,
      "otu": 3189,
      "oty": 3190,
      "ou": 3191,
      "ov": 3192,
      "ova": 3193,
      "ove": 3194,
      "ovi": 3195,
      "oy": 3196,
      "oyyo": 3197,
      "oz": 3198,
      "p": 3199,
      "pa": 3200,
      "pad": 3201,
      "pag": 3202,
      "pak": 3203,
      "pako": 3204,
      "pal": 3205,
      "pall": 3206,
      "pan": 3207,
      "pand": 3208,
      "pandol": 3209,
      "pandolfa": 3210,
      "pap": 3211,
      "papillon": 3212,
      "par": 3213,
      "para": 3214,
      "paris": 3215,
      "pas": 3216,
      "password": 3217,
      "pat": 3218,
      "patito": 3219,
      "patric": 3220,
      "patricia": 3221,
      "patroc": 3222,
      "paul": 3223,
      "pay": 3224,
      "paz": 3225,
      "pb": 3226,
      "pe": 3227,
      "ped": 3228,
      "pedor": 3229,
      "pel": 3230,
      "pelotu": 3231,
      "pelu": 3232,
      "peluch": 3233,
      "pen": 3234,
      "pende": 3235,
      "pendejo": 3236,
      "peon": 3237,
      "pep": 3238,
      "pepe": 3239,
      "peque": 3240,
      "per": 3241,
      "peranza": 3242,
      "perez": 3243,
      "pericles": 3244,
      "perr": 3245,
      "perra": 3246,
      "perro": 3247,
      "pers": 3248,
      "pes": 3249,
      "pet": 3250,
      "peter": 3251,
      "ph": 3252,
      "phan": 3253,
      "pi": 3254,
      "pi9ja6pu3": 3255,
      "pic": 3256,
      "pid": 3257,
      "pie": 3258,
      "piel": 3259,
      "pil": 3260,
      "pilar": 3261,
      "pin": 3262,
      "pink": 3263,
      "piolin": 3264,
      "pir": 3265,
      "pistols": 3266,
      "pit": 3267,
      "pl": 3268,
      "plat": 3269,
      "platin": 3270,
      "play": 3271,
      "ple": 3272,
      "plecostomusgupy": 3273,
      "pm": 3274,
      "po": 3275,
      "pod": 3276,
      "pol": 3277,
      "pom": 3278,
      "pool": 3279,
      "pop": 3280,
      "por": 3281,
      "pot": 3282,
      "potes": 3283,
      "pou": 3284,
      "pouet": 3285,
      "power": 3286,
      "ppy": 3287,
      "pr": 3288,
      "prad": 3289,
      "pradhan": 3290,
      "prat": 3291,
      "pre": 3292,
      "preci": 3293,
      "preciosa": 3294,
      "pres": 3295,
      "press": 3296,
      "prim": 3297,
      "prin": 3298,
      "princes": 3299,
      "princesa": 3300,
      "princess": 3301,
      "prisma": 3302,
      "pro": 3303,
      "ps": 3304,
      "pu": 3305,
      "publ": 3306,
      "puccaygaru": 3307,
      "puer": 3308,
      "puerto": 3309,
      "pul": 3310,
      "pulgar": 3311,
      "pumuki": 3312,
      "puppy": 3313,
      "put": 3314,
      "puta": 3315,
      "putamadre": 3316,
      "py": 3317,
      "q": 3318,
      "qat": 3319,
      "qfb82": 3320,
      "qm": 3321,
      "qp": 3322,
      "qpz": 3323,
      "qpzm": 3324,
      "qu": 3325,
      "que": 3326,
      "queen": 3327,
      "quer": 3328,
      "quet": 3329,
      "quette": 3330,
      "qui": 3331,
      "quier": 3332,
      "quiero": 3333,
      "quim": 3334,
      "quin": 3335,
      "quit": 3336,
      "quita": 3337,
      "quito": 3338,
      "qwer": 3339,
      "qwerty": 3340,
      "qwertyu": 3341,
      "qwertyuiop": 3342,
      "r": 3343,
      "r.": 3344,
      "ra": 3345,
      "ra14": 3346,
      "ra2005": 3347,
      "ra7bi4mi": 3348,
      "rab": 3349,
      "rac": 3350,
      "rad": 3351,
      "raf": 3352,
      "rafi": 3353,
      "rah": 3354,
      "raj": 3355,
      "ram": 3356,
      "rand": 3357,
      "rar": 3358,
      "ras": 3359,
      "rasan": 3360,
      "rasta": 3361,
      "raul": 3362,
      "raw": 3363,
      "rawberry": 3364,
      "raz": 3365,
      "re": 3366,
      "re_": 3367,
      "rea": 3368,
      "real": 3369,
      "ream": 3370,
      "rebe": 3371,
      "rebeka": 3372,
      "rec": 3373,
      "ree": 3374,
      "reg": 3375,
      "reinad": 3376,
      "rera": 3377,
      "res": 3378,
      "resse": 3379,
      "ret": 3380,
      "reto": 3381,
      "rev": 3382,
      "rever": 3383,
      "reverte": 3384,
      "rey": 3385,
      "reyes": 3386,
      "ri": 3387,
      "ria": 3388,
      "ric": 3389,
      "ricard": 3390,
      "richard": 3391,
      "rico": 3392,
      "rin": 3393,
      "rina": 3394,
      "rios": 3395,
      "ris": 3396,
      "riz": 3397,
      "ro": 3398,
      "rob": 3399,
      "robert": 3400,
      "roc": 3401,
      "rocio": 3402,
      "rock": 3403,
      "rodri": 3404,
      "roj": 3405,
      "rol": 3406,
      "rom": 3407,
      "romant": 3408,
      "ron": 3409,
      "roo": 3410,
      "room": 3411,
      "ros": 3412,
      "rosa": 3413,
      "rot": 3414,
      "rou": 3415,
      "rr": 3416,
      "ru": 3417,
      "rudy": 3418,
      "ruiz": 3419,
      "rul": 3420,
      "rum": 3421,
      "ruz": 3422,
      "ry": 3423,
      "s": 3424,
      "sa": 3425,
      "sab": 3426,
      "sac": 3427,
      "sad": 3428,
      "sag": 3429,
      "sagitario": 3430,
      "sakur": 3431,
      "sal": 3432,
      "salcharm": 3433,
      "sam": 3434,
      "samsung": 3435,
      "san": 3436,
      "sanad": 3437,
      "sand": 3438,
      "sando": 3439,
      "sant": 3440,
      "santos": 3441,
      "sar": 3442,
      "sara": 3443,
      "sarah": 3444,
      "sas": 3445,
      "sat": 3446,
      "sdf": 3447,
      "se": 3448,
      "sebastian": 3449,
      "sec": 3450,
      "secret": 3451,
      "seguimosavanz": 3452,
      "sem": 3453,
      "sep": 3454,
      "septi": 3455,
      "septiembre": 3456,
      "ser": 3457,
      "sev": 3458,
      "sex": 3459,
      "sexo": 3460,
      "sexpistols": 3461,
      "sh": 3462,
      "si": 3463,
      "sie": 3464,
      "siem": 3465,
      "siempre": 3466,
      "sil": 3467,
      "silver": 3468,
      "simplemente": 3469,
      "sin": 3470,
      "sir": 3471,
      "sister": 3472,
      "sit": 3473,
      "sivoyconloqueted": 3474,
      "sk": 3475,
      "skater": 3476,
      "sl": 3477,
      "slipknot": 3478,
      "so": 3479,
      "so0ivir": 3480,
      "soc": 3481,
      "soccer": 3482,
      "sofi": 3483,
      "sol": 3484,
      "soledad": 3485,
      "soloparati": 3486,
      "son": 3487,
      "sop": 3488,
      "sor": 3489,
      "sou": 3490,
      "soul": 3491,
      "souljagayor": 3492,
      "soy": 3493,
      "soyelmejor": 3494,
      "soyun": 3495,
      "sp": 3496,
      "spe": 3497,
      "spider": 3498,
      "st": 3499,
      "ste": 3500,
      "stephan": 3501,
      "stor": 3502,
      "stormng5": 3503,
      "str": 3504,
      "strawberry": 3505,
      "stu": 3506,
      "su": 3507,
      "sub": 3508,
      "succ": 3509,
      "sudivino": 3510,
      "super": 3511,
      "superman": 3512,
      "swe": 3513,
      "sweet": 3514,
      "sy": 3515,
      "t": 3516,
      "ta": 3517,
      "tablitas": 3518,
      "tad": 3519,
      "tadela": 3520,
      "tag": 3521,
      "tam": 3522,
      "tamar": 3523,
      "tamer88": 3524,
      "tania": 3525,
      "tap": 3526,
      "tar": 3527,
      "tas": 3528,
      "taur": 3529,
      "taz": 3530,
      "te": 3531,
      "te_": 3532,
      "team": 3533,
      "teamo": 3534,
      "teamol": 3535,
      "teamom": 3536,
      "teamomi": 3537,
      "teamomil": 3538,
      "tec": 3539,
      "tech": 3540,
      "tekiero": 3541,
      "tel": 3542,
      "telef": 3543,
      "telefono": 3544,
      "tem": 3545,
      "ten": 3546,
      "teodio": 3547,
      "tequiero": 3548,
      "ter": 3549,
      "terap": 3550,
      "terio": 3551,
      "tes": 3552,
      "th": 3553,
      "the": 3554,
      "theb": 3555,
      "thebest": 3556,
      "thed": 3557,
      "them": 3558,
      "ti": 3559,
      "tiem": 3560,
      "tier": 3561,
      "tig": 3562,
      "tim": 3563,
      "tin": 3564,
      "tina": 3565,
      "tis": 3566,
      "tit": 3567,
      "tito": 3568,
      "tiv": 3569,
      "tivoglio": 3570,
      "tk": 3571,
      "tkiero": 3572,
      "tkm": 3573,
      "tli": 3574,
      "to": 3575,
      "toe": 3576,
      "tol": 3577,
      "tom": 3578,
      "ton": 3579,
      "tonto": 3580,
      "top": 3581,
      "tor": 3582,
      "tord": 3583,
      "torre": 3584,
      "tos": 3585,
      "tqm": 3586,
      "tr": 3587,
      "tra": 3588,
      "tras": 3589,
      "travi": 3590,
      "tres": 3591,
      "tri": 3592,
      "tribecor": 3593,
      "tru": 3594,
      "ts": 3595,
      "tu": 3596,
      "tul": 3597,
      "tum": 3598,
      "tur": 3599,
      "tw": 3600,
      "tx": 3601,
      "txi": 3602,
      "ty": 3603,
      "tz": 3604,
      "u": 3605,
      "u.": 3606,
      "ual": 3607,
      "uch": 3608,
      "ud": 3609,
      "uel": 3610,
      "ueva": 3611,
      "uf": 3612,
      "uis": 3613,
      "uita": 3614,
      "uka": 3615,
      "ul": 3616,
      "ula": 3617,
      "ulanazerimar": 3618,
      "ulce": 3619,
      "ulense": 3620,
      "ulo": 3621,
      "ult": 3622,
      "ultim": 3623,
      "uly": 3624,
      "um": 3625,
      "ume": 3626,
      "umum": 3627,
      "un": 3628,
      "una": 3629,
      "und": 3630,
      "under": 3631,
      "ung": 3632,
      "unga": 3633,
      "univer": 3634,
      "universalcharm": 3635,
      "unk": 3636,
      "unkirchen": 3637,
      "uno": 3638,
      "up": 3639,
      "ur": 3640,
      "ura": 3641,
      "uri": 3642,
      "uriria": 3643,
      "urn": 3644,
      "urr": 3645,
      "urro": 3646,
      "us": 3647,
      "usa": 3648,
      "use": 3649,
      "ush": 3650,
      "usic": 3651,
      "ust": 3652,
      "ut": 3653,
      "uta": 3654,
      "ution": 3655,
      "uv": 3656,
      "ux": 3657,
      "uz": 3658,
      "v": 3659,
      "va": 3660,
      "vac": 3661,
      "val": 3662,
      "vale": 3663,
      "valent": 3664,
      "valver": 3665,
      "vd": 3666,
      "ve": 3667,
      "veg": 3668,
      "vel": 3669,
      "ven": 3670,
      "ver": 3671,
      "vero": 3672,
      "veronica": 3673,
      "vf": 3674,
      "vi": 3675,
      "via": 3676,
      "vic": 3677,
      "vid": 3678,
      "villa": 3679,
      "ville": 3680,
      "vin": 3681,
      "vir": 3682,
      "vitor18": 3683,
      "viv": 3684,
      "viva": 3685,
      "vivaesp": 3686,
      "vivel": 3687,
      "vlad": 3688,
      "vos": 3689,
      "vs": 3690,
      "vv": 3691,
      "w": 3692,
      "wa": 3693,
      "wahran": 3694,
      "wal": 3695,
      "wat": 3696,
      "we": 3697,
      "wel": 3698,
      "welcom": 3699,
      "wer": 3700,
      "wi": 3701,
      "wil": 3702,
      "will": 3703,
      "willi": 3704,
      "win": 3705,
      "wn": 3706,
      "wo": 3707,
      "woman": 3708,
      "wonder": 3709,
      "wood": 3710,
      "world": 3711,
      "wox": 3712,
      "woxn": 3713,
      "wr": 3714,
      "wron": 3715,
      "ww": 3716,
      "www": 3717,
      "www.": 3718,
      "x": 3719,
      "xan": 3720,
      "xe": 3721,
      "xer": 3722,
      "xh": 3723,
      "xo": 3724,
      "xx": 3725,
      "xxx": 3726,
      "xxx_": 3727,
      "xxx_xxx_": 3728,
      "xy": 3729,
      "y": 3730,
      "y3": 3731,
      "y_": 3732,
      "ya": 3733,
      "yah": 3734,
      "yal": 3735,
      "yam": 3736,
      "yan": 3737,
      "yara": 3738,
      "yazmin": 3739,
      "ybar": 3740,
      "ye": 3741,
      "yet": 3742,
      "yfeliz": 3743,
      "yh": 3744,
      "yhector": 3745,
      "yl": 3746,
      "ym": 3747,
      "ymar": 3748,
      "yo": 3749,
      "yor": 3750,
      "yos": 3751,
      "yosoy": 3752,
      "you": 3753,
      "you-": 3754,
      "young": 3755,
      "ys": 3756,
      "yu": 3757,
      "yul": 3758,
      "z": 3759,
      "za": 3760,
      "zar": 3761,
      "zco": 3762,
      "zidane2006": 3763,
      "zo": 3764,
      "zul": 3765,
      "zy": 3766,
      "{": 3767,
      "}": 3768
    },
    "merges": [
      [
        "a",
        "n"
      ],
      [
        "a",
        "r"
      ],
      [
        "e",
        "r"
      ],
      [
        "1",
        "9"
      ],
      [
        "e",
        "l"
      ],
      [
        "a",
        "l"
      ],
      [
        "a",
        "m"
      ],
      [
        "o",
        "n"
      ],
      [
        "i",
        "n"
      ],
      [
        "0",
        "0"
      ],
      [
        "o",
        "r"
      ],
      [
        "i",
        "t"
      ],
      [
        "1",
        "2"
      ],
      [
        "e",
        "n"
      ],
      [
        "e",
        "s"
      ],
      [
        "a",
        "s"
      ],
      [
        "o",
        "s"
      ],
      [
        "i",
        "s"
      ],
      [
        "c",
        "h"
      ],
      [
        "1",
        "0"
      ],
      [
        "a",
        "d"
      ],
      [
        "i",
        "l"
      ],
      [
        "a",
        "t"
      ],
      [
        "o",
        "l"
      ],
      [
        "i",
        "c"
      ],
      [
        "e",
        "t"
      ],
      [
        "t",
        "e"
      ],
      [
        "o",
        "m"
      ],
      [
        "1",
        "1"
      ],
      [
        "r",
        "e"
      ],
      [
        "2",
        "00"
      ],
      [
        "19",
        "8"
      ],
      [
        "1",
        "3"
      ],
      [
        "a",
        "b"
      ],
      [
        "a",
        "c"
      ],
      [
        "0",
        "5"
      ],
      [
        "i",
        "a"
      ],
      [
        "1",
        "5"
      ],
      [
        "1",
        "4"
      ],
      [
        "2",
        "2"
      ],
      [
        "u",
        "l"
      ],
      [
        "i",
        "o"
      ],
      [
        "u",
        "r"
      ],
      [
        "it",
        "a"
      ],
      [
        "1",
        "8"
      ],
      [
        "0",
        "2"
      ],
      [
        "0",
        "4"
      ],
      [
        "o",
        "c"
      ],
      [
        "7",
        "7"
      ],
      [
        "2",
        "3"
      ],
      [
        "an",
        "d"
      ],
      [
        "i",
        "d"
      ],
      [
        "i",
        "m"
      ],
      [
        "l",
        "a"
      ],
      [
        "r",
        "a"
      ],
      [
        "0",
        "3"
      ],
      [
        "e",
        "m"
      ],
      [
        "12",
        "3"
      ],
      [
        "u",
        "n"
      ],
      [
        "it",
        "o"
      ],
      [
        "1",
        "7"
      ],
      [
        "0",
        "7"
      ],
      [
        "e",
        "d"
      ],
      [
        "u",
        "s"
      ],
      [
        "0",
        "8"
      ],
      [
        "2",
        "6"
      ],
      [
        "q",
        "u"
      ],
      [
        "o",
        "t"
      ],
      [
        "0",
        "6"
      ],
      [
        "0",
        "9"
      ],
      [
        "2",
        "8"
      ],
      [
        "b",
        "e"
      ],
      [
        "5",
        "6"
      ],
      [
        "a",
        "y"
      ],
      [
        "r",
        "o"
      ],
      [
        "1",
        "6"
      ],
      [
        "19",
        "7"
      ],
      [
        "m",
        "ar"
      ],
      [
        "8",
        "8"
      ],
      [
        "o",
        "v"
      ],
      [
        "19",
        "9"
      ],
      [
        "2",
        "7"
      ],
      [
        "2",
        "9"
      ],
      [
        "2",
        "4"
      ],
      [
        "2",
        "5"
      ],
      [
        "a",
        "g"
      ],
      [
        "t",
        "o"
      ],
      [
        "i",
        "v"
      ],
      [
        "a",
        "p"
      ],
      [
        "6",
        "9"
      ],
      [
        "r",
        "i"
      ],
      [
        "e",
        "c"
      ],
      [
        "8",
        "9"
      ],
      [
        "b",
        "er"
      ],
      [
        "a",
        "z"
      ],
      [
        "a",
        "v"
      ],
      [
        "9",
        "9"
      ],
      [
        "i",
        "r"
      ],
      [
        "am",
        "o"
      ],
      [
        "c",
        "ar"
      ],
      [
        "l",
        "e"
      ],
      [
        "m",
        "a"
      ],
      [
        "i",
        "g"
      ],
      [
        "6",
        "6"
      ],
      [
        "in",
        "a"
      ],
      [
        "5",
        "5"
      ],
      [
        "d",
        "e"
      ],
      [
        "o",
        "u"
      ],
      [
        "8",
        "4"
      ],
      [
        "o",
        "y"
      ],
      [
        "3",
        "3"
      ],
      [
        "8",
        "7"
      ],
      [
        "i",
        "an"
      ],
      [
        "2",
        "0"
      ],
      [
        "p",
        "er"
      ],
      [
        "6",
        "4"
      ],
      [
        "s",
        "e"
      ],
      [
        "E",
        "+"
      ],
      [
        "o",
        "p"
      ],
      [
        "t",
        "a"
      ],
      [
        "an",
        "g"
      ],
      [
        "l",
        "u"
      ],
      [
        "t",
        "r"
      ],
      [
        "2",
        "1"
      ],
      [
        "7",
        "4"
      ],
      [
        "er",
        "o"
      ],
      [
        "i",
        "on"
      ],
      [
        "5",
        "3"
      ],
      [
        "5",
        "4"
      ],
      [
        "8",
        "6"
      ],
      [
        "am",
        "or"
      ],
      [
        "al",
        "e"
      ],
      [
        "c",
        "on"
      ],
      [
        "l",
        "o"
      ],
      [
        "m",
        "i"
      ],
      [
        "b",
        "el"
      ],
      [
        "d",
        "o"
      ],
      [
        "0",
        "1"
      ],
      [
        "an",
        "t"
      ],
      [
        "c",
        "a"
      ],
      [
        "k",
        "i"
      ],
      [
        "6",
        "3"
      ],
      [
        "8",
        "3"
      ],
      [
        "p",
        "e"
      ],
      [
        "4",
        "4"
      ],
      [
        "5",
        "7"
      ],
      [
        "A",
        "N"
      ],
      [
        "g",
        "u"
      ],
      [
        "i",
        "el"
      ],
      [
        "m",
        "an"
      ],
      [
        "b",
        "et"
      ],
      [
        "i",
        "e"
      ],
      [
        "\"",
        "\""
      ],
      [
        "o",
        "d"
      ],
      [
        "t",
        "er"
      ],
      [
        "123",
        "4"
      ],
      [
        "8",
        "5"
      ],
      [
        "9",
        "4"
      ],
      [
        "b",
        "ar"
      ],
      [
        "k",
        "a"
      ],
      [
        "p",
        "r"
      ],
      [
        "A",
        "R"
      ],
      [
        "es",
        "t"
      ],
      [
        "p",
        "u"
      ],
      [
        "t",
        "i"
      ],
      [
        "7",
        "9"
      ],
      [
        "b",
        "i"
      ],
      [
        "e",
        "z"
      ],
      [
        "l",
        "i"
      ],
      [
        "s",
        "u"
      ],
      [
        "t",
        "h"
      ],
      [
        "v",
        "er"
      ],
      [
        "6",
        "7"
      ],
      [
        "1",
        "10"
      ],
      [
        "9",
        "3"
      ],
      [
        "1",
        "00"
      ],
      [
        "200",
        "8"
      ],
      [
        "a",
        "h"
      ],
      [
        "an",
        "a"
      ],
      [
        "ov",
        "e"
      ],
      [
        "te",
        "amo"
      ],
      [
        "7",
        "3"
      ],
      [
        "9",
        "5"
      ],
      [
        "E",
        "L"
      ],
      [
        "c",
        "am"
      ],
      [
        "ic",
        "a"
      ],
      [
        "in",
        "g"
      ],
      [
        "6",
        "5"
      ],
      [
        "E",
        "R"
      ],
      [
        "m",
        "on"
      ],
      [
        "p",
        "o"
      ],
      [
        "u",
        "m"
      ],
      [
        "A",
        "L"
      ],
      [
        "E",
        "S"
      ],
      [
        "a",
        "j"
      ],
      [
        "ang",
        "el"
      ],
      [
        "b",
        "l"
      ],
      [
        "b",
        "r"
      ],
      [
        "l",
        "os"
      ],
      [
        "n",
        "e"
      ],
      [
        "al",
        "l"
      ],
      [
        "an",
        "c"
      ],
      [
        "as",
        "h"
      ],
      [
        "el",
        "l"
      ],
      [
        "i",
        "z"
      ],
      [
        "s",
        "a"
      ],
      [
        "b",
        "a"
      ],
      [
        "j",
        "u"
      ],
      [
        "k",
        "ar"
      ],
      [
        "a",
        "u"
      ],
      [
        "ar",
        "a"
      ],
      [
        "at",
        "e"
      ],
      [
        "b",
        "re"
      ],
      [
        "c",
        "u"
      ],
      [
        "g",
        "o"
      ],
      [
        "or",
        "d"
      ],
      [
        "p",
        "a"
      ],
      [
        "r",
        "is"
      ],
      [
        "7",
        "5"
      ],
      [
        "9",
        "2"
      ],
      [
        "E",
        "N"
      ],
      [
        "en",
        "a"
      ],
      [
        "f",
        "e"
      ],
      [
        "m",
        "e"
      ],
      [
        "8",
        "0"
      ],
      [
        "8",
        "2"
      ],
      [
        "A",
        "S"
      ],
      [
        "I",
        "N"
      ],
      [
        "b",
        "en"
      ],
      [
        "c",
        "om"
      ],
      [
        "d",
        "a"
      ],
      [
        "er",
        "a"
      ],
      [
        "f",
        "er"
      ],
      [
        "f",
        "r"
      ],
      [
        "i",
        "em"
      ],
      [
        "il",
        "l"
      ],
      [
        "j",
        "o"
      ],
      [
        "p",
        "at"
      ],
      [
        "1234",
        "56"
      ],
      [
        "198",
        "3"
      ],
      [
        "3",
        "0"
      ],
      [
        "9",
        "0"
      ],
      [
        "E+",
        "11"
      ],
      [
        "b",
        "b"
      ],
      [
        "c",
        "o"
      ],
      [
        "ch",
        "i"
      ],
      [
        "en",
        "t"
      ],
      [
        "j",
        "os"
      ],
      [
        "s",
        "o"
      ],
      [
        "u",
        "el"
      ],
      [
        "2",
        "10"
      ],
      [
        "3",
        "2"
      ],
      [
        "T",
        "O"
      ],
      [
        "am",
        "a"
      ],
      [
        "ar",
        "d"
      ],
      [
        "h",
        "er"
      ],
      [
        "in",
        "o"
      ],
      [
        "l",
        "or"
      ],
      [
        "m",
        "o"
      ],
      [
        "m",
        "y"
      ],
      [
        "n",
        "o"
      ],
      [
        "ol",
        "a"
      ],
      [
        "p",
        "i"
      ],
      [
        "s",
        "an"
      ],
      [
        "200",
        "5"
      ],
      [
        "200",
        "6"
      ],
      [
        "200",
        "7"
      ],
      [
        "7",
        "6"
      ],
      [
        "9",
        "6"
      ],
      [
        "I",
        "L"
      ],
      [
        "c",
        "i"
      ],
      [
        "c",
        "or"
      ],
      [
        "e",
        "g"
      ],
      [
        "e",
        "y"
      ],
      [
        "es",
        "s"
      ],
      [
        "h",
        "a"
      ],
      [
        "os",
        "a"
      ],
      [
        "su",
        "per"
      ],
      [
        "t",
        "y"
      ],
      [
        "z",
        "a"
      ],
      [
        "2",
        "."
      ],
      [
        "4",
        "5"
      ],
      [
        "5",
        "8"
      ],
      [
        "b",
        "u"
      ],
      [
        "c",
        "as"
      ],
      [
        "c",
        "e"
      ],
      [
        "ch",
        "a"
      ],
      [
        "g",
        "ar"
      ],
      [
        "n",
        "a"
      ],
      [
        "qu",
        "e"
      ],
      [
        "r",
        "u"
      ],
      [
        "t",
        "or"
      ],
      [
        "t",
        "u"
      ],
      [
        "3",
        "4"
      ],
      [
        "7",
        "0"
      ],
      [
        "an",
        "o"
      ],
      [
        "d",
        "i"
      ],
      [
        "el",
        "a"
      ],
      [
        "il",
        "la"
      ],
      [
        "l",
        "in"
      ],
      [
        "m",
        "is"
      ],
      [
        "on",
        "a"
      ],
      [
        "s",
        "h"
      ],
      [
        "s",
        "oy"
      ],
      [
        ".",
        "."
      ],
      [
        "3",
        "00"
      ],
      [
        "3",
        "7"
      ],
      [
        "9",
        "8"
      ],
      [
        "M",
        "A"
      ],
      [
        "ad",
        "o"
      ],
      [
        "al",
        "d"
      ],
      [
        "am",
        "ar"
      ],
      [
        "b",
        "o"
      ],
      [
        "c",
        "ia"
      ],
      [
        "d",
        "an"
      ],
      [
        "ic",
        "o"
      ],
      [
        "j",
        "a"
      ],
      [
        "j",
        "es"
      ],
      [
        "j",
        "or"
      ],
      [
        "us",
        "t"
      ],
      [
        "197",
        "9"
      ],
      [
        "198",
        "0"
      ],
      [
        "5",
        "0"
      ],
      [
        "6",
        "8"
      ],
      [
        "7",
        "8"
      ],
      [
        "9",
        "7"
      ],
      [
        "C",
        "O"
      ],
      [
        "M",
        "O"
      ],
      [
        "ad",
        "a"
      ],
      [
        "d",
        "el"
      ],
      [
        "en",
        "d"
      ],
      [
        "m",
        "or"
      ],
      [
        "r",
        "on"
      ],
      [
        "x",
        "x"
      ],
      [
        "1",
        "12"
      ],
      [
        "5",
        "9"
      ],
      [
        "I",
        "A"
      ],
      [
        "R",
        "E"
      ],
      [
        "am",
        "i"
      ],
      [
        "ar",
        "i"
      ],
      [
        "b",
        "ab"
      ],
      [
        "et",
        "a"
      ],
      [
        "f",
        "or"
      ],
      [
        "g",
        "a"
      ],
      [
        "h",
        "o"
      ],
      [
        "i",
        "er"
      ],
      [
        "it",
        "os"
      ],
      [
        "m",
        "ig"
      ],
      [
        "p",
        "ar"
      ],
      [
        "r",
        "es"
      ],
      [
        "r",
        "os"
      ],
      [
        "y",
        "o"
      ],
      [
        "y",
        "s"
      ],
      [
        "1",
        "."
      ],
      [
        "19",
        "77"
      ],
      [
        "198",
        "4"
      ],
      [
        "198",
        "5"
      ],
      [
        "3",
        "8"
      ],
      [
        "3",
        "D"
      ],
      [
        "7",
        "89"
      ],
      [
        "=",
        "3D"
      ],
      [
        "a",
        "x"
      ],
      [
        "ag",
        "u"
      ],
      [
        "ar",
        "m"
      ],
      [
        "c",
        "es"
      ],
      [
        "f",
        "i"
      ],
      [
        "f",
        "o"
      ],
      [
        "h",
        "e"
      ],
      [
        "in",
        "e"
      ],
      [
        "k",
        "e"
      ],
      [
        "m",
        "al"
      ],
      [
        "n",
        "i"
      ],
      [
        "p",
        "ap"
      ],
      [
        "s",
        "t"
      ],
      [
        "t",
        "on"
      ],
      [
        "u",
        "t"
      ],
      [
        "x",
        "o"
      ],
      [
        "00",
        "0"
      ],
      [
        "198",
        "7"
      ],
      [
        "6",
        "2"
      ],
      [
        "7",
        "2"
      ],
      [
        "I",
        "S"
      ],
      [
        "al",
        "o"
      ],
      [
        "and",
        "o"
      ],
      [
        "d",
        "f"
      ],
      [
        "el",
        "la"
      ],
      [
        "h",
        "i"
      ],
      [
        "i",
        "as"
      ],
      [
        "id",
        "a"
      ],
      [
        "ir",
        "l"
      ],
      [
        "j",
        "ul"
      ],
      [
        "ju",
        "an"
      ],
      [
        "p",
        "re"
      ],
      [
        "p",
        "y"
      ],
      [
        "r",
        "y"
      ],
      [
        "s",
        "ol"
      ],
      [
        "te",
        "am"
      ],
      [
        "v",
        "a"
      ],
      [
        "12",
        "4"
      ],
      [
        "198",
        "1"
      ],
      [
        "6",
        "0"
      ],
      [
        "B",
        "E"
      ],
      [
        "C",
        "H"
      ],
      [
        "L",
        "O"
      ],
      [
        "T",
        "E"
      ],
      [
        "ac",
        "ion"
      ],
      [
        "ad",
        "or"
      ],
      [
        "ale",
        "x"
      ],
      [
        "b",
        "al"
      ],
      [
        "ber",
        "to"
      ],
      [
        "c",
        "ris"
      ],
      [
        "car",
        "los"
      ],
      [
        "ch",
        "o"
      ],
      [
        "d",
        "y"
      ],
      [
        "e",
        "f"
      ],
      [
        "f",
        "el"
      ],
      [
        "g",
        "er"
      ],
      [
        "il",
        "lo"
      ],
      [
        "im",
        "o"
      ],
      [
        "in",
        "k"
      ],
      [
        "l",
        "ove"
      ],
      [
        "m",
        "er"
      ],
      [
        "m",
        "in"
      ],
      [
        "n",
        "ic"
      ],
      [
        "*",
        "*"
      ],
      [
        "0",
        "10"
      ],
      [
        "197",
        "6"
      ],
      [
        "198",
        "8"
      ],
      [
        "3",
        "5"
      ],
      [
        "I",
        "O"
      ],
      [
        "L",
        "A"
      ],
      [
        "R",
        "A"
      ],
      [
        "am",
        "e"
      ],
      [
        "ar",
        "o"
      ],
      [
        "ar",
        "t"
      ],
      [
        "as",
        "t"
      ],
      [
        "b",
        "on"
      ],
      [
        "c",
        "al"
      ],
      [
        "c",
        "ol"
      ],
      [
        "f",
        "a"
      ],
      [
        "g",
        "irl"
      ],
      [
        "is",
        "t"
      ],
      [
        "is",
        "ta"
      ],
      [
        "k",
        "at"
      ],
      [
        "lu",
        "is"
      ],
      [
        "oc",
        "k"
      ],
      [
        "or",
        "o"
      ],
      [
        "p",
        "l"
      ],
      [
        "qu",
        "i"
      ],
      [
        "v",
        "iv"
      ],
      [
        "\"\"",
        "\"\""
      ],
      [
        "197",
        "8"
      ],
      [
        "198",
        "6"
      ],
      [
        "2",
        "12"
      ],
      [
        "3",
        "1"
      ],
      [
        "3",
        "9"
      ],
      [
        "9",
        "1"
      ],
      [
        "O",
        "L"
      ],
      [
        "\\",
        "\"\"\"\""
      ],
      [
        "ac",
        "k"
      ],
      [
        "an",
        "i"
      ],
      [
        "b",
        "at"
      ],
      [
        "b",
        "ol"
      ],
      [
        "b",
        "y"
      ],
      [
        "ch",
        "e"
      ],
      [
        "d",
        "ar"
      ],
      [
        "dan",
        "iel"
      ],
      [
        "e",
        "p"
      ],
      [
        "e",
        "ver"
      ],
      [
        "es",
        "a"
      ],
      [
        "et",
        "er"
      ],
      [
        "g",
        "on"
      ],
      [
        "g",
        "r"
      ],
      [
        "h",
        "u"
      ],
      [
        "i",
        "p"
      ],
      [
        "iem",
        "bre"
      ],
      [
        "is",
        "a"
      ],
      [
        "k",
        "y"
      ],
      [
        "m",
        "am"
      ],
      [
        "m",
        "u"
      ],
      [
        "ol",
        "o"
      ],
      [
        "p",
        "el"
      ],
      [
        "pr",
        "in"
      ],
      [
        "r",
        "et"
      ],
      [
        "r",
        "ic"
      ],
      [
        "t",
        "om"
      ],
      [
        "ur",
        "a"
      ],
      [
        "00",
        "7"
      ],
      [
        "198",
        "9"
      ],
      [
        "199",
        "0"
      ],
      [
        "199",
        "3"
      ],
      [
        "200",
        "3"
      ],
      [
        "4",
        "0"
      ],
      [
        "4",
        "7"
      ],
      [
        "4",
        "8"
      ],
      [
        "M",
        "I"
      ],
      [
        "Q",
        "U"
      ],
      [
        "T",
        "A"
      ],
      [
        "\\",
        "'"
      ],
      [
        "ab",
        "e"
      ],
      [
        "al",
        "u"
      ],
      [
        "am",
        "er"
      ],
      [
        "an",
        "te"
      ],
      [
        "ar",
        "iel"
      ],
      [
        "as",
        "s"
      ],
      [
        "bab",
        "y"
      ],
      [
        "be",
        "at"
      ],
      [
        "bet",
        "o"
      ],
      [
        "c",
        "an"
      ],
      [
        "c",
        "el"
      ],
      [
        "c",
        "oc"
      ],
      [
        "e",
        "b"
      ],
      [
        "en",
        "te"
      ],
      [
        "es",
        "tr"
      ],
      [
        "f",
        "lor"
      ],
      [
        "f",
        "on"
      ],
      [
        "f",
        "u"
      ],
      [
        "g",
        "h"
      ],
      [
        "it",
        "as"
      ],
      [
        "jes",
        "us"
      ],
      [
        "o",
        "o"
      ],
      [
        "om",
        "ar"
      ],
      [
        "s",
        "al"
      ],
      [
        "s",
        "ec"
      ],
      [
        "un",
        "d"
      ],
      [
        "10",
        "8"
      ],
      [
        "198",
        "2"
      ],
      [
        "199",
        "1"
      ],
      [
        "199",
        "5"
      ],
      [
        "199",
        "6"
      ],
      [
        "200",
        "1"
      ],
      [
        "200",
        "4"
      ],
      [
        "3",
        "6"
      ],
      [
        "3",
        "="
      ],
      [
        "6",
        "1"
      ],
      [
        "=",
        "C"
      ],
      [
        "=C",
        "3="
      ],
      [
        "D",
        "A"
      ],
      [
        "D",
        "E"
      ],
      [
        "D",
        "O"
      ],
      [
        "N",
        "A"
      ],
      [
        "R",
        "I"
      ],
      [
        "ad",
        "r"
      ],
      [
        "al",
        "on"
      ],
      [
        "am",
        "ig"
      ],
      [
        "an",
        "e"
      ],
      [
        "and",
        "y"
      ],
      [
        "ar",
        "do"
      ],
      [
        "ar",
        "io"
      ],
      [
        "at",
        "i"
      ],
      [
        "b",
        "ra"
      ],
      [
        "be",
        "a"
      ],
      [
        "ber",
        "t"
      ],
      [
        "d",
        "es"
      ],
      [
        "d",
        "ie"
      ],
      [
        "d",
        "u"
      ],
      [
        "et",
        "te"
      ],
      [
        "f",
        "in"
      ],
      [
        "g",
        "ab"
      ],
      [
        "g",
        "e"
      ],
      [
        "id",
        "ad"
      ],
      [
        "il",
        "ove"
      ],
      [
        "iv",
        "er"
      ],
      [
        "j",
        "am"
      ],
      [
        "k",
        "h"
      ],
      [
        "l",
        "an"
      ],
      [
        "m",
        "ic"
      ],
      [
        "n",
        "en"
      ],
      [
        "n",
        "ov"
      ],
      [
        "or",
        "r"
      ],
      [
        "p",
        "ed"
      ],
      [
        "p",
        "en"
      ],
      [
        "p",
        "il"
      ],
      [
        "p",
        "ol"
      ],
      [
        "r",
        "om"
      ],
      [
        "re",
        "y"
      ],
      [
        "s",
        "ant"
      ],
      [
        "s",
        "i"
      ],
      [
        "s",
        "on"
      ],
      [
        "s",
        "p"
      ],
      [
        "t",
        "in"
      ],
      [
        "ur",
        "i"
      ],
      [
        "w",
        "er"
      ],
      [
        "00",
        "5"
      ],
      [
        "00",
        "6"
      ],
      [
        "19",
        "64"
      ],
      [
        "197",
        "3"
      ],
      [
        "197",
        "4"
      ],
      [
        "200",
        "0"
      ],
      [
        "3",
        "21"
      ],
      [
        "4",
        "9"
      ],
      [
        "5",
        "1"
      ],
      [
        "5",
        "2"
      ],
      [
        "66",
        "6"
      ],
      [
        "77",
        "7"
      ],
      [
        "A",
        "Z"
      ],
      [
        "E+",
        "15"
      ],
      [
        "R",
        "O"
      ],
      [
        "ac",
        "o"
      ],
      [
        "ad",
        "i"
      ],
      [
        "al",
        "berto"
      ],
      [
        "am",
        "an"
      ],
      [
        "ant",
        "on"
      ],
      [
        "ar",
        "e"
      ],
      [
        "ay",
        "a"
      ],
      [
        "ay",
        "o"
      ],
      [
        "b",
        "all"
      ],
      [
        "b",
        "ian"
      ],
      [
        "ber",
        "n"
      ],
      [
        "bet",
        "ty"
      ],
      [
        "c",
        "c"
      ],
      [
        "c",
        "er"
      ],
      [
        "c",
        "k"
      ],
      [
        "ch",
        "il"
      ],
      [
        "ch",
        "ito"
      ],
      [
        "ch",
        "iv"
      ],
      [
        "ch",
        "ul"
      ],
      [
        "chi",
        "qu"
      ],
      [
        "e",
        "x"
      ],
      [
        "ec",
        "t"
      ],
      [
        "el",
        "i"
      ],
      [
        "en",
        "ita"
      ],
      [
        "en",
        "to"
      ],
      [
        "f",
        "re"
      ],
      [
        "f",
        "ri"
      ],
      [
        "fer",
        "n"
      ],
      [
        "fri",
        "end"
      ],
      [
        "g",
        "al"
      ],
      [
        "h",
        "an"
      ],
      [
        "iem",
        "pre"
      ],
      [
        "im",
        "a"
      ],
      [
        "it",
        "al"
      ],
      [
        "it",
        "or"
      ],
      [
        "jul",
        "io"
      ],
      [
        "l",
        "as"
      ],
      [
        "l",
        "en"
      ],
      [
        "l",
        "oc"
      ],
      [
        "l",
        "ov"
      ],
      [
        "m",
        "ag"
      ],
      [
        "m",
        "el"
      ],
      [
        "m",
        "et"
      ],
      [
        "m",
        "il"
      ],
      [
        "man",
        "uel"
      ],
      [
        "n",
        "d"
      ],
      [
        "o",
        "g"
      ],
      [
        "o",
        "k"
      ],
      [
        "on",
        "t"
      ],
      [
        "or",
        "n"
      ],
      [
        "os",
        "o"
      ],
      [
        "p",
        "and"
      ],
      [
        "qui",
        "ero"
      ],
      [
        "r",
        "as"
      ],
      [
        "ri",
        "z"
      ],
      [
        "s",
        "ar"
      ],
      [
        "s",
        "er"
      ],
      [
        "t",
        "it"
      ],
      [
        "un",
        "a"
      ],
      [
        "y",
        "ou"
      ],
      [
        "+",
        "+"
      ],
      [
        "-",
        "-"
      ],
      [
        "1",
        "19"
      ],
      [
        "1",
        "d"
      ],
      [
        "10",
        "2"
      ],
      [
        "10",
        "4"
      ],
      [
        "123456",
        "789"
      ],
      [
        "15",
        "9"
      ],
      [
        "197",
        "2"
      ],
      [
        "197",
        "5"
      ],
      [
        "199",
        "4"
      ],
      [
        "200",
        "2"
      ],
      [
        "29",
        "3"
      ],
      [
        "3",
        "."
      ],
      [
        "3",
        "10"
      ],
      [
        "3",
        "69"
      ],
      [
        "4",
        "3"
      ],
      [
        "4",
        "56"
      ],
      [
        "4",
        "6"
      ],
      [
        "5",
        "."
      ],
      [
        "6",
        "54"
      ],
      [
        "88",
        "88"
      ],
      [
        "9",
        "05"
      ],
      [
        "@",
        "@"
      ],
      [
        "A",
        "B"
      ],
      [
        "A",
        "V"
      ],
      [
        "E+",
        "12"
      ],
      [
        "I",
        "E"
      ],
      [
        "L",
        "E"
      ],
      [
        "a",
        "ur"
      ],
      [
        "ab",
        "i"
      ],
      [
        "ad",
        "ri"
      ],
      [
        "ad",
        "y"
      ],
      [
        "al",
        "i"
      ],
      [
        "ale",
        "j"
      ],
      [
        "alej",
        "and"
      ],
      [
        "am",
        "s"
      ],
      [
        "an",
        "ia"
      ],
      [
        "as",
        "df"
      ],
      [
        "ate",
        "amo"
      ],
      [
        "az",
        "on"
      ],
      [
        "b",
        "j"
      ],
      [
        "b",
        "ur"
      ],
      [
        "be",
        "be"
      ],
      [
        "bel",
        "en"
      ],
      [
        "bel",
        "la"
      ],
      [
        "c",
        "ito"
      ],
      [
        "c",
        "l"
      ],
      [
        "ch",
        "el"
      ],
      [
        "ch",
        "u"
      ],
      [
        "d",
        "em"
      ],
      [
        "d",
        "er"
      ],
      [
        "e",
        "_"
      ],
      [
        "e",
        "v"
      ],
      [
        "et",
        "e"
      ],
      [
        "f",
        "id"
      ],
      [
        "fr",
        "anc"
      ],
      [
        "g",
        "g"
      ],
      [
        "g",
        "ord"
      ],
      [
        "g",
        "re"
      ],
      [
        "h",
        "el"
      ],
      [
        "h",
        "or"
      ],
      [
        "h",
        "ot"
      ],
      [
        "i",
        "k"
      ],
      [
        "ian",
        "a"
      ],
      [
        "id",
        "e"
      ],
      [
        "id",
        "o"
      ],
      [
        "j",
        "av"
      ],
      [
        "j",
        "er"
      ],
      [
        "j",
        "im"
      ],
      [
        "j",
        "un"
      ],
      [
        "l",
        "y"
      ],
      [
        "m",
        "ac"
      ],
      [
        "m",
        "ama"
      ],
      [
        "m",
        "en"
      ],
      [
        "m",
        "n"
      ],
      [
        "ma",
        "il"
      ],
      [
        "mar",
        "ia"
      ],
      [
        "me",
        "jor"
      ],
      [
        "n",
        "ar"
      ],
      [
        "n",
        "at"
      ],
      [
        "ol",
        "e"
      ],
      [
        "ol",
        "in"
      ],
      [
        "on",
        "o"
      ],
      [
        "os",
        "car"
      ],
      [
        "p",
        "al"
      ],
      [
        "p",
        "ot"
      ],
      [
        "p",
        "ro"
      ],
      [
        "p",
        "s"
      ],
      [
        "prin",
        "ces"
      ],
      [
        "s",
        "in"
      ],
      [
        "s",
        "oc"
      ],
      [
        "t",
        "os"
      ],
      [
        "u",
        "d"
      ],
      [
        "us",
        "e"
      ],
      [
        "v",
        "i"
      ],
      [
        "v",
        "in"
      ],
      [
        "y",
        "am"
      ],
      [
        "y",
        "l"
      ],
      [
        "z",
        "o"
      ],
      [
        "\"",
        "\\\"\"\"\""
      ],
      [
        ".",
        "com"
      ],
      [
        "/",
        "/"
      ],
      [
        "0",
        "17"
      ],
      [
        "02",
        "19"
      ],
      [
        "10",
        "9"
      ],
      [
        "100",
        "8"
      ],
      [
        "11",
        "1"
      ],
      [
        "11",
        "6"
      ],
      [
        "11",
        "7"
      ],
      [
        "12",
        "04"
      ],
      [
        "12",
        "12"
      ],
      [
        "18",
        "2"
      ],
      [
        "19",
        "69"
      ],
      [
        "197",
        "1"
      ],
      [
        "199",
        "2"
      ],
      [
        "2",
        "02"
      ],
      [
        "2",
        "05"
      ],
      [
        "2",
        "11"
      ],
      [
        "28",
        "12"
      ],
      [
        "3",
        "02"
      ],
      [
        "3",
        "28"
      ],
      [
        "33",
        "3"
      ],
      [
        "4",
        "2"
      ],
      [
        "4",
        "ever"
      ],
      [
        "6",
        "19"
      ],
      [
        "6",
        "74"
      ],
      [
        "66",
        "7"
      ],
      [
        "8",
        "05"
      ],
      [
        "8",
        "1"
      ],
      [
        "87",
        "654"
      ],
      [
        "87",
        "8"
      ],
      [
        "9",
        "11"
      ],
      [
        "99",
        "9"
      ],
      [
        "=C3=",
        "A"
      ],
      [
        "A",
        "MO"
      ],
      [
        "A",
        "T"
      ],
      [
        "AN",
        "G"
      ],
      [
        "AN",
        "I"
      ],
      [
        "B",
        "I"
      ],
      [
        "D",
        "I"
      ],
      [
        "E+",
        "14"
      ],
      [
        "EL",
        "I"
      ],
      [
        "ER",
        "O"
      ],
      [
        "G",
        "U"
      ],
      [
        "LO",
        "S"
      ],
      [
        "M",
        "AR"
      ],
      [
        "P",
        "R"
      ],
      [
        "QU",
        "I"
      ],
      [
        "S",
        "O"
      ],
      [
        "ab",
        "el"
      ],
      [
        "ab",
        "l"
      ],
      [
        "ac",
        "a"
      ],
      [
        "al",
        "c"
      ],
      [
        "amor",
        "es"
      ],
      [
        "and",
        "a"
      ],
      [
        "ar",
        "l"
      ],
      [
        "ar",
        "s"
      ],
      [
        "as",
        "a"
      ],
      [
        "at",
        "ion"
      ],
      [
        "az",
        "ul"
      ],
      [
        "b",
        "il"
      ],
      [
        "b",
        "in"
      ],
      [
        "b",
        "it"
      ],
      [
        "b",
        "la"
      ],
      [
        "b",
        "os"
      ],
      [
        "b",
        "s"
      ],
      [
        "c",
        "ap"
      ],
      [
        "c",
        "r"
      ],
      [
        "c",
        "re"
      ],
      [
        "ch",
        "ic"
      ],
      [
        "cris",
        "to"
      ],
      [
        "d",
        "av"
      ],
      [
        "d",
        "ic"
      ],
      [
        "d",
        "ou"
      ],
      [
        "e",
        "is"
      ],
      [
        "ed",
        "a"
      ],
      [
        "en",
        "cia"
      ],
      [
        "en",
        "o"
      ],
      [
        "es",
        "ita"
      ],
      [
        "estr",
        "ella"
      ],
      [
        "f",
        "al"
      ],
      [
        "f",
        "ar"
      ],
      [
        "f",
        "at"
      ],
      [
        "f",
        "ul"
      ],
      [
        "fo",
        "ot"
      ],
      [
        "g",
        "at"
      ],
      [
        "g",
        "en"
      ],
      [
        "g",
        "or"
      ],
      [
        "g",
        "ot"
      ],
      [
        "g",
        "us"
      ],
      [
        "i",
        "x"
      ],
      [
        "ic",
        "e"
      ],
      [
        "ic",
        "os"
      ],
      [
        "il",
        "le"
      ],
      [
        "in",
        "d"
      ],
      [
        "is",
        "ma"
      ],
      [
        "j",
        "e"
      ],
      [
        "j",
        "on"
      ],
      [
        "jos",
        "e"
      ],
      [
        "k",
        "is"
      ],
      [
        "k",
        "n"
      ],
      [
        "ki",
        "ero"
      ],
      [
        "l",
        "am"
      ],
      [
        "le",
        "on"
      ],
      [
        "le",
        "y"
      ],
      [
        "li",
        "fe"
      ],
      [
        "m",
        "all"
      ],
      [
        "m",
        "m"
      ],
      [
        "ma",
        "k"
      ],
      [
        "mar",
        "io"
      ],
      [
        "mig",
        "uel"
      ],
      [
        "n",
        "al"
      ],
      [
        "n",
        "y"
      ],
      [
        "oc",
        "o"
      ],
      [
        "ol",
        "ina"
      ],
      [
        "om",
        "a"
      ],
      [
        "ot",
        "a"
      ],
      [
        "p",
        "an"
      ],
      [
        "p",
        "ic"
      ],
      [
        "p",
        "ink"
      ],
      [
        "p",
        "ir"
      ],
      [
        "p",
        "ul"
      ],
      [
        "qu",
        "it"
      ],
      [
        "r",
        "oc"
      ],
      [
        "r",
        "ock"
      ],
      [
        "ra",
        "ul"
      ],
      [
        "re",
        "a"
      ],
      [
        "t",
        "ag"
      ],
      [
        "t",
        "el"
      ],
      [
        "t",
        "es"
      ],
      [
        "t",
        "ig"
      ],
      [
        "team",
        "om"
      ],
      [
        "u",
        "ch"
      ],
      [
        "ul",
        "t"
      ],
      [
        "un",
        "o"
      ],
      [
        "ur",
        "r"
      ],
      [
        "v",
        "al"
      ],
      [
        "w",
        "in"
      ],
      [
        "w",
        "w"
      ],
      [
        "xx",
        "x"
      ],
      [
        "y",
        "_"
      ],
      [
        "y",
        "an"
      ],
      [
        ",",
        "."
      ],
      [
        "-",
        "12"
      ],
      [
        "07",
        "07"
      ],
      [
        "12",
        "01"
      ],
      [
        "12",
        "02"
      ],
      [
        "14",
        "04"
      ],
      [
        "14",
        "5"
      ],
      [
        "15",
        "2"
      ],
      [
        "19",
        "0"
      ],
      [
        "197",
        "0"
      ],
      [
        "199",
        "7"
      ],
      [
        "22",
        "05"
      ],
      [
        "23",
        "4"
      ],
      [
        "3",
        "04"
      ],
      [
        "3",
        "12"
      ],
      [
        "3",
        "14"
      ],
      [
        "3",
        "55"
      ],
      [
        "3",
        "d"
      ],
      [
        "3",
        "l"
      ],
      [
        "4",
        "04"
      ],
      [
        "4",
        "1"
      ],
      [
        "4",
        "74"
      ],
      [
        "44",
        "4"
      ],
      [
        "5",
        "18"
      ],
      [
        "6",
        "86"
      ],
      [
        "69",
        "69"
      ],
      [
        "9",
        "."
      ],
      [
        "9",
        "00"
      ],
      [
        "A",
        "C"
      ],
      [
        "A",
        "Y"
      ],
      [
        "C",
        "IA"
      ],
      [
        "E",
        "T"
      ],
      [
        "L",
        "I"
      ],
      [
        "L",
        "U"
      ],
      [
        "N",
        "E"
      ],
      [
        "N",
        "ES"
      ],
      [
        "O",
        "V"
      ],
      [
        "P",
        "E"
      ],
      [
        "R",
        "EN"
      ],
      [
        "S",
        "A"
      ],
      [
        "\\\"\"\"\"",
        "\""
      ],
      [
        "a",
        "."
      ],
      [
        "ab",
        "a"
      ],
      [
        "ab",
        "b"
      ],
      [
        "ac",
        "e"
      ],
      [
        "ad",
        "alu"
      ],
      [
        "ad",
        "e"
      ],
      [
        "adalu",
        "pe"
      ],
      [
        "adr",
        "id"
      ],
      [
        "al",
        "es"
      ],
      [
        "am",
        "b"
      ],
      [
        "an",
        "z"
      ],
      [
        "anton",
        "io"
      ],
      [
        "ap",
        "o"
      ],
      [
        "ar",
        "ia"
      ],
      [
        "ar",
        "ra"
      ],
      [
        "ar",
        "ri"
      ],
      [
        "arm",
        "ando"
      ],
      [
        "art",
        "ur"
      ],
      [
        "at",
        "a"
      ],
      [
        "at",
        "or"
      ],
      [
        "at",
        "ra"
      ],
      [
        "au",
        "d"
      ],
      [
        "av",
        "il"
      ],
      [
        "az",
        "z"
      ],
      [
        "b",
        "ad"
      ],
      [
        "b",
        "an"
      ],
      [
        "b",
        "as"
      ],
      [
        "b",
        "ast"
      ],
      [
        "b",
        "c"
      ],
      [
        "b",
        "or"
      ],
      [
        "bb",
        "bb"
      ],
      [
        "beat",
        "riz"
      ],
      [
        "ber",
        "e"
      ],
      [
        "ber",
        "en"
      ],
      [
        "c",
        "ed"
      ],
      [
        "c",
        "en"
      ],
      [
        "c",
        "ul"
      ],
      [
        "ca",
        "ch"
      ],
      [
        "cam",
        "il"
      ],
      [
        "cor",
        "p"
      ],
      [
        "d",
        "am"
      ],
      [
        "d",
        "j"
      ],
      [
        "d",
        "ol"
      ],
      [
        "d",
        "om"
      ],
      [
        "d",
        "ra"
      ],
      [
        "d",
        "ul"
      ],
      [
        "dic",
        "iembre"
      ],
      [
        "e",
        "va"
      ],
      [
        "ed",
        "ad"
      ],
      [
        "ed",
        "u"
      ],
      [
        "el",
        "o"
      ],
      [
        "el",
        "y"
      ],
      [
        "ell",
        "y"
      ],
      [
        "em",
        "bre"
      ],
      [
        "en",
        "amor"
      ],
      [
        "er",
        "e"
      ],
      [
        "et",
        "h"
      ],
      [
        "et",
        "ti"
      ],
      [
        "f",
        "l"
      ],
      [
        "foot",
        "ball"
      ],
      [
        "g",
        "an"
      ],
      [
        "h",
        "am"
      ],
      [
        "her",
        "m"
      ],
      [
        "hot",
        "mail"
      ],
      [
        "i",
        "i"
      ],
      [
        "i",
        "or"
      ],
      [
        "i",
        "ra"
      ],
      [
        "il",
        "ov"
      ],
      [
        "im",
        "e"
      ],
      [
        "in",
        "da"
      ],
      [
        "in",
        "es"
      ],
      [
        "in",
        "t"
      ],
      [
        "in",
        "ter"
      ],
      [
        "is",
        "e"
      ],
      [
        "is",
        "ter"
      ],
      [
        "it",
        "h"
      ],
      [
        "iv",
        "an"
      ],
      [
        "j",
        "an"
      ],
      [
        "j",
        "k"
      ],
      [
        "j",
        "t"
      ],
      [
        "jo",
        "h"
      ],
      [
        "ki",
        "k"
      ],
      [
        "l",
        "and"
      ],
      [
        "l",
        "p"
      ],
      [
        "la",
        "v"
      ],
      [
        "la",
        "y"
      ],
      [
        "le",
        "v"
      ],
      [
        "lo",
        "w"
      ],
      [
        "m",
        "ad"
      ],
      [
        "m",
        "ed"
      ],
      [
        "m",
        "em"
      ],
      [
        "mi",
        "amor"
      ],
      [
        "n",
        "am"
      ],
      [
        "n",
        "or"
      ],
      [
        "o",
        "b"
      ],
      [
        "o",
        "j"
      ],
      [
        "oc",
        "a"
      ],
      [
        "oc",
        "am"
      ],
      [
        "oc",
        "t"
      ],
      [
        "oc",
        "tu"
      ],
      [
        "octu",
        "bre"
      ],
      [
        "ol",
        "as"
      ],
      [
        "om",
        "an"
      ],
      [
        "on",
        "e"
      ],
      [
        "on",
        "i"
      ],
      [
        "on",
        "ne"
      ],
      [
        "os",
        "m"
      ],
      [
        "os",
        "s"
      ],
      [
        "ot",
        "o"
      ],
      [
        "p",
        "et"
      ],
      [
        "p",
        "or"
      ],
      [
        "pa",
        "ul"
      ],
      [
        "pe",
        "on"
      ],
      [
        "pu",
        "t"
      ],
      [
        "r",
        "ac"
      ],
      [
        "r",
        "ad"
      ],
      [
        "r",
        "am"
      ],
      [
        "re",
        "am"
      ],
      [
        "s",
        "at"
      ],
      [
        "s",
        "iempre"
      ],
      [
        "s",
        "il"
      ],
      [
        "s",
        "te"
      ],
      [
        "se",
        "p"
      ],
      [
        "se",
        "x"
      ],
      [
        "sol",
        "edad"
      ],
      [
        "t",
        "ina"
      ],
      [
        "t",
        "k"
      ],
      [
        "t",
        "ra"
      ],
      [
        "t",
        "s"
      ],
      [
        "t",
        "x"
      ],
      [
        "te",
        "quiero"
      ],
      [
        "u",
        "f"
      ],
      [
        "u",
        "x"
      ],
      [
        "u",
        "z"
      ],
      [
        "ur",
        "ro"
      ],
      [
        "v",
        "e"
      ],
      [
        "v",
        "eg"
      ],
      [
        "v",
        "en"
      ],
      [
        "w",
        "al"
      ],
      [
        "w",
        "e"
      ],
      [
        "w",
        "o"
      ],
      [
        "y",
        "a"
      ],
      [
        "y",
        "h"
      ],
      [
        "y",
        "os"
      ],
      [
        "z",
        "ul"
      ],
      [
        "!",
        "@"
      ],
      [
        "0",
        "123"
      ],
      [
        "0",
        "22"
      ],
      [
        "00",
        "00"
      ],
      [
        "00",
        "3"
      ],
      [
        "02",
        "05"
      ],
      [
        "03",
        "12"
      ],
      [
        "03",
        "2"
      ],
      [
        "05",
        "/"
      ],
      [
        "05",
        "02"
      ],
      [
        "05",
        "05"
      ],
      [
        "07",
        "06"
      ],
      [
        "1",
        "77"
      ],
      [
        "10",
        "1"
      ],
      [
        "10",
        "3"
      ],
      [
        "10",
        "5"
      ],
      [
        "110",
        "5"
      ],
      [
        "12",
        "0"
      ],
      [
        "12",
        "5"
      ],
      [
        "12",
        "9"
      ],
      [
        "13",
        "02"
      ],
      [
        "13",
        "05"
      ],
      [
        "13",
        "12"
      ],
      [
        "13",
        "13"
      ],
      [
        "13",
        "4"
      ],
      [
        "13",
        "6"
      ],
      [
        "14",
        "0"
      ],
      [
        "14",
        "03"
      ],
      [
        "14",
        "15"
      ],
      [
        "14",
        "7"
      ],
      [
        "15",
        "10"
      ],
      [
        "16",
        "12"
      ],
      [
        "17",
        "04"
      ],
      [
        "17",
        "07"
      ],
      [
        "18",
        "09"
      ],
      [
        "18",
        "3"
      ],
      [
        "19",
        "04"
      ],
      [
        "19",
        "05"
      ],
      [
        "19",
        "56"
      ],
      [
        "19",
        "63"
      ],
      [
        "19",
        "66"
      ],
      [
        "199",
        "8"
      ],
      [
        "2",
        "07"
      ],
      [
        "2",
        "16"
      ],
      [
        "20",
        "10"
      ],
      [
        "200",
        "9"
      ],
      [
        "210",
        "5"
      ],
      [
        "22",
        "2"
      ],
      [
        "23",
        "0"
      ],
      [
        "23",
        "6"
      ],
      [
        "24",
        "03"
      ],
      [
        "28",
        "9"
      ],
      [
        "29",
        "09"
      ],
      [
        "3",
        "09"
      ],
      [
        "3",
        "25"
      ],
      [
        "3",
        "57"
      ],
      [
        "3",
        "66"
      ],
      [
        "4",
        "13"
      ],
      [
        "4",
        "69"
      ],
      [
        "5",
        "74"
      ],
      [
        "55",
        "9"
      ],
      [
        "56",
        "3"
      ],
      [
        "6",
        "22"
      ],
      [
        "6",
        "55"
      ],
      [
        "63",
        "0"
      ],
      [
        "67",
        "5"
      ],
      [
        "7",
        "26"
      ],
      [
        "77",
        "4"
      ],
      [
        "8",
        "09"
      ],
      [
        "8",
        "12"
      ],
      [
        "87654",
        "321"
      ],
      [
        "88",
        "8"
      ],
      [
        "9",
        "09"
      ],
      [
        "9",
        "17"
      ],
      [
        "9",
        "18"
      ],
      [
        "9",
        "64"
      ],
      [
        "9",
        "77"
      ],
      [
        "9",
        "d"
      ],
      [
        "99",
        "4"
      ],
      [
        "A",
        "I"
      ],
      [
        "A",
        "M"
      ],
      [
        "A",
        "U"
      ],
      [
        "AMO",
        "R"
      ],
      [
        "AV",
        "I"
      ],
      [
        "B",
        "AR"
      ],
      [
        "C",
        "ES"
      ],
      [
        "D",
        "ANI"
      ],
      [
        "DA",
        "D"
      ],
      [
        "E",
        "X"
      ],
      [
        "E+",
        "13"
      ],
      [
        "ER",
        "N"
      ],
      [
        "ES",
        "U"
      ],
      [
        "I",
        "TA"
      ],
      [
        "IL",
        "L"
      ],
      [
        "J",
        "ESU"
      ],
      [
        "M",
        "IN"
      ],
      [
        "M",
        "U"
      ],
      [
        "MA",
        "16"
      ],
      [
        "P",
        "O"
      ],
      [
        "PR",
        "IN"
      ],
      [
        "QUI",
        "ERO"
      ],
      [
        "R",
        "L"
      ],
      [
        "V",
        "AL"
      ],
      [
        "\\'",
        "\\'"
      ],
      [
        "a",
        "a"
      ],
      [
        "a",
        "k"
      ],
      [
        "ac",
        "t"
      ],
      [
        "ac",
        "u"
      ],
      [
        "ad",
        "os"
      ],
      [
        "ador",
        "a"
      ],
      [
        "adri",
        "an"
      ],
      [
        "ag",
        "o"
      ],
      [
        "aj",
        "a"
      ],
      [
        "aj",
        "o"
      ],
      [
        "al",
        "a"
      ],
      [
        "al",
        "do"
      ],
      [
        "al",
        "fre"
      ],
      [
        "al",
        "is"
      ],
      [
        "al",
        "p"
      ],
      [
        "alejand",
        "ra"
      ],
      [
        "alon",
        "so"
      ],
      [
        "am",
        "am"
      ],
      [
        "and",
        "res"
      ],
      [
        "ap",
        "a"
      ],
      [
        "ap",
        "py"
      ],
      [
        "ar",
        "es"
      ],
      [
        "ar",
        "on"
      ],
      [
        "ar",
        "quit"
      ],
      [
        "as",
        "e"
      ],
      [
        "as",
        "i"
      ],
      [
        "ash",
        "ion"
      ],
      [
        "aur",
        "el"
      ],
      [
        "av",
        "o"
      ],
      [
        "ax",
        "el"
      ],
      [
        "ay",
        "lin"
      ],
      [
        "az",
        "a"
      ],
      [
        "az",
        "er"
      ],
      [
        "az",
        "u"
      ],
      [
        "b",
        "ac"
      ],
      [
        "b",
        "om"
      ],
      [
        "b",
        "ou"
      ],
      [
        "b",
        "oy"
      ],
      [
        "b",
        "ri"
      ],
      [
        "bar",
        "cel"
      ],
      [
        "bar",
        "r"
      ],
      [
        "bel",
        "l"
      ],
      [
        "beren",
        "ice"
      ],
      [
        "bet",
        "y"
      ],
      [
        "bit",
        "ch"
      ],
      [
        "bl",
        "ack"
      ],
      [
        "bl",
        "anc"
      ],
      [
        "c",
        "and"
      ],
      [
        "c",
        "at"
      ],
      [
        "c",
        "op"
      ],
      [
        "c",
        "ot"
      ],
      [
        "c",
        "ou"
      ],
      [
        "c",
        "t"
      ],
      [
        "c",
        "y"
      ],
      [
        "cam",
        "peon"
      ],
      [
        "car",
        "men"
      ],
      [
        "ch",
        "ap"
      ],
      [
        "ch",
        "oc"
      ],
      [
        "chiv",
        "as"
      ],
      [
        "choc",
        "ol"
      ],
      [
        "con",
        "e"
      ],
      [
        "con",
        "s"
      ],
      [
        "corp",
        "ion"
      ],
      [
        "cu",
        "te"
      ],
      [
        "d",
        "as"
      ],
      [
        "d",
        "ia"
      ],
      [
        "d",
        "os"
      ],
      [
        "d",
        "ri"
      ],
      [
        "de",
        "julio"
      ],
      [
        "die",
        "go"
      ],
      [
        "e",
        "2"
      ],
      [
        "e",
        "in"
      ],
      [
        "ec",
        "a"
      ],
      [
        "ec",
        "os"
      ],
      [
        "ed",
        "er"
      ],
      [
        "eis",
        "er"
      ],
      [
        "el",
        "as"
      ],
      [
        "el",
        "e"
      ],
      [
        "el",
        "iz"
      ],
      [
        "eli",
        "DAD"
      ],
      [
        "em",
        "an"
      ],
      [
        "em",
        "il"
      ],
      [
        "en",
        "c"
      ],
      [
        "en",
        "l"
      ],
      [
        "en",
        "ov"
      ],
      [
        "ent",
        "es"
      ],
      [
        "er",
        "as"
      ],
      [
        "er",
        "i"
      ],
      [
        "es",
        "o"
      ],
      [
        "es",
        "p"
      ],
      [
        "es",
        "to"
      ],
      [
        "est",
        "re"
      ],
      [
        "estr",
        "ell"
      ],
      [
        "et",
        "on"
      ],
      [
        "f",
        "ashion"
      ],
      [
        "f",
        "eder"
      ],
      [
        "f",
        "f"
      ],
      [
        "f",
        "ord"
      ],
      [
        "fel",
        "iz"
      ],
      [
        "fid",
        "eliDAD"
      ],
      [
        "fr",
        "es"
      ],
      [
        "fr",
        "on"
      ],
      [
        "friend",
        "s"
      ],
      [
        "g",
        "l"
      ],
      [
        "g",
        "ust"
      ],
      [
        "gu",
        "adalupe"
      ],
      [
        "h",
        "appy"
      ],
      [
        "h",
        "ell"
      ],
      [
        "h",
        "ola"
      ],
      [
        "h",
        "om"
      ],
      [
        "h",
        "op"
      ],
      [
        "herm",
        "osa"
      ],
      [
        "ho",
        "use"
      ],
      [
        "i",
        "am"
      ],
      [
        "i",
        "b"
      ],
      [
        "i",
        "po"
      ],
      [
        "ia",
        "10"
      ],
      [
        "ic",
        "io"
      ],
      [
        "iel",
        "o"
      ],
      [
        "il",
        "d"
      ],
      [
        "il",
        "los"
      ],
      [
        "in",
        "ad"
      ],
      [
        "ing",
        "o"
      ],
      [
        "io",
        "p"
      ],
      [
        "ir",
        "is"
      ],
      [
        "is",
        "h"
      ],
      [
        "is",
        "o"
      ],
      [
        "is",
        "ra"
      ],
      [
        "is",
        "tr"
      ],
      [
        "it",
        "ario"
      ],
      [
        "j",
        "r"
      ],
      [
        "jav",
        "ier"
      ],
      [
        "jor",
        "ge"
      ],
      [
        "k",
        "el"
      ],
      [
        "k",
        "im"
      ],
      [
        "k",
        "in"
      ],
      [
        "k",
        "it"
      ],
      [
        "k",
        "on"
      ],
      [
        "k",
        "ur"
      ],
      [
        "kar",
        "en"
      ],
      [
        "l",
        "ac"
      ],
      [
        "l",
        "ad"
      ],
      [
        "l",
        "il"
      ],
      [
        "l",
        "ol"
      ],
      [
        "la",
        "h"
      ],
      [
        "la",
        "ur"
      ],
      [
        "le",
        "op"
      ],
      [
        "lu",
        "cas"
      ],
      [
        "m",
        "adrid"
      ],
      [
        "m",
        "as"
      ],
      [
        "m",
        "at"
      ],
      [
        "m",
        "ayo"
      ],
      [
        "m",
        "im"
      ],
      [
        "m",
        "om"
      ],
      [
        "m",
        "s"
      ],
      [
        "ma",
        "id"
      ],
      [
        "ma",
        "ur"
      ],
      [
        "ma",
        "x"
      ],
      [
        "mar",
        "tin"
      ],
      [
        "mar",
        "y"
      ],
      [
        "me",
        "x"
      ],
      [
        "met",
        "al"
      ],
      [
        "n",
        "an"
      ],
      [
        "n",
        "anc"
      ],
      [
        "n",
        "as"
      ],
      [
        "n",
        "er"
      ],
      [
        "n",
        "es"
      ],
      [
        "n",
        "om"
      ],
      [
        "o",
        "."
      ],
      [
        "om",
        "as"
      ],
      [
        "on",
        "ica"
      ],
      [
        "or",
        "a"
      ],
      [
        "ot",
        "or"
      ],
      [
        "ot",
        "y"
      ],
      [
        "p",
        "eter"
      ],
      [
        "p",
        "h"
      ],
      [
        "p",
        "op"
      ],
      [
        "pa",
        "k"
      ],
      [
        "pen",
        "de"
      ],
      [
        "per",
        "ez"
      ],
      [
        "po",
        "wer"
      ],
      [
        "pr",
        "es"
      ],
      [
        "pu",
        "er"
      ],
      [
        "q",
        "m"
      ],
      [
        "qu",
        "et"
      ],
      [
        "qu",
        "ita"
      ],
      [
        "qu",
        "ito"
      ],
      [
        "r",
        "ab"
      ],
      [
        "r",
        "and"
      ],
      [
        "r",
        "in"
      ],
      [
        "r",
        "ol"
      ],
      [
        "re",
        "al"
      ],
      [
        "re",
        "be"
      ],
      [
        "ro",
        "j"
      ],
      [
        "ru",
        "z"
      ],
      [
        "s",
        "ag"
      ],
      [
        "s",
        "l"
      ],
      [
        "t",
        "iv"
      ],
      [
        "te",
        "c"
      ],
      [
        "te",
        "m"
      ],
      [
        "th",
        "e"
      ],
      [
        "th",
        "ed"
      ],
      [
        "tr",
        "as"
      ],
      [
        "tr",
        "es"
      ],
      [
        "u",
        "is"
      ],
      [
        "u",
        "p"
      ],
      [
        "u",
        "v"
      ],
      [
        "un",
        "g"
      ],
      [
        "un",
        "iver"
      ],
      [
        "v",
        "ac"
      ],
      [
        "v",
        "d"
      ],
      [
        "v",
        "s"
      ],
      [
        "w",
        "a"
      ],
      [
        "w",
        "el"
      ],
      [
        "w",
        "il"
      ],
      [
        "w",
        "oman"
      ],
      [
        "xxx",
        "_"
      ],
      [
        "y",
        "ah"
      ],
      [
        "y",
        "al"
      ],
      [
        "y",
        "bar"
      ],
      [
        "z",
        "y"
      ],
      [
        "#",
        "$"
      ],
      [
        ",",
        "bla"
      ],
      [
        ".",
        "06"
      ],
      [
        ".",
        "16"
      ],
      [
        "..",
        "."
      ],
      [
        "/",
        "*"
      ],
      [
        "/",
        "15"
      ],
      [
        "0",
        "."
      ],
      [
        "0",
        "111"
      ],
      [
        "0",
        "124"
      ],
      [
        "00",
        "1"
      ],
      [
        "00",
        "11"
      ],
      [
        "00",
        "2"
      ],
      [
        "00",
        "4"
      ],
      [
        "0123",
        "69"
      ],
      [
        "03",
        "8"
      ],
      [
        "04",
        "08"
      ],
      [
        "04",
        "35"
      ],
      [
        "04",
        "5"
      ],
      [
        "05",
        "3"
      ],
      [
        "06",
        "5"
      ],
      [
        "08",
        "-"
      ],
      [
        "08",
        "."
      ],
      [
        "08",
        "06"
      ],
      [
        "08",
        "11"
      ],
      [
        "08",
        "12"
      ],
      [
        "08",
        "29"
      ],
      [
        "08",
        "77"
      ],
      [
        "09",
        "88"
      ],
      [
        "09",
        "90"
      ],
      [
        "1",
        "a"
      ],
      [
        "10",
        "15"
      ],
      [
        "10",
        "6"
      ],
      [
        "10",
        "7"
      ],
      [
        "100",
        "1"
      ],
      [
        "11",
        "12"
      ],
      [
        "110",
        "4"
      ],
      [
        "110",
        "8"
      ],
      [
        "12",
        "03"
      ],
      [
        "12",
        "13"
      ],
      [
        "12",
        "15"
      ],
      [
        "13",
        "10"
      ],
      [
        "13",
        "5"
      ],
      [
        "13",
        "77"
      ],
      [
        "14",
        "14"
      ],
      [
        "14",
        "4"
      ],
      [
        "14",
        "9"
      ],
      [
        "15",
        "04"
      ],
      [
        "15",
        "12"
      ],
      [
        "15",
        "7"
      ],
      [
        "15",
        "8"
      ],
      [
        "16",
        "3"
      ],
      [
        "16",
        "4"
      ],
      [
        "17",
        "02"
      ],
      [
        "17",
        "15"
      ],
      [
        "17",
        "3"
      ],
      [
        "17",
        "89"
      ],
      [
        "18",
        "07"
      ],
      [
        "18",
        "08"
      ],
      [
        "18",
        "11"
      ],
      [
        "19",
        "02"
      ],
      [
        "19",
        "09"
      ],
      [
        "19",
        "29"
      ],
      [
        "19",
        "3"
      ],
      [
        "19",
        "45"
      ],
      [
        "19",
        "5"
      ],
      [
        "19",
        "53"
      ],
      [
        "19",
        "55"
      ],
      [
        "19",
        "67"
      ],
      [
        "199",
        "9"
      ],
      [
        "2",
        "03"
      ],
      [
        "2",
        "06"
      ],
      [
        "2",
        "08"
      ],
      [
        "2",
        "17"
      ],
      [
        "2.",
        "7"
      ],
      [
        "20",
        "12"
      ],
      [
        "20",
        "22"
      ],
      [
        "21",
        "12"
      ],
      [
        "210",
        "6"
      ],
      [
        "22",
        "02"
      ],
      [
        "22",
        "04"
      ],
      [
        "22",
        "11"
      ],
      [
        "23",
        "03"
      ],
      [
        "23",
        "08"
      ],
      [
        "24",
        "1"
      ],
      [
        "24",
        "10"
      ],
      [
        "24",
        "12"
      ],
      [
        "25",
        "07"
      ],
      [
        "25",
        "11"
      ],
      [
        "25",
        "79"
      ],
      [
        "25",
        "8"
      ],
      [
        "26",
        "01"
      ],
      [
        "26",
        "6"
      ],
      [
        "27",
        "02"
      ],
      [
        "27",
        "05"
      ],
      [
        "27",
        "10"
      ],
      [
        "27",
        "12"
      ],
      [
        "27",
        "4"
      ],
      [
        "27",
        "5"
      ],
      [
        "28",
        "3"
      ],
      [
        "28",
        "4"
      ],
      [
        "28",
        "5"
      ],
      [
        "29",
        "05"
      ],
      [
        "29",
        "07"
      ],
      [
        "29",
        "10"
      ],
      [
        "29",
        "12"
      ],
      [
        "3",
        "03"
      ],
      [
        "3",
        "79"
      ],
      [
        "3",
        "80"
      ],
      [
        "3",
        "de"
      ],
      [
        "3",
        "s"
      ],
      [
        "30",
        "12"
      ],
      [
        "3d",
        "4"
      ],
      [
        "4",
        "26"
      ],
      [
        "4",
        "86"
      ],
      [
        "4",
        "r"
      ],
      [
        "44",
        "64"
      ],
      [
        "5",
        "20"
      ],
      [
        "5",
        "29"
      ],
      [
        "56",
        "2"
      ],
      [
        "56",
        "74"
      ],
      [
        "6",
        "05"
      ],
      [
        "6",
        "09"
      ],
      [
        "6",
        "17"
      ],
      [
        "6",
        "29"
      ],
      [
        "63",
        "25"
      ],
      [
        "64",
        "2"
      ],
      [
        "66",
        "4"
      ],
      [
        "69",
        "6"
      ],
      [
        "7",
        "."
      ],
      [
        "7",
        "09"
      ],
      [
        "7",
        "12"
      ],
      [
        "7",
        "17"
      ],
      [
        "7",
        "21"
      ],
      [
        "7",
        "53"
      ],
      [
        "76",
        "1"
      ],
      [
        "77",
        "9"
      ],
      [
        "8",
        "d"
      ],
      [
        "84",
        "84"
      ],
      [
        "84",
        "9"
      ],
      [
        "89",
        "0"
      ],
      [
        "9",
        "57"
      ],
      [
        "9",
        "65"
      ],
      [
        "92",
        "14"
      ],
      [
        "95",
        "2"
      ],
      [
        "99",
        "3"
      ],
      [
        "99",
        "99"
      ],
      [
        "9d",
        "9d"
      ],
      [
        "=C3=",
        "B"
      ],
      [
        "@",
        "_"
      ],
      [
        "A",
        "J"
      ],
      [
        "A",
        "b"
      ],
      [
        "A",
        "m"
      ],
      [
        "A",
        "r"
      ],
      [
        "AN",
        "D"
      ],
      [
        "AR",
        "G"
      ],
      [
        "AR",
        "LOS"
      ],
      [
        "B",
        "AS"
      ],
      [
        "B",
        "EL"
      ],
      [
        "B",
        "e"
      ],
      [
        "B",
        "et"
      ],
      [
        "BE",
        "TO"
      ],
      [
        "C",
        "A"
      ],
      [
        "C",
        "ARLOS"
      ],
      [
        "C",
        "AS"
      ],
      [
        "C",
        "h"
      ],
      [
        "CH",
        "IL"
      ],
      [
        "CH",
        "O"
      ],
      [
        "CO",
        "M"
      ],
      [
        "DANI",
        "EL"
      ],
      [
        "EL",
        "O"
      ],
      [
        "ES",
        "C"
      ],
      [
        "F",
        "O"
      ],
      [
        "G",
        "I"
      ],
      [
        "G",
        "O"
      ],
      [
        "H",
        "AZ"
      ],
      [
        "H",
        "U"
      ],
      [
        "I",
        "AN"
      ],
      [
        "IE",
        "M"
      ],
      [
        "J",
        "O"
      ],
      [
        "JESU",
        "S"
      ],
      [
        "M",
        "E"
      ],
      [
        "N",
        "I"
      ],
      [
        "N",
        "IO"
      ],
      [
        "P",
        "AL"
      ],
      [
        "P",
        "I"
      ],
      [
        "PRIN",
        "CES"
      ],
      [
        "R",
        "AN"
      ],
      [
        "RO",
        "26"
      ],
      [
        "S",
        "AN"
      ],
      [
        "S",
        "E"
      ],
      [
        "S",
        "T"
      ],
      [
        "T",
        "I"
      ],
      [
        "U",
        "H"
      ],
      [
        "Z",
        "A"
      ],
      [
        "_",
        "08"
      ],
      [
        "_",
        "1"
      ],
      [
        "_",
        "12"
      ],
      [
        "_",
        "sal"
      ],
      [
        "_",
        "y_"
      ],
      [
        "a",
        "1"
      ],
      [
        "a",
        "23"
      ],
      [
        "a",
        "6"
      ],
      [
        "a",
        "il"
      ],
      [
        "ab",
        "eth"
      ],
      [
        "ab",
        "il"
      ],
      [
        "ab",
        "on"
      ],
      [
        "ab",
        "r"
      ],
      [
        "abe",
        "a"
      ],
      [
        "abl",
        "itas"
      ],
      [
        "ac",
        "ar"
      ],
      [
        "ac",
        "i"
      ],
      [
        "ac",
        "ita"
      ],
      [
        "ac",
        "ito"
      ],
      [
        "ad",
        "el"
      ],
      [
        "adi",
        "os"
      ],
      [
        "ag",
        "ar"
      ],
      [
        "agar",
        "cia"
      ],
      [
        "ah",
        "r"
      ],
      [
        "al",
        "am"
      ],
      [
        "al",
        "an"
      ],
      [
        "al",
        "bert"
      ],
      [
        "al",
        "en"
      ],
      [
        "al",
        "ic"
      ],
      [
        "al",
        "ina"
      ],
      [
        "al",
        "lah"
      ],
      [
        "al",
        "v"
      ],
      [
        "ald",
        "er"
      ],
      [
        "ald",
        "on"
      ],
      [
        "alo",
        "ka"
      ],
      [
        "am",
        "ac"
      ],
      [
        "am",
        "il"
      ],
      [
        "am",
        "mar"
      ],
      [
        "amer",
        "ic"
      ],
      [
        "amig",
        "os"
      ],
      [
        "amor",
        "eter"
      ],
      [
        "amoreter",
        "no"
      ],
      [
        "an",
        "ab"
      ],
      [
        "an",
        "iel"
      ],
      [
        "an",
        "im"
      ],
      [
        "an",
        "ita"
      ],
      [
        "an",
        "ni"
      ],
      [
        "an",
        "os"
      ],
      [
        "ang",
        "a"
      ],
      [
        "ant",
        "er"
      ],
      [
        "ap",
        "ol"
      ],
      [
        "ar",
        "bol"
      ],
      [
        "ar",
        "en"
      ],
      [
        "ar",
        "et"
      ],
      [
        "ar",
        "ian"
      ],
      [
        "ar",
        "ita"
      ],
      [
        "ar",
        "k"
      ],
      [
        "ar",
        "ro"
      ],
      [
        "arm",
        "and"
      ],
      [
        "as",
        "ti"
      ],
      [
        "as",
        "tr"
      ],
      [
        "as",
        "u"
      ],
      [
        "asdf",
        "asdf"
      ],
      [
        "ash",
        "ley"
      ],
      [
        "at",
        "on"
      ],
      [
        "at",
        "t"
      ],
      [
        "aud",
        "rey"
      ],
      [
        "av",
        "ad"
      ],
      [
        "av",
        "en"
      ],
      [
        "av",
        "r"
      ],
      [
        "ay",
        "el"
      ],
      [
        "ay",
        "le"
      ],
      [
        "ay",
        "u"
      ],
      [
        "az",
        "min"
      ],
      [
        "az",
        "o"
      ],
      [
        "b",
        "em"
      ],
      [
        "b",
        "est"
      ],
      [
        "b",
        "g"
      ],
      [
        "b",
        "m"
      ],
      [
        "b",
        "n"
      ],
      [
        "bal",
        "on"
      ],
      [
        "barcel",
        "ona"
      ],
      [
        "be",
        "ar"
      ],
      [
        "be",
        "go"
      ],
      [
        "ben",
        "i"
      ],
      [
        "ber",
        "ry"
      ],
      [
        "bi",
        "cho"
      ],
      [
        "bi",
        "za"
      ],
      [
        "bil",
        "al"
      ],
      [
        "br",
        "ero"
      ],
      [
        "c",
        "ab"
      ],
      [
        "c",
        "ec"
      ],
      [
        "c",
        "ent"
      ],
      [
        "c",
        "ess"
      ],
      [
        "c",
        "li"
      ],
      [
        "cam",
        "aron"
      ],
      [
        "car",
        "olina"
      ],
      [
        "car",
        "ped"
      ],
      [
        "ch",
        "arm"
      ],
      [
        "ch",
        "at"
      ],
      [
        "ch",
        "en"
      ],
      [
        "ch",
        "in"
      ],
      [
        "ch",
        "ing"
      ],
      [
        "ch",
        "ris"
      ],
      [
        "chic",
        "k"
      ],
      [
        "chiqu",
        "ita"
      ],
      [
        "chocol",
        "ate"
      ],
      [
        "chris",
        "t"
      ],
      [
        "ci",
        "ento"
      ],
      [
        "col",
        "d"
      ],
      [
        "con",
        "lo"
      ],
      [
        "con",
        "t"
      ],
      [
        "cone",
        "j"
      ],
      [
        "conlo",
        "quet"
      ],
      [
        "conloquet",
        "ed"
      ],
      [
        "cor",
        "azon"
      ],
      [
        "cou",
        "cou"
      ],
      [
        "ct",
        "vs"
      ],
      [
        "d",
        "g"
      ],
      [
        "d",
        "h"
      ],
      [
        "d",
        "iv"
      ],
      [
        "d",
        "uel"
      ],
      [
        "d",
        "ur"
      ],
      [
        "dar",
        "es"
      ],
      [
        "dav",
        "id"
      ],
      [
        "de",
        "z"
      ],
      [
        "do",
        "g"
      ],
      [
        "do",
        "w"
      ],
      [
        "dom",
        "in"
      ],
      [
        "dra",
        "gon"
      ],
      [
        "dul",
        "ce"
      ],
      [
        "dy",
        "lan"
      ],
      [
        "e",
        "."
      ],
      [
        "e",
        "15"
      ],
      [
        "ec",
        "o"
      ],
      [
        "ec",
        "or"
      ],
      [
        "ef",
        "en"
      ],
      [
        "efen",
        "ix"
      ],
      [
        "eg",
        "a"
      ],
      [
        "el",
        "da"
      ],
      [
        "el",
        "ita"
      ],
      [
        "el",
        "mejor"
      ],
      [
        "el",
        "mo"
      ],
      [
        "el",
        "os"
      ],
      [
        "ell",
        "ano"
      ],
      [
        "em",
        "ente"
      ],
      [
        "em",
        "in"
      ],
      [
        "emil",
        "io"
      ],
      [
        "emin",
        "is"
      ],
      [
        "en",
        "ay"
      ],
      [
        "en",
        "ez"
      ],
      [
        "en",
        "se"
      ],
      [
        "ent",
        "os"
      ],
      [
        "er",
        "r"
      ],
      [
        "err",
        "ero"
      ],
      [
        "es",
        "corpion"
      ],
      [
        "es",
        "en"
      ],
      [
        "es",
        "te"
      ],
      [
        "et",
        "am"
      ],
      [
        "et",
        "i"
      ],
      [
        "f",
        "abi"
      ],
      [
        "f",
        "ac"
      ],
      [
        "f",
        "ant"
      ],
      [
        "f",
        "iel"
      ],
      [
        "f",
        "ir"
      ],
      [
        "f",
        "la"
      ],
      [
        "f",
        "low"
      ],
      [
        "f",
        "ot"
      ],
      [
        "f",
        "ut"
      ],
      [
        "fe",
        "brero"
      ],
      [
        "fel",
        "i"
      ],
      [
        "feli",
        "pe"
      ],
      [
        "fern",
        "anda"
      ],
      [
        "fid",
        "el"
      ],
      [
        "fideliDAD",
        "03"
      ],
      [
        "fon",
        "sec"
      ],
      [
        "fonsec",
        "a"
      ],
      [
        "for",
        "ever"
      ],
      [
        "franc",
        "is"
      ],
      [
        "fu",
        "entes"
      ],
      [
        "g",
        "io"
      ],
      [
        "g",
        "lor"
      ],
      [
        "g",
        "ol"
      ],
      [
        "g",
        "s"
      ],
      [
        "g",
        "t"
      ],
      [
        "g",
        "ur"
      ],
      [
        "gab",
        "y"
      ],
      [
        "ger",
        "ard"
      ],
      [
        "gon",
        "z"
      ],
      [
        "gu",
        "apo"
      ],
      [
        "gu",
        "e"
      ],
      [
        "gu",
        "errero"
      ],
      [
        "gu",
        "ez"
      ],
      [
        "h",
        "as"
      ],
      [
        "h",
        "d"
      ],
      [
        "h",
        "en"
      ],
      [
        "h",
        "g"
      ],
      [
        "h",
        "oc"
      ],
      [
        "h",
        "ol"
      ],
      [
        "her",
        "man"
      ],
      [
        "hor",
        "mig"
      ],
      [
        "hotmail",
        ".com"
      ],
      [
        "i",
        "ch"
      ],
      [
        "i",
        "en"
      ],
      [
        "i",
        "que"
      ],
      [
        "i",
        "ro"
      ],
      [
        "i",
        "u"
      ],
      [
        "i",
        "y"
      ],
      [
        "ian",
        "o"
      ],
      [
        "ic",
        "as"
      ],
      [
        "ic",
        "idad"
      ],
      [
        "ic",
        "l"
      ],
      [
        "ic",
        "s"
      ],
      [
        "id",
        "ane"
      ],
      [
        "id",
        "er"
      ],
      [
        "id",
        "os"
      ],
      [
        "ig",
        "h"
      ],
      [
        "ig",
        "n"
      ],
      [
        "ig",
        "o"
      ],
      [
        "il",
        "e"
      ],
      [
        "ill",
        "on"
      ],
      [
        "ilov",
        "ed"
      ],
      [
        "ilove",
        "u"
      ],
      [
        "ilove",
        "you"
      ],
      [
        "im",
        "i"
      ],
      [
        "im",
        "ir"
      ],
      [
        "im",
        "pl"
      ],
      [
        "impl",
        "emente"
      ],
      [
        "ing",
        "er"
      ],
      [
        "is",
        "d"
      ],
      [
        "is",
        "ima"
      ],
      [
        "is",
        "mo"
      ],
      [
        "is",
        "sa"
      ],
      [
        "istr",
        "acion"
      ],
      [
        "it",
        "ar"
      ],
      [
        "it",
        "e"
      ],
      [
        "it",
        "y"
      ],
      [
        "it",
        "z"
      ],
      [
        "ita",
        "1"
      ],
      [
        "ita",
        "27"
      ],
      [
        "iv",
        "ida"
      ],
      [
        "iv",
        "onne"
      ],
      [
        "iv",
        "oy"
      ],
      [
        "ivoy",
        "conloqueted"
      ],
      [
        "iz",
        "u"
      ],
      [
        "j",
        "i"
      ],
      [
        "jam",
        "in"
      ],
      [
        "jim",
        "enez"
      ],
      [
        "jo",
        "an"
      ],
      [
        "joh",
        "n"
      ],
      [
        "jos",
        "el"
      ],
      [
        "jt",
        "m"
      ],
      [
        "ju",
        "ana"
      ],
      [
        "ju",
        "d"
      ],
      [
        "jun",
        "io"
      ],
      [
        "k",
        "ay"
      ],
      [
        "k",
        "er"
      ],
      [
        "k",
        "es"
      ],
      [
        "k",
        "u"
      ],
      [
        "kar",
        "ina"
      ],
      [
        "kar",
        "l"
      ],
      [
        "kar",
        "r"
      ],
      [
        "l",
        "al"
      ],
      [
        "l",
        "ar"
      ],
      [
        "l",
        "c"
      ],
      [
        "l",
        "d"
      ],
      [
        "l",
        "is"
      ],
      [
        "l",
        "r"
      ],
      [
        "l",
        "un"
      ],
      [
        "l",
        "z"
      ],
      [
        "la",
        "u"
      ],
      [
        "li",
        "bert"
      ],
      [
        "li",
        "p"
      ],
      [
        "lil",
        "i"
      ],
      [
        "lin",
        "da"
      ],
      [
        "lov",
        "es"
      ],
      [
        "lu",
        "ci"
      ],
      [
        "lu",
        "p"
      ],
      [
        "lu",
        "z"
      ],
      [
        "m",
        "55"
      ],
      [
        "m",
        "c"
      ],
      [
        "m",
        "h"
      ],
      [
        "m",
        "ol"
      ],
      [
        "m",
        "r"
      ],
      [
        "m",
        "un"
      ],
      [
        "m",
        "us"
      ],
      [
        "m",
        "v"
      ],
      [
        "ma",
        "qu"
      ],
      [
        "maid",
        "en"
      ],
      [
        "man",
        "ia"
      ],
      [
        "mar",
        "c"
      ],
      [
        "mar",
        "i"
      ],
      [
        "mar",
        "ian"
      ],
      [
        "mar",
        "ip"
      ],
      [
        "maur",
        "icio"
      ],
      [
        "mi",
        "chel"
      ],
      [
        "mil",
        "ag"
      ],
      [
        "mon",
        "t"
      ],
      [
        "mor",
        "enita"
      ],
      [
        "n",
        "aj"
      ],
      [
        "n",
        "ess"
      ],
      [
        "n",
        "um"
      ],
      [
        "n",
        "un"
      ],
      [
        "n",
        "ur"
      ],
      [
        "nam",
        "id"
      ],
      [
        "nar",
        "u"
      ],
      [
        "naru",
        "to"
      ],
      [
        "nd",
        "r"
      ],
      [
        "nic",
        "e"
      ],
      [
        "o",
        "de"
      ],
      [
        "oct",
        "av"
      ],
      [
        "od",
        "io"
      ],
      [
        "od",
        "y"
      ],
      [
        "ol",
        "v"
      ],
      [
        "olo",
        "ga"
      ],
      [
        "om",
        "or"
      ],
      [
        "om",
        "u"
      ],
      [
        "op",
        "ar"
      ],
      [
        "or",
        "el"
      ],
      [
        "ord",
        "s"
      ],
      [
        "orn",
        "io"
      ],
      [
        "os",
        "al"
      ],
      [
        "os",
        "ito"
      ],
      [
        "os",
        "t"
      ],
      [
        "ot",
        "u"
      ],
      [
        "ov",
        "a"
      ],
      [
        "ov",
        "i"
      ],
      [
        "p",
        "as"
      ],
      [
        "p",
        "ay"
      ],
      [
        "p",
        "es"
      ],
      [
        "p",
        "ie"
      ],
      [
        "p",
        "iel"
      ],
      [
        "p",
        "lay"
      ],
      [
        "p",
        "le"
      ],
      [
        "p",
        "m"
      ],
      [
        "p",
        "ou"
      ],
      [
        "p",
        "py"
      ],
      [
        "pand",
        "ol"
      ],
      [
        "pat",
        "ric"
      ],
      [
        "pe",
        "p"
      ],
      [
        "pil",
        "ar"
      ],
      [
        "pl",
        "at"
      ],
      [
        "pr",
        "ad"
      ],
      [
        "pr",
        "im"
      ],
      [
        "pre",
        "ci"
      ],
      [
        "q",
        "p"
      ],
      [
        "qu",
        "er"
      ],
      [
        "qu",
        "ier"
      ],
      [
        "qu",
        "im"
      ],
      [
        "r",
        "ar"
      ],
      [
        "r",
        "era"
      ],
      [
        "r",
        "r"
      ],
      [
        "r",
        "ul"
      ],
      [
        "ras",
        "ta"
      ],
      [
        "re",
        "c"
      ],
      [
        "re",
        "e"
      ],
      [
        "ret",
        "o"
      ],
      [
        "ro",
        "b"
      ],
      [
        "s",
        "and"
      ],
      [
        "s",
        "implemente"
      ],
      [
        "s",
        "ivoyconloqueted"
      ],
      [
        "s",
        "k"
      ],
      [
        "s",
        "tr"
      ],
      [
        "s",
        "we"
      ],
      [
        "s",
        "y"
      ],
      [
        "sa",
        "kur"
      ],
      [
        "sag",
        "itario"
      ],
      [
        "sant",
        "os"
      ],
      [
        "se",
        "v"
      ],
      [
        "se",
        "xo"
      ],
      [
        "sep",
        "ti"
      ],
      [
        "septi",
        "embre"
      ],
      [
        "so",
        "ul"
      ],
      [
        "super",
        "man"
      ],
      [
        "swe",
        "et"
      ],
      [
        "t",
        "ad"
      ],
      [
        "t",
        "ap"
      ],
      [
        "t",
        "qm"
      ],
      [
        "t",
        "ri"
      ],
      [
        "t",
        "ul"
      ],
      [
        "t",
        "z"
      ],
      [
        "te",
        "kiero"
      ],
      [
        "tel",
        "ef"
      ],
      [
        "ter",
        "io"
      ],
      [
        "th",
        "eb"
      ],
      [
        "ti",
        "er"
      ],
      [
        "ton",
        "to"
      ],
      [
        "u",
        "eva"
      ],
      [
        "u",
        "ita"
      ],
      [
        "u",
        "ka"
      ],
      [
        "un",
        "k"
      ],
      [
        "us",
        "a"
      ],
      [
        "us",
        "ic"
      ],
      [
        "v",
        "el"
      ],
      [
        "v",
        "ia"
      ],
      [
        "v",
        "ic"
      ],
      [
        "val",
        "ent"
      ],
      [
        "viv",
        "a"
      ],
      [
        "w",
        "ill"
      ],
      [
        "w",
        "n"
      ],
      [
        "ww",
        "w"
      ],
      [
        "x",
        "y"
      ],
      [
        "y",
        "ara"
      ],
      [
        "y",
        "m"
      ],
      [
        "y",
        "u"
      ],
      [
        "yos",
        "oy"
      ],
      [
        "z",
        "ar"
      ],
      [
        "\"",
        "mis"
      ],
      [
        "$",
        "_"
      ],
      [
        "&",
        "1980"
      ],
      [
        "**",
        "*"
      ],
      [
        "+",
        "-"
      ],
      [
        "++",
        "+"
      ],
      [
        ",.",
        ",."
      ],
      [
        ",bla",
        ",bla"
      ],
      [
        "-",
        "123"
      ],
      [
        "-",
        "2"
      ],
      [
        "-",
        "21"
      ],
      [
        "-",
        "7"
      ],
      [
        "-",
        "F"
      ],
      [
        "-",
        "J"
      ],
      [
        "-",
        "N"
      ],
      [
        "-",
        "z"
      ],
      [
        "-F",
        "eb"
      ],
      [
        "-Feb",
        "-"
      ],
      [
        "-N",
        "ov"
      ],
      [
        "-Nov",
        "-"
      ],
      [
        ".",
        "0"
      ],
      [
        ".",
        "03"
      ],
      [
        ".",
        "2008"
      ],
      [
        ".",
        "O"
      ],
      [
        ".",
        "madrid"
      ],
      [
        ".",
        "o."
      ],
      [
        ".",
        "z"
      ],
      [
        "/",
        "04"
      ],
      [
        "/",
        "05/"
      ],
      [
        "/",
        "08"
      ],
      [
        "/",
        "09"
      ],
      [
        "/",
        "84"
      ],
      [
        "//",
        "54"
      ],
      [
        "//54",
        "//"
      ],
      [
        "/15",
        "/"
      ],
      [
        "0",
        "15"
      ],
      [
        "0",
        "18"
      ],
      [
        "0",
        "774"
      ],
      [
        "0",
        "iv"
      ],
      [
        "0",
        "n"
      ],
      [
        "00",
        "07"
      ],
      [
        "0000",
        "ru"
      ],
      [
        "0000ru",
        "b"
      ],
      [
        "010",
        "2"
      ],
      [
        "010",
        "6"
      ],
      [
        "0102",
        "2005"
      ],
      [
        "012369",
        "87"
      ],
      [
        "01236987",
        "45"
      ],
      [
        "0123698745",
        "angel"
      ],
      [
        "017",
        "9"
      ],
      [
        "02",
        "13"
      ],
      [
        "02",
        "3"
      ],
      [
        "02",
        "83"
      ],
      [
        "02",
        "9"
      ],
      [
        "0219",
        "55"
      ],
      [
        "03",
        ".."
      ],
      [
        "03",
        "02"
      ],
      [
        "03",
        "06"
      ],
      [
        "03",
        "13"
      ],
      [
        "03",
        "23"
      ],
      [
        "03",
        "3"
      ],
      [
        "03",
        "64"
      ],
      [
        "03",
        "92"
      ],
      [
        "0392",
        "b"
      ],
      [
        "0392b",
        "8"
      ],
      [
        "04",
        "04"
      ],
      [
        "04",
        "17"
      ],
      [
        "04",
        "20"
      ],
      [
        "04",
        "29"
      ],
      [
        "04",
        "8"
      ],
      [
        "04",
        "90"
      ],
      [
        "05",
        "-"
      ],
      [
        "05",
        "11"
      ],
      [
        "05",
        "1970"
      ],
      [
        "05",
        "85"
      ],
      [
        "05",
        "9"
      ],
      [
        "06",
        "\""
      ],
      [
        "06",
        "."
      ],
      [
        "06",
        "09"
      ],
      [
        "06",
        "10"
      ],
      [
        "06",
        "2"
      ],
      [
        "06",
        "2001"
      ],
      [
        "06",
        "67"
      ],
      [
        "06",
        "7"
      ],
      [
        "07",
        "80"
      ],
      [
        "07",
        "93"
      ],
      [
        "07",
        "94"
      ],
      [
        "0707",
        "88"
      ],
      [
        "070788",
        "11"
      ],
      [
        "07078811",
        "amac"
      ],
      [
        "08",
        "03"
      ],
      [
        "08",
        "04"
      ],
      [
        "08",
        "3"
      ],
      [
        "09",
        "87654321"
      ],
      [
        "0iv",
        "ir"
      ],
      [
        "1",
        "r"
      ],
      [
        "1.",
        "44"
      ],
      [
        "1.44",
        "563"
      ],
      [
        "10",
        ".03"
      ],
      [
        "10",
        "16"
      ],
      [
        "10",
        "18"
      ],
      [
        "10",
        "20"
      ],
      [
        "10",
        "25"
      ],
      [
        "10",
        "84"
      ],
      [
        "10",
        "97"
      ],
      [
        "100",
        "2"
      ],
      [
        "100",
        "4"
      ],
      [
        "100",
        "5"
      ],
      [
        "11",
        "111"
      ],
      [
        "11",
        "5"
      ],
      [
        "11",
        "63"
      ],
      [
        "11",
        "65"
      ],
      [
        "11",
        "85"
      ],
      [
        "110",
        "2"
      ],
      [
        "110",
        "3"
      ],
      [
        "110",
        "9"
      ],
      [
        "1104",
        "73"
      ],
      [
        "112",
        "7"
      ],
      [
        "119",
        "3"
      ],
      [
        "12",
        "-"
      ],
      [
        "12",
        "05"
      ],
      [
        "12",
        "09"
      ],
      [
        "12",
        "22"
      ],
      [
        "12",
        "60"
      ],
      [
        "12",
        "89"
      ],
      [
        "123",
        "1"
      ],
      [
        "1234",
        "5"
      ],
      [
        "124",
        "6"
      ],
      [
        "13",
        "0"
      ],
      [
        "13",
        "06"
      ],
      [
        "13",
        "08"
      ],
      [
        "13",
        "25"
      ],
      [
        "13",
        "48"
      ],
      [
        "13",
        "ni"
      ],
      [
        "1377",
        "13"
      ],
      [
        "13ni",
        "che"
      ],
      [
        "13niche",
        "13"
      ],
      [
        "14",
        "02"
      ],
      [
        "14",
        "jer"
      ],
      [
        "15",
        "00"
      ],
      [
        "15",
        "08"
      ],
      [
        "15",
        "18"
      ],
      [
        "15",
        "20"
      ],
      [
        "15",
        "28"
      ],
      [
        "15",
        "5"
      ],
      [
        "15",
        "65"
      ],
      [
        "15",
        "93"
      ],
      [
        "15",
        "ami"
      ],
      [
        "15ami",
        "1"
      ],
      [
        "16",
        "01"
      ],
      [
        "16",
        "06"
      ],
      [
        "16",
        "2"
      ],
      [
        "16",
        "78"
      ],
      [
        "17",
        "11"
      ],
      [
        "17",
        "22"
      ],
      [
        "17",
        "6"
      ],
      [
        "17",
        "88"
      ],
      [
        "173",
        "173"
      ],
      [
        "18",
        "03"
      ],
      [
        "18",
        "10"
      ],
      [
        "18",
        "18"
      ],
      [
        "18",
        "469"
      ],
      [
        "18",
        "6"
      ],
      [
        "18",
        "7"
      ],
      [
        "18",
        "9"
      ],
      [
        "19",
        "25"
      ],
      [
        "19",
        "34"
      ],
      [
        "19",
        "39"
      ],
      [
        "19",
        "4"
      ],
      [
        "19",
        "40"
      ],
      [
        "19",
        "50"
      ],
      [
        "19",
        "57"
      ],
      [
        "19",
        "59"
      ],
      [
        "19",
        "6"
      ],
      [
        "19",
        "60"
      ],
      [
        "19",
        "61"
      ],
      [
        "19",
        "62"
      ],
      [
        "19",
        "65"
      ],
      [
        "19",
        "68"
      ],
      [
        "1984",
        "19"
      ],
      [
        "199",
        "99"
      ],
      [
        "2",
        "09"
      ],
      [
        "2",
        "56"
      ],
      [
        "2",
        "77"
      ],
      [
        "2",
        "E+11"
      ],
      [
        "2",
        "i"
      ],
      [
        "2",
        "l"
      ],
      [
        "2",
        "s"
      ],
      [
        "2.",
        "64"
      ],
      [
        "2.",
        "rob"
      ],
      [
        "2.7",
        "1983"
      ],
      [
        "2.rob",
        "le"
      ],
      [
        "2006",
        "07"
      ],
      [
        "21",
        "E+11"
      ],
      [
        "210",
        "4"
      ],
      [
        "22",
        "021955"
      ],
      [
        "22",
        "12"
      ],
      [
        "22",
        "22"
      ],
      [
        "22",
        "3"
      ],
      [
        "22",
        "5"
      ],
      [
        "22",
        "73"
      ],
      [
        "23",
        "09"
      ],
      [
        "23",
        "10"
      ],
      [
        "23",
        "112"
      ],
      [
        "23",
        "13"
      ],
      [
        "23",
        "25"
      ],
      [
        "23",
        "3"
      ],
      [
        "23",
        "44"
      ],
      [
        "23",
        "45"
      ],
      [
        "23",
        "69"
      ],
      [
        "23",
        "87"
      ],
      [
        "23",
        "E+14"
      ],
      [
        "23",
        "b"
      ],
      [
        "24",
        "02"
      ],
      [
        "24",
        "04"
      ],
      [
        "24",
        "2"
      ],
      [
        "24",
        "4"
      ],
      [
        "24",
        "56"
      ],
      [
        "24",
        "6"
      ],
      [
        "24",
        "69"
      ],
      [
        "24",
        "8"
      ],
      [
        "24",
        "878"
      ],
      [
        "24",
        "93"
      ],
      [
        "24",
        "@"
      ],
      [
        "25",
        "02"
      ],
      [
        "25",
        "10"
      ],
      [
        "25",
        "4"
      ],
      [
        "25",
        "83"
      ],
      [
        "26",
        "06"
      ],
      [
        "26",
        "07"
      ],
      [
        "26",
        "12"
      ],
      [
        "26",
        "26"
      ],
      [
        "26",
        "27"
      ],
      [
        "26",
        "28"
      ],
      [
        "26",
        "3"
      ],
      [
        "26",
        "5"
      ],
      [
        "26",
        "de"
      ],
      [
        "26de",
        "octubre"
      ],
      [
        "27",
        "20"
      ],
      [
        "27",
        "23"
      ],
      [
        "27",
        "3"
      ],
      [
        "27",
        "49"
      ],
      [
        "27",
        "86"
      ],
      [
        "27",
        "93"
      ],
      [
        "28",
        "0"
      ],
      [
        "28",
        "10"
      ],
      [
        "28",
        "7"
      ],
      [
        "28",
        "8"
      ],
      [
        "29",
        "02"
      ],
      [
        "29",
        "03"
      ],
      [
        "29",
        "08"
      ],
      [
        "2909",
        "87"
      ],
      [
        "293",
        "64"
      ],
      [
        "3",
        "08"
      ],
      [
        "3",
        "112"
      ],
      [
        "3",
        "13"
      ],
      [
        "3",
        "18"
      ],
      [
        "3",
        "44"
      ],
      [
        "3",
        "50"
      ],
      [
        "3",
        "53"
      ],
      [
        "3",
        "54"
      ],
      [
        "3",
        "e"
      ],
      [
        "3",
        "mar"
      ],
      [
        "3",
        "n"
      ],
      [
        "300",
        "0"
      ],
      [
        "300",
        "5"
      ],
      [
        "300",
        "9"
      ],
      [
        "314",
        "8"
      ],
      [
        "325",
        "9"
      ],
      [
        "33",
        "2"
      ],
      [
        "33",
        "4"
      ],
      [
        "33",
        "7"
      ],
      [
        "33",
        "8"
      ],
      [
        "34",
        "9"
      ],
      [
        "35",
        "29"
      ],
      [
        "35",
        "89"
      ],
      [
        "36",
        "27"
      ],
      [
        "38",
        "53"
      ],
      [
        "3e",
        "4r"
      ],
      [
        "4",
        "02"
      ],
      [
        "4",
        "07"
      ],
      [
        "4",
        "07078811amac"
      ],
      [
        "4",
        "12"
      ],
      [
        "4",
        "14"
      ],
      [
        "4",
        "27"
      ],
      [
        "4",
        "64"
      ],
      [
        "4",
        "89"
      ],
      [
        "4",
        "_"
      ],
      [
        "4",
        "e"
      ],
      [
        "4",
        "mi"
      ],
      [
        "44",
        "55"
      ],
      [
        "44",
        "9"
      ],
      [
        "449",
        "107"
      ],
      [
        "48",
        "00"
      ],
      [
        "486",
        "r"
      ],
      [
        "5",
        "000"
      ],
      [
        "5",
        "05"
      ],
      [
        "5",
        "21"
      ],
      [
        "5",
        "24"
      ],
      [
        "5",
        "56"
      ],
      [
        "5",
        "up"
      ],
      [
        "53",
        "5"
      ],
      [
        "53",
        "70"
      ],
      [
        "54",
        "26"
      ],
      [
        "54",
        "ndr"
      ],
      [
        "54ndr",
        "486r"
      ],
      [
        "55",
        "13"
      ],
      [
        "55",
        "5"
      ],
      [
        "559",
        "83"
      ],
      [
        "56",
        "4"
      ],
      [
        "56",
        "82"
      ],
      [
        "56",
        "94"
      ],
      [
        "57",
        "04"
      ],
      [
        "57",
        "6"
      ],
      [
        "57",
        "99"
      ],
      [
        "58",
        "06"
      ],
      [
        "59",
        "83"
      ],
      [
        "5983",
        "99"
      ],
      [
        "5up",
        "$"
      ],
      [
        "6",
        "."
      ],
      [
        "6",
        "12"
      ],
      [
        "6",
        "16"
      ],
      [
        "6",
        "26"
      ],
      [
        "6",
        "56"
      ],
      [
        "6",
        "pu"
      ],
      [
        "60",
        "13"
      ],
      [
        "63",
        "69"
      ],
      [
        "63",
        "9"
      ],
      [
        "65",
        "12"
      ],
      [
        "66",
        "3"
      ],
      [
        "66",
        "66"
      ],
      [
        "66",
        "84"
      ],
      [
        "67",
        "8"
      ],
      [
        "67",
        "89"
      ],
      [
        "6789",
        "22"
      ],
      [
        "68",
        "16"
      ],
      [
        "69",
        "3"
      ],
      [
        "6pu",
        "3"
      ],
      [
        "7",
        "08"
      ],
      [
        "7",
        "1"
      ],
      [
        "7",
        "67"
      ],
      [
        "7",
        "86"
      ],
      [
        "7",
        "99"
      ],
      [
        "7",
        "bi"
      ],
      [
        "72",
        "13"
      ],
      [
        "73",
        "1"
      ],
      [
        "74",
        "0"
      ],
      [
        "74",
        "15ami1"
      ],
      [
        "77",
        "5"
      ],
      [
        "77",
        "77"
      ],
      [
        "77",
        "80"
      ],
      [
        "77",
        "86"
      ],
      [
        "79",
        "13"
      ],
      [
        "79",
        "6"
      ],
      [
        "79",
        "7"
      ],
      [
        "7bi",
        "4mi"
      ],
      [
        "8",
        "."
      ],
      [
        "8",
        "13"
      ],
      [
        "8",
        "14"
      ],
      [
        "8",
        "27"
      ],
      [
        "8",
        "E+11"
      ],
      [
        "83",
        "22"
      ],
      [
        "83",
        "5"
      ],
      [
        "83",
        "9"
      ],
      [
        "84",
        "44"
      ],
      [
        "84",
        "5"
      ],
      [
        "84",
        "7"
      ],
      [
        "84",
        "85"
      ],
      [
        "84",
        "y"
      ],
      [
        "85",
        "9"
      ],
      [
        "88",
        "4"
      ],
      [
        "88",
        "47"
      ],
      [
        "8888",
        "8888"
      ],
      [
        "89",
        "*"
      ],
      [
        "89",
        "13"
      ],
      [
        "89",
        "25"
      ],
      [
        "89",
        "8"
      ],
      [
        "9",
        "63"
      ],
      [
        "9",
        "75"
      ],
      [
        "9",
        "87"
      ],
      [
        "9",
        "e"
      ],
      [
        "9",
        "ja"
      ],
      [
        "917",
        "26"
      ],
      [
        "94",
        "5up$"
      ],
      [
        "94",
        "6"
      ],
      [
        "957",
        "0794"
      ],
      [
        "96",
        "09"
      ],
      [
        "977",
        "8913"
      ],
      [
        "99",
        "0"
      ],
      [
        "9ja",
        "6pu3"
      ],
      [
        "=C3=A",
        "0"
      ],
      [
        "=C3=A",
        "7"
      ],
      [
        "=C3=A",
        "9"
      ],
      [
        "@",
        "hotmail.com"
      ],
      [
        "@",
        "l"
      ],
      [
        "@",
        "m"
      ],
      [
        "@",
        "no"
      ],
      [
        "@",
        "tag"
      ],
      [
        "@@",
        "@@"
      ],
      [
        "@_",
        "32"
      ],
      [
        "@no",
        "chi"
      ],
      [
        "@nochi",
        "pa"
      ],
      [
        "A",
        "CH"
      ],
      [
        "A",
        "D"
      ],
      [
        "A",
        "P"
      ],
      [
        "A",
        "TO"
      ],
      [
        "A",
        "cu"
      ],
      [
        "A",
        "t"
      ],
      [
        "AC",
        "U"
      ],
      [
        "AL",
        "0"
      ],
      [
        "AL",
        "EX"
      ],
      [
        "AL",
        "F"
      ],
      [
        "AL",
        "IN"
      ],
      [
        "ALF",
        "UH"
      ],
      [
        "ALFUH",
        "R"
      ],
      [
        "ALFUHR",
        "ER"
      ],
      [
        "AN",
        "TO"
      ],
      [
        "AND",
        "RE"
      ],
      [
        "ANDRE",
        "A"
      ],
      [
        "ANG",
        "ELI"
      ],
      [
        "ANTO",
        "NIO"
      ],
      [
        "AR",
        "IO"
      ],
      [
        "AR",
        "MIN"
      ],
      [
        "AS",
        "2006"
      ],
      [
        "AVI",
        "ER"
      ],
      [
        "Acu",
        "ario"
      ],
      [
        "B",
        "B"
      ],
      [
        "B",
        "ER"
      ],
      [
        "B",
        "ES"
      ],
      [
        "B",
        "RE"
      ],
      [
        "BE",
        "26"
      ],
      [
        "BE",
        "ME"
      ],
      [
        "BE",
        "T"
      ],
      [
        "BI",
        "EN"
      ],
      [
        "Bet",
        "o"
      ],
      [
        "C",
        "E"
      ],
      [
        "C",
        "I"
      ],
      [
        "C",
        "IL"
      ],
      [
        "C",
        "IO"
      ],
      [
        "CH",
        "AR"
      ],
      [
        "CHIL",
        "O"
      ],
      [
        "CO",
        "@_32"
      ],
      [
        "CO",
        "R"
      ],
      [
        "CO",
        "S"
      ],
      [
        "CO",
        "Y"
      ],
      [
        "D",
        "EN"
      ],
      [
        "D",
        "F"
      ],
      [
        "D",
        "R"
      ],
      [
        "D",
        "U"
      ],
      [
        "D",
        "e"
      ],
      [
        "D",
        "ream"
      ],
      [
        "D",
        "ul"
      ],
      [
        "DA",
        "ALFUHRER"
      ],
      [
        "DE",
        "DE"
      ],
      [
        "DEN",
        "OV"
      ],
      [
        "DO",
        "R"
      ],
      [
        "Dream",
        "fal"
      ],
      [
        "Dreamfal",
        "1"
      ],
      [
        "Dul",
        "es"
      ],
      [
        "E",
        "fron"
      ],
      [
        "E",
        "l"
      ],
      [
        "EL",
        "IN"
      ],
      [
        "EN",
        "CIA"
      ],
      [
        "EN",
        "I"
      ],
      [
        "ERN",
        "O"
      ],
      [
        "ES",
        "TA"
      ],
      [
        "ESTA",
        "M"
      ],
      [
        "ESTAM",
        "BIEN"
      ],
      [
        "F",
        "ELI"
      ],
      [
        "F",
        "L"
      ],
      [
        "F",
        "LO"
      ],
      [
        "F",
        "R"
      ],
      [
        "F",
        "la"
      ],
      [
        "FL",
        "IA"
      ],
      [
        "FLIA",
        "7415ami1"
      ],
      [
        "G",
        "A"
      ],
      [
        "G",
        "AS"
      ],
      [
        "G",
        "AY"
      ],
      [
        "G",
        "E"
      ],
      [
        "GI",
        "RL"
      ],
      [
        "H",
        "ER"
      ],
      [
        "H",
        "ammar"
      ],
      [
        "HAZ",
        "EL"
      ],
      [
        "Hammar",
        "by"
      ],
      [
        "I",
        "I"
      ],
      [
        "I",
        "T"
      ],
      [
        "IA",
        "2008"
      ],
      [
        "IEM",
        "BRE"
      ],
      [
        "IL",
        "LO"
      ],
      [
        "IS",
        "TO"
      ],
      [
        "IT",
        "AR"
      ],
      [
        "J",
        "A"
      ],
      [
        "J",
        "AVIER"
      ],
      [
        "J",
        "E"
      ],
      [
        "J",
        "U"
      ],
      [
        "K",
        "E"
      ],
      [
        "K",
        "I"
      ],
      [
        "K",
        "a"
      ],
      [
        "L",
        "AL0"
      ],
      [
        "L",
        "ARG"
      ],
      [
        "LE",
        "O"
      ],
      [
        "LU",
        "CIA"
      ],
      [
        "M",
        "F"
      ],
      [
        "M",
        "IS"
      ],
      [
        "M",
        "a"
      ],
      [
        "M",
        "ar"
      ],
      [
        "M",
        "el"
      ],
      [
        "M",
        "v"
      ],
      [
        "MA",
        "ti"
      ],
      [
        "MA16",
        "RO26"
      ],
      [
        "MAti",
        "CO@_32"
      ],
      [
        "MI",
        "EN"
      ],
      [
        "MO",
        "N"
      ],
      [
        "MON",
        "T"
      ],
      [
        "MONT",
        "RE"
      ],
      [
        "N",
        "C"
      ],
      [
        "N",
        "RL"
      ],
      [
        "NA",
        "M"
      ],
      [
        "NRL",
        "290987"
      ],
      [
        "O",
        "U"
      ],
      [
        "P",
        "P"
      ],
      [
        "P",
        "U"
      ],
      [
        "PAL",
        "ENCIA"
      ],
      [
        "PRINCES",
        "A"
      ],
      [
        "Q",
        "MF"
      ],
      [
        "QU",
        "E"
      ],
      [
        "R",
        "o"
      ],
      [
        "S",
        "I"
      ],
      [
        "S",
        "IL"
      ],
      [
        "S",
        "U"
      ],
      [
        "SO",
        "Y"
      ],
      [
        "T",
        "ER"
      ],
      [
        "T",
        "IA"
      ],
      [
        "T",
        "Y"
      ],
      [
        "T",
        "i"
      ],
      [
        "TE",
        "QUIERO"
      ],
      [
        "U",
        "L"
      ],
      [
        "U",
        "RI"
      ],
      [
        "V",
        "ER"
      ],
      [
        "V",
        "IL"
      ],
      [
        "V",
        "ale"
      ],
      [
        "Y",
        "T"
      ],
      [
        "Z",
        "Z"
      ],
      [
        "Z",
        "ac"
      ],
      [
        "Zac",
        "Efron"
      ],
      [
        "\\'\\'",
        "\\'"
      ],
      [
        "_",
        "14"
      ],
      [
        "_",
        "4"
      ],
      [
        "_",
        "7"
      ],
      [
        "_",
        "eiser"
      ],
      [
        "_y_",
        "nanc"
      ],
      [
        "_y_nanc",
        "y_"
      ],
      [
        "_y_nancy_",
        "102"
      ],
      [
        "a",
        "0"
      ],
      [
        "a",
        "123"
      ],
      [
        "a",
        "18"
      ],
      [
        "a",
        "2007"
      ],
      [
        "a",
        "37"
      ],
      [
        "a",
        "ar"
      ],
      [
        "a",
        "at"
      ],
      [
        "a",
        "e"
      ],
      [
        "a",
        "er"
      ],
      [
        "a",
        "f"
      ],
      [
        "a",
        "ina"
      ],
      [
        "a",
        "itor"
      ],
      [
        "a",
        "ust"
      ],
      [
        "ab",
        "c"
      ],
      [
        "ab",
        "d"
      ],
      [
        "ab",
        "lan"
      ],
      [
        "ab",
        "le"
      ],
      [
        "ab",
        "og"
      ],
      [
        "ab",
        "or"
      ],
      [
        "ab",
        "u"
      ],
      [
        "abc",
        "d"
      ],
      [
        "abea",
        "ch"
      ],
      [
        "abil",
        "idad"
      ],
      [
        "ablan",
        "ca"
      ],
      [
        "abu",
        "co"
      ],
      [
        "abuco",
        "1956"
      ],
      [
        "ac",
        "ap"
      ],
      [
        "ac",
        "at"
      ],
      [
        "ac",
        "ola"
      ],
      [
        "acion",
        "es"
      ],
      [
        "ad",
        "ec"
      ],
      [
        "ad",
        "em"
      ],
      [
        "ad",
        "ey"
      ],
      [
        "ad",
        "ie"
      ],
      [
        "ad",
        "min"
      ],
      [
        "ad",
        "ol"
      ],
      [
        "ad",
        "ona"
      ],
      [
        "ad",
        "ra"
      ],
      [
        "ad",
        "re"
      ],
      [
        "ad",
        "u"
      ],
      [
        "adi",
        "ator"
      ],
      [
        "admin",
        "istracion"
      ],
      [
        "ag",
        "at"
      ],
      [
        "ag",
        "ay"
      ],
      [
        "ag",
        "na"
      ],
      [
        "ag",
        "ro"
      ],
      [
        "agay",
        "or"
      ],
      [
        "agu",
        "as"
      ],
      [
        "ah",
        "ara"
      ],
      [
        "ah",
        "id"
      ],
      [
        "ahr",
        "an"
      ],
      [
        "aj",
        "es"
      ],
      [
        "aj",
        "i"
      ],
      [
        "al",
        "ab"
      ],
      [
        "al",
        "be"
      ],
      [
        "al",
        "em"
      ],
      [
        "al",
        "ena"
      ],
      [
        "al",
        "est"
      ],
      [
        "al",
        "fon"
      ],
      [
        "al",
        "ia"
      ],
      [
        "al",
        "il"
      ],
      [
        "al",
        "inda"
      ],
      [
        "al",
        "iz"
      ],
      [
        "al",
        "ki"
      ],
      [
        "al",
        "le"
      ],
      [
        "al",
        "li"
      ],
      [
        "al",
        "ma"
      ],
      [
        "al",
        "mag"
      ],
      [
        "al",
        "to"
      ],
      [
        "al",
        "ys"
      ],
      [
        "albert",
        "ito"
      ],
      [
        "alc",
        "ant"
      ],
      [
        "alc",
        "atra"
      ],
      [
        "alcatra",
        "z"
      ],
      [
        "ald",
        "iv"
      ],
      [
        "ald",
        "u"
      ],
      [
        "alder",
        "ia"
      ],
      [
        "ale",
        "on"
      ],
      [
        "ale",
        "y"
      ],
      [
        "ale",
        "z"
      ],
      [
        "alejand",
        "ro"
      ],
      [
        "alen",
        "be"
      ],
      [
        "alex",
        "and"
      ],
      [
        "all",
        "ero"
      ],
      [
        "all",
        "ica"
      ],
      [
        "all",
        "y"
      ],
      [
        "alon",
        "ga"
      ],
      [
        "alu",
        "cia"
      ],
      [
        "alu",
        "k"
      ],
      [
        "aluk",
        "2"
      ],
      [
        "am",
        "ada"
      ],
      [
        "am",
        "adre"
      ],
      [
        "am",
        "aya"
      ],
      [
        "am",
        "ed"
      ],
      [
        "am",
        "el"
      ],
      [
        "am",
        "elo"
      ],
      [
        "am",
        "ino"
      ],
      [
        "am",
        "on"
      ],
      [
        "amar",
        "ia"
      ],
      [
        "amar",
        "ina"
      ],
      [
        "ame",
        "jor"
      ],
      [
        "amer",
        "88"
      ],
      [
        "amer",
        "ica"
      ],
      [
        "ami",
        "re"
      ],
      [
        "amil",
        "y"
      ],
      [
        "amire",
        "z"
      ],
      [
        "amo",
        "z"
      ],
      [
        "ams",
        "ter"
      ],
      [
        "ams",
        "ung"
      ],
      [
        "amster",
        "dam"
      ],
      [
        "an",
        "ada"
      ],
      [
        "an",
        "azer"
      ],
      [
        "an",
        "ic"
      ],
      [
        "an",
        "ie"
      ],
      [
        "an",
        "j"
      ],
      [
        "an",
        "on"
      ],
      [
        "an",
        "s"
      ],
      [
        "an",
        "to"
      ],
      [
        "an",
        "ueva"
      ],
      [
        "an",
        "y"
      ],
      [
        "an",
        "za"
      ],
      [
        "anazer",
        "im"
      ],
      [
        "anazerim",
        "ar"
      ],
      [
        "and",
        "alo"
      ],
      [
        "and",
        "e"
      ],
      [
        "and",
        "esa"
      ],
      [
        "and",
        "ez"
      ],
      [
        "and",
        "ia"
      ],
      [
        "and",
        "r"
      ],
      [
        "and",
        "re"
      ],
      [
        "and",
        "rea"
      ],
      [
        "ang",
        "ab"
      ],
      [
        "angel",
        "o"
      ],
      [
        "angel",
        "s"
      ],
      [
        "ani",
        "22"
      ],
      [
        "ant",
        "el"
      ],
      [
        "ant",
        "i"
      ],
      [
        "ant",
        "in"
      ],
      [
        "ant",
        "os"
      ],
      [
        "ap",
        "at"
      ],
      [
        "ap",
        "e"
      ],
      [
        "ap",
        "r"
      ],
      [
        "ar",
        "an"
      ],
      [
        "ar",
        "ch"
      ],
      [
        "ar",
        "co"
      ],
      [
        "ar",
        "ely"
      ],
      [
        "ar",
        "g"
      ],
      [
        "ar",
        "lin"
      ],
      [
        "ar",
        "ot"
      ],
      [
        "ar",
        "r"
      ],
      [
        "ar",
        "re"
      ],
      [
        "ar",
        "ry"
      ],
      [
        "ar",
        "te"
      ],
      [
        "ar",
        "th"
      ],
      [
        "ar",
        "y"
      ],
      [
        "arbol",
        "eda"
      ],
      [
        "arco",
        "iris"
      ],
      [
        "ard",
        "in"
      ],
      [
        "ardin",
        "ero"
      ],
      [
        "are",
        "alonga"
      ],
      [
        "arian",
        "ne"
      ],
      [
        "arl",
        "ie"
      ],
      [
        "aro",
        "a"
      ],
      [
        "arquit",
        "ec"
      ],
      [
        "arquit",
        "ect"
      ],
      [
        "arry",
        "pot"
      ],
      [
        "arth",
        "ur"
      ],
      [
        "artur",
        "ito"
      ],
      [
        "artur",
        "o"
      ],
      [
        "as",
        "16"
      ],
      [
        "as",
        "anueva"
      ],
      [
        "as",
        "eg"
      ],
      [
        "as",
        "ito"
      ],
      [
        "as",
        "m"
      ],
      [
        "as",
        "ma"
      ],
      [
        "as",
        "o"
      ],
      [
        "as",
        "on"
      ],
      [
        "as",
        "r"
      ],
      [
        "as",
        "te"
      ],
      [
        "as",
        "y"
      ],
      [
        "aseg",
        "ura"
      ],
      [
        "ass",
        "w"
      ],
      [
        "assw",
        "ord"
      ],
      [
        "ast",
        "ur"
      ],
      [
        "asti",
        "que"
      ],
      [
        "asy",
        "yo"
      ],
      [
        "at",
        ".madrid"
      ],
      [
        "at",
        "han"
      ],
      [
        "au",
        "di"
      ],
      [
        "audrey",
        "26"
      ],
      [
        "aurel",
        "io"
      ],
      [
        "aust",
        "in"
      ],
      [
        "av",
        "anz"
      ],
      [
        "av",
        "e"
      ],
      [
        "av",
        "efenix"
      ],
      [
        "av",
        "er"
      ],
      [
        "av",
        "ez"
      ],
      [
        "av",
        "ida"
      ],
      [
        "av",
        "ito"
      ],
      [
        "ax",
        "l"
      ],
      [
        "ay",
        "ariel"
      ],
      [
        "ay",
        "gar"
      ],
      [
        "ay",
        "pap"
      ],
      [
        "aygar",
        "u"
      ],
      [
        "ayle",
        "enl"
      ],
      [
        "ayleenl",
        "oy"
      ],
      [
        "az",
        "ar"
      ],
      [
        "az",
        "orel"
      ],
      [
        "az",
        "qu"
      ],
      [
        "azer",
        "ty"
      ],
      [
        "azqu",
        "ez"
      ],
      [
        "b",
        "-"
      ],
      [
        "b",
        "3"
      ],
      [
        "b",
        "82"
      ],
      [
        "b",
        "aj"
      ],
      [
        "b",
        "am"
      ],
      [
        "b",
        "ash"
      ],
      [
        "b",
        "d"
      ],
      [
        "b",
        "ed"
      ],
      [
        "b",
        "es"
      ],
      [
        "b",
        "ess"
      ],
      [
        "b",
        "id"
      ],
      [
        "b",
        "ill"
      ],
      [
        "b",
        "lu"
      ],
      [
        "b",
        "ona"
      ],
      [
        "b",
        "orn"
      ],
      [
        "b",
        "ot"
      ],
      [
        "b",
        "ro"
      ],
      [
        "ba",
        "il"
      ],
      [
        "ba",
        "o"
      ],
      [
        "ba",
        "x"
      ],
      [
        "bab",
        "a123"
      ],
      [
        "balon",
        "ces"
      ],
      [
        "balonces",
        "to"
      ],
      [
        "bar",
        "bac"
      ],
      [
        "bar",
        "by"
      ],
      [
        "bar",
        "u"
      ],
      [
        "bast",
        "ian"
      ],
      [
        "bbbb",
        "bbbb"
      ],
      [
        "be",
        "bo"
      ],
      [
        "be",
        "ca"
      ],
      [
        "be",
        "cer"
      ],
      [
        "be",
        "ck"
      ],
      [
        "be",
        "cor"
      ],
      [
        "be",
        "k"
      ],
      [
        "bel",
        "d"
      ],
      [
        "ben",
        "ed"
      ],
      [
        "ben",
        "ito"
      ],
      [
        "bened",
        "etti"
      ],
      [
        "ber",
        "o"
      ],
      [
        "ber",
        "ton"
      ],
      [
        "bern",
        "ie"
      ],
      [
        "berton",
        "et"
      ],
      [
        "bertonet",
        "ur"
      ],
      [
        "bertonetur",
        "bo"
      ],
      [
        "bet",
        "or"
      ],
      [
        "bi",
        "bek"
      ],
      [
        "bi",
        "bian"
      ],
      [
        "bi",
        "p"
      ],
      [
        "bian",
        "ca"
      ],
      [
        "bin",
        "od"
      ],
      [
        "bl",
        "an"
      ],
      [
        "bl",
        "ess"
      ],
      [
        "bl",
        "ing"
      ],
      [
        "bl",
        "ink"
      ],
      [
        "blanc",
        "anie"
      ],
      [
        "blink",
        "182"
      ],
      [
        "bo",
        "b"
      ],
      [
        "bo",
        "bb"
      ],
      [
        "bom",
        "bon"
      ],
      [
        "bon",
        "d"
      ],
      [
        "bon",
        "ita"
      ],
      [
        "br",
        "end"
      ],
      [
        "br",
        "il"
      ],
      [
        "br",
        "ito"
      ],
      [
        "br",
        "os"
      ],
      [
        "br",
        "u"
      ],
      [
        "bra",
        "il"
      ],
      [
        "bra",
        "v"
      ],
      [
        "bra",
        "z"
      ],
      [
        "brav",
        "o"
      ],
      [
        "braz",
        "il"
      ],
      [
        "brazil",
        "ian"
      ],
      [
        "brazilian",
        "flow"
      ],
      [
        "bri",
        "an"
      ],
      [
        "bri",
        "g"
      ],
      [
        "bu",
        "ena"
      ],
      [
        "bur",
        "bu"
      ],
      [
        "c",
        "ador"
      ],
      [
        "c",
        "anc"
      ],
      [
        "c",
        "ate"
      ],
      [
        "c",
        "ay"
      ],
      [
        "c",
        "ena"
      ],
      [
        "c",
        "ielo"
      ],
      [
        "c",
        "illo"
      ],
      [
        "c",
        "ion"
      ],
      [
        "c",
        "j"
      ],
      [
        "c",
        "ky"
      ],
      [
        "c",
        "leop"
      ],
      [
        "c",
        "ro"
      ],
      [
        "c",
        "ron"
      ],
      [
        "c",
        "um"
      ],
      [
        "c",
        "ur"
      ],
      [
        "c",
        "v"
      ],
      [
        "c",
        "x"
      ],
      [
        "ca",
        "-"
      ],
      [
        "ca",
        "cho"
      ],
      [
        "cach",
[...]
