{
  "version": "1.0",
  "truncation": null,
  "padding": null,
  "added_tokens": [],
  "normalizer": null,
  "pre_tokenizer": null,
  "post_processor": null,
  "decoder": null,
  "model": {
    "type": "BPE",
    "dropout": null,
    "unk_token": "<unk>",
    "continuing_subword_prefix": null,
    "end_of_word_suffix": null,
    "fuse_unk": false,
    "byte_fallback": false,
    "ignore_merges": false,
    "vocab": {
      "<pad>": 0,
      "<unk>": 1,
      "<bos>": 2,
      "<eos>": 3,
      "!": 4,
      "!!": 5,
      "!@": 6,
      "!@#": 7,
      "\"": 8,
      "#": 9,
      "#1": 10,
      "$": 11,
      "$$": 12,
      "%": 13,
      "&": 14,
      "'": 15,
      "(": 16,
      ")": 17,
      "*": 18,
      "**": 19,
      "****": 20,
      "+": 21,
      ",": 22,
      "-": 23,
      "--": 24,
      "-1": 25,
      ".": 26,
      "..": 27,
      ".com": 28,
      ".net": 29,
      "/": 30,
      "0": 31,
      "00": 32,
      "000": 33,
      "0000": 34,
      "0001": 35,
      "001": 36,
      "002": 37,
      "003": 38,
      "004": 39,
      "005": 40,
      "006": 41,
      "007": 42,
      "008": 43,
      "009": 44,
      "00d": 45,
      "00l": 46,
      "00t": 47,
      "01": 48,
      "010": 49,
      "0101": 50,
      "0103": 51,
      "011": 52,
      "012": 53,
      "0123": 54,
      "013": 55,
      "014": 56,
      "015": 57,
      "016": 58,
      "018": 59,
      "019": 60,
      "02": 61,
      "020": 62,
      "0210": 63,
      "022": 64,
      "023": 65,
      "024": 66,
      "025": 67,
      "028": 68,
      "029": 69,
      "03": 70,
      "0303": 71,
      "033": 72,
      "04": 73,
      "040": 74,
      "0405": 75,
      "041": 76,
      "044": 77,
      "047": 78,
      "049": 79,
      "05": 80,
      "050": 81,
      "0505": 82,
      "053": 83,
      "055": 84,
      "056": 85,
      "057": 86,
      "059": 87,
      "06": 88,
      "066": 89,
      "068": 90,
      "069": 91,
      "07": 92,
      "070": 93,
      "074": 94,
      "077": 95,
      "078": 96,
      "079": 97,
      "08": 98,
      "0815": 99,
      "083": 100,
      "086": 101,
      "087": 102,
      "088": 103,
      "089": 104,
      "09": 105,
      "0909": 106,
      "0912": 107,
      "095": 108,
      "096": 109,
      "097": 110,
      "098": 111,
      "099": 112,
      "0b": 113,
      "0c": 114,
      "0e": 115,
      "0g": 116,
      "0l": 117,
      "0m": 118,
      "0n": 119,
      "0o": 120,
      "0p": 121,
      "0r": 122,
      "0rd": 123,
      "0t": 124,
      "0w": 125,
      "0x": 126,
      "1": 127,
      "10": 128,
      "100": 129,
      "1000": 130,
      "1001": 131,
      "1003": 132,
      "1005": 133,
      "1009": 134,
      "101": 135,
      "1010": 136,
      "1011": 137,
      "1012": 138,
      "1015": 139,
      "102": 140,
      "1020": 141,
      "1023": 142,
      "1024": 143,
      "1025": 144,
      "1029": 145,
      "103": 146,
      "104": 147,
      "105": 148,
      "106": 149,
      "1066": 150,
      "107": 151,
      "108": 152,
      "109": 153,
      "11": 154,
      "110": 155,
      "1100": 156,
      "1101": 157,
      "1103": 158,
      "1105": 159,
      "1106": 160,
      "1107": 161,
      "1108": 162,
      "111": 163,
      "1111": 164,
      "1112": 165,
      "112": 166,
      "1122": 167,
      "1123": 168,
      "113": 169,
      "114": 170,
      "115": 171,
      "1155": 172,
      "116": 173,
      "117": 174,
      "118": 175,
      "12": 176,
      "120": 177,
      "1200": 178,
      "1202": 179,
      "1203": 180,
      "1204": 181,
      "1205": 182,
      "1206": 183,
      "1209": 184,
      "121": 185,
      "1210": 186,
      "1211": 187,
      "1212": 188,
      "1214": 189,
      "1216": 190,
      "122": 191,
      "1221": 192,
      "1223": 193,
      "1224": 194,
      "1225": 195,
      "1229": 196,
      "123": 197,
      "123123": 198,
      "1234": 199,
      "12345": 200,
      "123456": 201,
      "1234567": 202,
      "12345678": 203,
      "123456789": 204,
      "124": 205,
      "125": 206,
      "126": 207,
      "127": 208,
      "128": 209,
      "129": 210,
      "13": 211,
      "130": 212,
      "1303": 213,
      "131": 214,
      "1313": 215,
      "1314": 216,
      "132": 217,
      "133": 218,
      "1337": 219,
      "134": 220,
      "1346": 221,
      "135": 222,
      "1357": 223,
      "13579": 224,
      "136": 225,
      "137": 226,
      "1379": 227,
      "138": 228,
      "139": 229,
      "14": 230,
      "142": 231,
      "143": 232,
      "144": 233,
      "145": 234,
      "146": 235,
      "147": 236,
      "148": 237,
      "149": 238,
      "15": 239,
      "150": 240,
      "151": 241,
      "153": 242,
      "154": 243,
      "155": 244,
      "156": 245,
      "157": 246,
      "158": 247,
      "159": 248,
      "16": 249,
      "1604": 250,
      "1608": 251,
      "161": 252,
      "162": 253,
      "163": 254,
      "166": 255,
      "167": 256,
      "168": 257,
      "169": 258,
      "17": 259,
      "1701": 260,
      "171": 261,
      "1712": 262,
      "172": 263,
      "173": 264,
      "174": 265,
      "175": 266,
      "176": 267,
      "177": 268,
      "179": 269,
      "18": 270,
      "180": 271,
      "1800": 272,
      "1803": 273,
      "181": 274,
      "1812": 275,
      "182": 276,
      "183": 277,
      "184": 278,
      "185": 279,
      "186": 280,
      "187": 281,
      "188": 282,
      "189": 283,
      "19": 284,
      "190": 285,
      "1903": 286,
      "1905": 287,
      "191": 288,
      "1910": 289,
      "192": 290,
      "193": 291,
      "194": 292,
      "1949": 293,
      "195": 294,
      "1953": 295,
      "1954": 296,
      "1955": 297,
      "1956": 298,
      "1957": 299,
      "1958": 300,
      "1959": 301,
      "196": 302,
      "1961": 303,
      "1962": 304,
      "1963": 305,
      "1964": 306,
      "1965": 307,
      "1966": 308,
      "1967": 309,
      "1968": 310,
      "1969": 311,
      "197": 312,
      "1970": 313,
      "1971": 314,
      "1972": 315,
      "1973": 316,
      "1974": 317,
      "1975": 318,
      "1976": 319,
      "1977": 320,
      "1978": 321,
      "1979": 322,
      "198": 323,
      "1980": 324,
      "1981": 325,
      "1982": 326,
      "1983": 327,
      "1984": 328,
      "1985": 329,
      "1986": 330,
      "1987": 331,
      "1988": 332,
      "1989": 333,
      "199": 334,
      "1990": 335,
      "1991": 336,
      "1992": 337,
      "1993": 338,
      "1994": 339,
      "1995": 340,
      "1996": 341,
      "1997": 342,
      "1998": 343,
      "1999": 344,
      "1A": 345,
      "1C": 346,
      "1F": 347,
      "1G": 348,
      "1J": 349,
      "1L": 350,
      "1Q": 351,
      "1V": 352,
      "1W": 353,
      "1a": 354,
      "1b": 355,
      "1c": 356,
      "1d": 357,
      "1k": 358,
      "1m": 359,
      "1n": 360,
      "1ng": 361,
      "1s": 362,
      "1st": 363,
      "1t": 364,
      "2": 365,
      "20": 366,
      "200": 367,
      "2000": 368,
      "2001": 369,
      "2002": 370,
      "2003": 371,
      "2004": 372,
      "2005": 373,
      "2006": 374,
      "2007": 375,
      "2008": 376,
      "201": 377,
      "2010": 378,
      "2012": 379,
      "202": 380,
      "2020": 381,
      "203": 382,
      "204": 383,
      "205": 384,
      "206": 385,
      "207": 386,
      "208": 387,
      "209": 388,
      "21": 389,
      "210": 390,
      "2100": 391,
      "211": 392,
      "2112": 393,
      "212": 394,
      "213": 395,
      "214": 396,
      "215": 397,
      "216": 398,
      "218": 399,
      "219": 400,
      "22": 401,
      "220": 402,
      "2203": 403,
      "221": 404,
      "2210": 405,
      "2212": 406,
      "222": 407,
      "2222": 408,
      "223": 409,
      "224": 410,
      "225": 411,
      "226": 412,
      "227": 413,
      "228": 414,
      "229": 415,
      "23": 416,
      "230": 417,
      "2305": 418,
      "231": 419,
      "232": 420,
      "2323": 421,
      "233": 422,
      "234": 423,
      "2345": 424,
      "235": 425,
      "236": 426,
      "237": 427,
      "238": 428,
      "239": 429,
      "24": 430,
      "240": 431,
      "242": 432,
      "2424": 433,
      "243": 434,
      "244": 435,
      "245": 436,
      "246": 437,
      "2468": 438,
      "247": 439,
      "248": 440,
      "249": 441,
      "25": 442,
      "250": 443,
      "2503": 444,
      "251": 445,
      "2525": 446,
      "253": 447,
      "254": 448,
      "255": 449,
      "256": 450,
      "258": 451,
      "259": 452,
      "26": 453,
      "263": 454,
      "264": 455,
      "265": 456,
      "266": 457,
      "268": 458,
      "269": 459,
      "27": 460,
      "271": 461,
      "273": 462,
      "275": 463,
      "276": 464,
      "277": 465,
      "279": 466,
      "28": 467,
      "280": 468,
      "283": 469,
      "284": 470,
      "287": 471,
      "288": 472,
      "289": 473,
      "29": 474,
      "294": 475,
      "296": 476,
      "297": 477,
      "298": 478,
      "299": 479,
      "2B": 480,
      "2E": 481,
      "2F": 482,
      "2G": 483,
      "2K": 484,
      "2P": 485,
      "2U": 486,
      "2V": 487,
      "2Y": 488,
      "2a": 489,
      "2b": 490,
      "2e": 491,
      "2f": 492,
      "2j": 493,
      "2k": 494,
      "2n": 495,
      "2p": 496,
      "2phpbb": 497,
      "2t": 498,
      "2u": 499,
      "2y": 500,
      "3": 501,
      "30": 502,
      "300": 503,
      "3000": 504,
      "303": 505,
      "305": 506,
      "306": 507,
      "31": 508,
      "310": 509,
      "311": 510,
      "312": 511,
      "313": 512,
      "314": 513,
      "315": 514,
      "316": 515,
      "32": 516,
      "321": 517,
      "322": 518,
      "323": 519,
      "328": 520,
      "33": 521,
      "331": 522,
      "332": 523,
      "333": 524,
      "3333": 525,
      "335": 526,
      "336": 527,
      "337": 528,
      "338": 529,
      "339": 530,
      "34": 531,
      "343": 532,
      "345": 533,
      "346": 534,
      "35": 535,
      "350": 536,
      "355": 537,
      "357": 538,
      "36": 539,
      "360": 540,
      "363": 541,
      "365": 542,
      "369": 543,
      "37": 544,
      "38": 545,
      "389": 546,
      "39": 547,
      "394": 548,
      "395": 549,
      "399": 550,
      "3C": 551,
      "3F": 552,
      "3G": 553,
      "3K": 554,
      "3P": 555,
      "3Y": 556,
      "3Z": 557,
      "3a": 558,
      "3d": 559,
      "3e": 560,
      "3f": 561,
      "3l": 562,
      "3m": 563,
      "3n": 564,
      "3r": 565,
      "3s": 566,
      "3t": 567,
      "3x": 568,
      "3y": 569,
      "3z": 570,
      "4": 571,
      "40": 572,
      "400": 573,
      "404": 574,
      "41": 575,
      "411": 576,
      "412": 577,
      "413": 578,
      "414": 579,
      "415": 580,
      "416": 581,
      "42": 582,
      "420": 583,
      "426": 584,
      "427": 585,
      "429": 586,
      "43": 587,
      "432": 588,
      "4321": 589,
      "435": 590,
      "436": 591,
      "439": 592,
      "44": 593,
      "443": 594,
      "444": 595,
      "4444": 596,
      "446": 597,
      "448": 598,
      "45": 599,
      "450": 600,
      "452": 601,
      "453": 602,
      "454": 603,
      "455": 604,
      "456": 605,
      "457": 606,
      "458": 607,
      "459": 608,
      "46": 609,
      "468": 610,
      "469": 611,
      "47": 612,
      "48": 613,
      "483": 614,
      "485": 615,
      "486": 616,
      "487": 617,
      "489": 618,
      "49": 619,
      "4E": 620,
      "4G": 621,
      "4K": 622,
      "4L": 623,
      "4T": 624,
      "4U": 625,
      "4all": 626,
      "4d": 627,
      "4e": 628,
      "4eva": 629,
      "4ever": 630,
      "4f": 631,
      "4l": 632,
      "4life": 633,
      "4m": 634,
      "4me": 635,
      "4n": 636,
      "4phpbb": 637,
      "4r": 638,
      "4t": 639,
      "4u": 640,
      "4v": 641,
      "4you": 642,
      "5": 643,
      "50": 644,
      "500": 645,
      "505": 646,
      "51": 647,
      "510": 648,
      "512": 649,
      "514": 650,
      "516": 651,
      "52": 652,
      "520": 653,
      "523": 654,
      "53": 655,
      "535": 656,
      "54": 657,
      "543": 658,
      "549": 659,
      "55": 660,
      "555": 661,
      "5555": 662,
      "556": 663,
      "558": 664,
      "56": 665,
      "563": 666,
      "564": 667,
      "568": 668,
      "569": 669,
      "57": 670,
      "58": 671,
      "584": 672,
      "586": 673,
      "59": 674,
      "597": 675,
      "5F": 676,
      "5W": 677,
      "5Z": 678,
      "5n": 679,
      "5t": 680,
      "5y": 681,
      "6": 682,
      "60": 683,
      "600": 684,
      "61": 685,
      "612": 686,
      "62": 687,
      "623": 688,
      "628": 689,
      "63": 690,
      "633": 691,
      "636": 692,
      "64": 693,
      "646": 694,
      "649": 695,
      "65": 696,
      "653": 697,
      "654": 698,
      "655": 699,
      "656": 700,
      "66": 701,
      "663": 702,
      "664": 703,
      "665": 704,
      "666": 705,
      "6666": 706,
      "667": 707,
      "668": 708,
      "669": 709,
      "67": 710,
      "678": 711,
      "68": 712,
      "681": 713,
      "689": 714,
      "69": 715,
      "6969": 716,
      "698": 717,
      "6U": 718,
      "6b": 719,
      "6c": 720,
      "6d": 721,
      "6e": 722,
      "7": 723,
      "70": 724,
      "700": 725,
      "706": 726,
      "708": 727,
      "71": 728,
      "711": 729,
      "714": 730,
      "72": 731,
      "723": 732,
      "73": 733,
      "737": 734,
      "74": 735,
      "741": 736,
      "747": 737,
      "748": 738,
      "749": 739,
      "75": 740,
      "750": 741,
      "753": 742,
      "757": 743,
      "758": 744,
      "759": 745,
      "76": 746,
      "765": 747,
      "767": 748,
      "77": 749,
      "772": 750,
      "773": 751,
      "774": 752,
      "775": 753,
      "777": 754,
      "7777": 755,
      "778": 756,
      "779": 757,
      "78": 758,
      "780": 759,
      "783": 760,
      "784": 761,
      "785": 762,
      "786": 763,
      "787": 764,
      "789": 765,
      "78963": 766,
      "79": 767,
      "793": 768,
      "795": 769,
      "798": 770,
      "7a": 771,
      "7b": 772,
      "7e": 773,
      "8": 774,
      "80": 775,
      "81": 776,
      "812": 777,
      "82": 778,
      "820": 779,
      "83": 780,
      "837": 781,
      "84": 782,
      "85": 783,
      "852": 784,
      "859": 785,
      "86": 786,
      "87": 787,
      "879": 788,
      "88": 789,
      "882": 790,
      "884": 791,
      "887": 792,
      "888": 793,
      "8888": 794,
      "889": 795,
      "89": 796,
      "8b": 797,
      "8r": 798,
      "9": 799,
      "90": 800,
      "900": 801,
      "904": 802,
      "909": 803,
      "91": 804,
      "911": 805,
      "912": 806,
      "92": 807,
      "922": 808,
      "928": 809,
      "93": 810,
      "94": 811,
      "95": 812,
      "96": 813,
      "963": 814,
      "97": 815,
      "979": 816,
      "98": 817,
      "985": 818,
      "986": 819,
      "987": 820,
      "989": 821,
      "99": 822,
      "990": 823,
      "991": 824,
      "994": 825,
      "995": 826,
      "997": 827,
      "998": 828,
      "999": 829,
      "9999": 830,
      "9b": 831,
      ":": 832,
      ";": 833,
      "<": 834,
      "=": 835,
      ">": 836,
      "?": 837,
      "??": 838,
      "@": 839,
      "@phpbb": 840,
      "A": 841,
      "A1": 842,
      "AA": 843,
      "AB": 844,
      "AC": 845,
      "AD": 846,
      "AF": 847,
      "AG": 848,
      "AH": 849,
      "AI": 850,
      "AJ": 851,
      "AK": 852,
      "AL": 853,
      "ALL": 854,
      "AM": 855,
      "AN": 856,
      "AND": 857,
      "ANG": 858,
      "AO": 859,
      "AP": 860,
      "AQ": 861,
      "AR": 862,
      "AS": 863,
      "AT": 864,
      "AU": 865,
      "AV": 866,
      "AW": 867,
      "AX": 868,
      "AY": 869,
      "AZ": 870,
      "Ad": 871,
      "Al": 872,
      "An": 873,
      "Ap": 874,
      "Ar": 875,
      "B": 876,
      "BB": 877,
      "BE": 878,
      "BJ": 879,
      "BK": 880,
      "BL": 881,
      "BO": 882,
      "BR": 883,
      "BU": 884,
      "BY": 885,
      "BZ": 886,
      "Be": 887,
      "Bla": 888,
      "Black": 889,
      "Bo": 890,
      "C": 891,
      "C5": 892,
      "CB": 893,
      "CD": 894,
      "CE": 895,
      "CF": 896,
      "CH": 897,
      "CK": 898,
      "CO": 899,
      "CR": 900,
      "CY": 901,
      "Car": 902,
      "Ch": 903,
      "Co": 904,
      "Com": 905,
      "D": 906,
      "D3": 907,
      "DD": 908,
      "DE": 909,
      "DH": 910,
      "DI": 911,
      "DJ": 912,
      "DK": 913,
      "DO": 914,
      "DR": 915,
      "DU": 916,
      "DY": 917,
      "DZ": 918,
      "De": 919,
      "Di": 920,
      "Do": 921,
      "Dragon": 922,
      "E": 923,
      "E8": 924,
      "EB": 925,
      "ED": 926,
      "EE": 927,
      "EL": 928,
      "EM": 929,
      "EN": 930,
      "EP": 931,
      "ER": 932,
      "ES": 933,
      "ET": 934,
      "EX": 935,
      "En": 936,
      "F": 937,
      "FC": 938,
      "FE": 939,
      "FF": 940,
      "FL": 941,
      "FS": 942,
      "FV": 943,
      "Fi": 944,
      "For": 945,
      "G": 946,
      "GF": 947,
      "GG": 948,
      "GL": 949,
      "GO": 950,
      "GU": 951,
      "Ge": 952,
      "Gu": 953,
      "H": 954,
      "H0": 955,
      "HB": 956,
      "HE": 957,
      "HH": 958,
      "HN": 959,
      "HO": 960,
      "HQ": 961,
      "HT": 962,
      "HU": 963,
      "HY": 964,
      "He": 965,
      "I": 966,
      "IC": 967,
      "ICK": 968,
      "ID": 969,
      "IE": 970,
      "IG": 971,
      "IH": 972,
      "II": 973,
      "IJ": 974,
      "IK": 975,
      "IL": 976,
      "ILL": 977,
      "IM": 978,
      "IN": 979,
      "INE": 980,
      "ING": 981,
      "IO": 982,
      "IR": 983,
      "IS": 984,
      "IT": 985,
      "IU": 986,
      "IV": 987,
      "IX": 988,
      "IY": 989,
      "In": 990,
      "It": 991,
      "J": 992,
      "JB": 993,
      "JG": 994,
      "JL": 995,
      "JO": 996,
      "JR": 997,
      "JV": 998,
      "JX": 999,
      "Je": 1000,
      "Jo": 1001,
      "Ju": 1002,
      "K": 1003,
      "KD": 1004,
      "KS": 1005,
      "L": 1006,
      "L9": 1007,
      "LE": 1008,
      "LI": 1009,
      "LL": 1010,
      "LO": 1011,
      "LU": 1012,
      "LV": 1013,
      "La": 1014,
      "Le": 1015,
      "Lu": 1016,
      "M": 1017,
      "M3": 1018,
      "M5": 1019,
      "MA": 1020,
      "MAN": 1021,
      "MAR": 1022,
      "MB": 1023,
      "MC": 1024,
      "ME": 1025,
      "MI": 1026,
      "MJ": 1027,
      "MM": 1028,
      "MO": 1029,
      "MS": 1030,
      "MX": 1031,
      "MY": 1032,
      "Ma": 1033,
      "Man": 1034,
      "Mar": 1035,
      "Me": 1036,
      "Mo": 1037,
      "My": 1038,
      "N": 1039,
      "N1": 1040,
      "N9": 1041,
      "NC": 1042,
      "NE": 1043,
      "NH": 1044,
      "NI": 1045,
      "NK": 1046,
      "NN": 1047,
      "NO": 1048,
      "NS": 1049,
      "NU": 1050,
      "Ne": 1051,
      "No": 1052,
      "O": 1053,
      "OD": 1054,
      "OK": 1055,
      "OL": 1056,
      "ON": 1057,
      "OR": 1058,
      "OS": 1059,
      "OT": 1060,
      "OU": 1061,
      "P": 1062,
      "P3": 1063,
      "PAS": 1064,
      "PB": 1065,
      "PC": 1066,
      "PD": 1067,
      "PER": 1068,
      "PH": 1069,
      "PHP": 1070,
      "PHPBB": 1071,
      "PP": 1072,
      "PU": 1073,
      "PX": 1074,
      "Pa": 1075,
      "Pass": 1076,
      "Password": 1077,
      "Pe": 1078,
      "Pr": 1079,
      "Q": 1080,
      "Q9": 1081,
      "QC": 1082,
      "QF": 1083,
      "QL": 1084,
      "QQ": 1085,
      "QU": 1086,
      "QW": 1087,
      "R": 1088,
      "R1": 1089,
      "R4": 1090,
      "RE": 1091,
      "RF": 1092,
      "RG": 1093,
      "RI": 1094,
      "RK": 1095,
      "RO": 1096,
      "RT": 1097,
      "RU": 1098,
      "RY": 1099,
      "Ra": 1100,
      "Re": 1101,
      "Ri": 1102,
      "Ro": 1103,
      "S": 1104,
      "SB": 1105,
      "SC": 1106,
      "SE": 1107,
      "SH": 1108,
      "SK": 1109,
      "SL": 1110,
      "SM": 1111,
      "SP": 1112,
      "SS": 1113,
      "ST": 1114,
      "SU": 1115,
      "SW": 1116,
      "SX": 1117,
      "SZ": 1118,
      "Se": 1119,
      "Sh": 1120,
      "Sil": 1121,
      "Sim": 1122,
      "So": 1123,
      "Sp": 1124,
      "St": 1125,
      "T": 1126,
      "TC": 1127,
      "TE": 1128,
      "TER": 1129,
      "TG": 1130,
      "TH": 1131,
      "TK": 1132,
      "TO": 1133,
      "TR": 1134,
      "TS": 1135,
      "TT": 1136,
      "TU": 1137,
      "TV": 1138,
      "TW": 1139,
      "Th": 1140,
      "The": 1141,
      "To": 1142,
      "U": 1143,
      "U7": 1144,
      "UF": 1145,
      "UK": 1146,
      "UZ": 1147,
      "Un": 1148,
      "V": 1149,
      "VE": 1150,
      "VER": 1151,
      "W": 1152,
      "WC": 1153,
      "WK": 1154,
      "WN": 1155,
      "WW": 1156,
      "X": 1157,
      "X8": 1158,
      "XC": 1159,
      "XI": 1160,
      "XL": 1161,
      "XR": 1162,
      "XV": 1163,
      "XX": 1164,
      "Y": 1165,
      "YF": 1166,
      "YO": 1167,
      "Z": 1168,
      "ZZ": 1169,
      "[": 1170,
      "\\": 1171,
      "\\\\": 1172,
      "]": 1173,
      "^": 1174,
      "_": 1175,
      "__": 1176,
      "`": 1177,
      "a": 1178,
      "a0": 1179,
      "a1": 1180,
      "a10": 1181,
      "a11": 1182,
      "a123": 1183,
      "a2": 1184,
      "a3": 1185,
      "a4": 1186,
      "a5": 1187,
      "a6": 1188,
      "a7": 1189,
      "a8": 1190,
      "a9": 1191,
      "aa": 1192,
      "aaaa": 1193,
      "aar": 1194,
      "ab": 1195,
      "aba": 1196,
      "abb": 1197,
      "abc": 1198,
      "abc123": 1199,
      "abcd": 1200,
      "abe": 1201,
      "able": 1202,
      "ablo": 1203,
      "aby": 1204,
      "ac": 1205,
      "aca": 1206,
      "acc": 1207,
      "access": 1208,
      "ace": 1209,
      "ach": 1210,
      "acid": 1211,
      "ack": 1212,
      "act": 1213,
      "ad": 1214,
      "ada": 1215,
      "adam": 1216,
      "add": 1217,
      "ade": 1218,
      "adel": 1219,
      "ader": 1220,
      "adi": 1221,
      "admin": 1222,
      "ado": 1223,
      "ador": 1224,
      "adow": 1225,
      "adri": 1226,
      "adrian": 1227,
      "adu": 1228,
      "ady": 1229,
      "ae": 1230,
      "af": 1231,
      "ag": 1232,
      "aga": 1233,
      "again": 1234,
      "age": 1235,
      "ager": 1236,
      "ages": 1237,
      "agle": 1238,
      "ago": 1239,
      "agu": 1240,
      "ah": 1241,
      "ai": 1242,
      "ail": 1243,
      "air": 1244,
      "ais": 1245,
      "aj": 1246,
      "aja": 1247,
      "ak": 1248,
      "aka": 1249,
      "ake": 1250,
      "aker": 1251,
      "aki": 1252,
      "ako": 1253,
      "al": 1254,
      "al1": 1255,
      "ala": 1256,
      "alan": 1257,
      "ald": 1258,
      "ale": 1259,
      "alex": 1260,
      "alf": 1261,
      "ali": 1262,
      "alie": 1263,
      "alin": 1264,
      "alis": 1265,
      "all": 1266,
      "alla": 1267,
      "alle": 1268,
      "allen": 1269,
      "alli": 1270,
      "ally": 1271,
      "alm": 1272,
      "alo": 1273,
      "alph": 1274,
      "alpha": 1275,
      "als": 1276,
      "alt": 1277,
      "am": 1278,
      "ama": 1279,
      "aman": 1280,
      "amar": 1281,
      "amber": 1282,
      "ame": 1283,
      "amer": 1284,
      "ames": 1285,
      "ami": 1286,
      "amig": 1287,
      "amo": 1288,
      "amor": 1289,
      "amp": 1290,
      "amy": 1291,
      "an": 1292,
      "an1": 1293,
      "ana": 1294,
      "anas": 1295,
      "ance": 1296,
      "and": 1297,
      "anda": 1298,
      "ander": 1299,
      "andre": 1300,
      "andrew": 1301,
      "andy": 1302,
      "ane": 1303,
      "ang": 1304,
      "ange": 1305,
      "angel": 1306,
      "anger": 1307,
      "ango": 1308,
      "ani": 1309,
      "anim": 1310,
      "anime": 1311,
      "ank": 1312,
      "ann": 1313,
      "anna": 1314,
      "anne": 1315,
      "anner": 1316,
      "annon": 1317,
      "ano": 1318,
      "ans": 1319,
      "ant": 1320,
      "anta": 1321,
      "ante": 1322,
      "anth": 1323,
      "anthony": 1324,
      "anti": 1325,
      "ants": 1326,
      "any": 1327,
      "ao": 1328,
      "ap": 1329,
      "apa": 1330,
      "ape": 1331,
      "apo": 1332,
      "app": 1333,
      "apple": 1334,
      "april": 1335,
      "aq": 1336,
      "aqu": 1337,
      "ar": 1338,
      "ar1": 1339,
      "ara": 1340,
      "arch": 1341,
      "ard": 1342,
      "ard1": 1343,
      "are": 1344,
      "ari": 1345,
      "arin": 1346,
      "aris": 1347,
      "ark": 1348,
      "arm": 1349,
      "army": 1350,
      "arn": 1351,
      "aro": 1352,
      "ars": 1353,
      "arsen": 1354,
      "art": 1355,
      "aru": 1356,
      "ary": 1357,
      "as": 1358,
      "asa": 1359,
      "asd": 1360,
      "asdf": 1361,
      "ase": 1362,
      "aser": 1363,
      "ash": 1364,
      "asha": 1365,
      "asi": 1366,
      "ask": 1367,
      "ass": 1368,
      "assh": 1369,
      "ast": 1370,
      "aster": 1371,
      "asy": 1372,
      "at": 1373,
      "ata": 1374,
      "ate": 1375,
      "ater": 1376,
      "ates": 1377,
      "ath": 1378,
      "athan": 1379,
      "ather": 1380,
      "athy": 1381,
      "ati": 1382,
      "atic": 1383,
      "ation": 1384,
      "ato": 1385,
      "ator": 1386,
      "atrix": 1387,
      "ats": 1388,
      "att": 1389,
      "au": 1390,
      "aug": 1391,
      "august": 1392,
      "aur": 1393,
      "austin": 1394,
      "aut": 1395,
      "av": 1396,
      "ave": 1397,
      "aven": 1398,
      "aver": 1399,
      "aw": 1400,
      "ax": 1401,
      "ay": 1402,
      "aya": 1403,
      "ays": 1404,
      "az": 1405,
      "azer": 1406,
      "azerty": 1407,
      "azz": 1408,
      "b": 1409,
      "b0": 1410,
      "b1": 1411,
      "b2": 1412,
      "b3": 1413,
      "b4": 1414,
      "b5": 1415,
      "b6": 1416,
      "b7": 1417,
      "b8": 1418,
      "b9": 1419,
      "ba": 1420,
      "bab": 1421,
      "baby": 1422,
      "bac": 1423,
      "back": 1424,
      "bad": 1425,
      "bag": 1426,
      "bai": 1427,
      "bak": 1428,
      "bal": 1429,
      "ball": 1430,
      "balls": 1431,
      "bam": 1432,
      "ban": 1433,
      "band": 1434,
      "bang": 1435,
      "bar": 1436,
      "bart": 1437,
      "bas": 1438,
      "bass": 1439,
      "bast": 1440,
      "bat": 1441,
      "battle": 1442,
      "bay": 1443,
      "bb": 1444,
      "bba": 1445,
      "bber": 1446,
      "bbie": 1447,
      "bbit": 1448,
      "bble": 1449,
      "bbs": 1450,
      "bby": 1451,
      "bc": 1452,
      "bd": 1453,
      "be": 1454,
      "bean": 1455,
      "bear": 1456,
      "beast": 1457,
      "beat": 1458,
      "beck": 1459,
      "bed": 1460,
      "bee": 1461,
      "beer": 1462,
      "bel": 1463,
      "bell": 1464,
      "ben": 1465,
      "ber": 1466,
      "berg": 1467,
      "berry": 1468,
      "bert": 1469,
      "bes": 1470,
      "best": 1471,
      "bet": 1472,
      "bf": 1473,
      "bg": 1474,
      "bh": 1475,
      "bi": 1476,
      "bid": 1477,
      "bie": 1478,
      "big": 1479,
      "bike": 1480,
      "bil": 1481,
      "bill": 1482,
      "billy": 1483,
      "bin": 1484,
      "bing": 1485,
      "bir": 1486,
      "bird": 1487,
      "bis": 1488,
      "bit": 1489,
      "bitch": 1490,
      "biz": 1491,
      "bj": 1492,
      "bl": 1493,
      "bla": 1494,
      "black": 1495,
      "blade": 1496,
      "blah": 1497,
      "ble": 1498,
      "bli": 1499,
      "blin": 1500,
      "blo": 1501,
      "blood": 1502,
      "blow": 1503,
      "blu": 1504,
      "blue": 1505,
      "blues": 1506,
      "bm": 1507,
      "bn": 1508,
      "bo": 1509,
      "board": 1510,
      "boat": 1511,
      "bob": 1512,
      "bobo": 1513,
      "body": 1514,
      "bog": 1515,
      "bol": 1516,
      "bom": 1517,
      "bon": 1518,
      "bone": 1519,
      "boo": 1520,
      "book": 1521,
      "bor": 1522,
      "borg": 1523,
      "born": 1524,
      "boss": 1525,
      "bot": 1526,
      "bott": 1527,
      "bow": 1528,
      "box": 1529,
      "boy": 1530,
      "bp": 1531,
      "br": 1532,
      "bra": 1533,
      "brad": 1534,
      "brain": 1535,
      "brand": 1536,
      "bre": 1537,
      "break": 1538,
      "bri": 1539,
      "brian": 1540,
      "brit": 1541,
      "bro": 1542,
      "bron": 1543,
      "brown": 1544,
      "bru": 1545,
      "bry": 1546,
      "bs": 1547,
      "bt": 1548,
      "bu": 1549,
      "bubb": 1550,
      "buck": 1551,
      "bud": 1552,
      "buddy": 1553,
      "bug": 1554,
      "bul": 1555,
      "bull": 1556,
      "bum": 1557,
      "bun": 1558,
      "bunny": 1559,
      "bur": 1560,
      "burg": 1561,
      "burn": 1562,
      "bury": 1563,
      "bus": 1564,
      "buster": 1565,
      "but": 1566,
      "butt": 1567,
      "butter": 1568,
      "bv": 1569,
      "bw": 1570,
      "bx": 1571,
      "by": 1572,
      "bz": 1573,
      "c": 1574,
      "c0": 1575,
      "c1": 1576,
      "c2": 1577,
      "c3": 1578,
      "c4": 1579,
      "c5": 1580,
      "c6": 1581,
      "c7": 1582,
      "c8": 1583,
      "c9": 1584,
      "ca": 1585,
      "cab": 1586,
      "cac": 1587,
      "cad": 1588,
      "cake": 1589,
      "cal": 1590,
      "cali": 1591,
      "call": 1592,
      "cam": 1593,
      "camaro": 1594,
      "camel": 1595,
      "can": 1596,
      "cand": 1597,
      "candy": 1598,
      "cant": 1599,
      "cap": 1600,
      "car": 1601,
      "card": 1602,
      "care": 1603,
      "carol": 1604,
      "cas": 1605,
      "cash": 1606,
      "cass": 1607,
      "cast": 1608,
      "cat": 1609,
      "cats": 1610,
      "cb": 1611,
      "cc": 1612,
      "ccer": 1613,
      "cd": 1614,
      "ce": 1615,
      "ced": 1616,
      "cel": 1617,
      "cell": 1618,
      "cen": 1619,
      "cent": 1620,
      "cer": 1621,
      "ces": 1622,
      "cf": 1623,
      "ch": 1624,
      "cha": 1625,
      "chair": 1626,
      "cham": 1627,
      "champ": 1628,
      "chan": 1629,
      "chaos": 1630,
      "char": 1631,
      "chat": 1632,
      "che": 1633,
      "cheese": 1634,
      "chel": 1635,
      "chem": 1636,
      "chen": 1637,
      "cher": 1638,
      "ches": 1639,
      "chester": 1640,
      "chi": 1641,
      "chicken": 1642,
      "chie": 1643,
      "chil": 1644,
      "chin": 1645,
      "chip": 1646,
      "cho": 1647,
      "chop": 1648,
      "chris": 1649,
      "christ": 1650,
      "cht": 1651,
      "chu": 1652,
      "ci": 1653,
      "cia": 1654,
      "cial": 1655,
      "cic": 1656,
      "cin": 1657,
      "cio": 1658,
      "cis": 1659,
      "cit": 1660,
      "city": 1661,
      "cj": 1662,
      "ck": 1663,
      "cken": 1664,
      "cker": 1665,
      "cket": 1666,
      "ckey": 1667,
      "cks": 1668,
      "cky": 1669,
      "cl": 1670,
      "cla": 1671,
      "clan": 1672,
      "class": 1673,
      "cle": 1674,
      "cli": 1675,
      "clo": 1676,
      "clu": 1677,
      "cm": 1678,
      "cn": 1679,
      "co": 1680,
      "cob": 1681,
      "cobra": 1682,
      "cock": 1683,
      "coco": 1684,
      "code": 1685,
      "coke": 1686,
      "col": 1687,
      "cold": 1688,
      "cole": 1689,
      "com": 1690,
      "come": 1691,
      "comp": 1692,
      "compaq": 1693,
      "computer": 1694,
      "con": 1695,
      "cook": 1696,
      "cookie": 1697,
      "cool": 1698,
      "cooper": 1699,
      "cop": 1700,
      "copper": 1701,
      "cor": 1702,
      "core": 1703,
      "corn": 1704,
      "cos": 1705,
      "count": 1706,
      "cow": 1707,
      "cp": 1708,
      "cq": 1709,
      "cr": 1710,
      "cra": 1711,
      "crack": 1712,
      "craft": 1713,
      "crap": 1714,
      "crash": 1715,
      "crazy": 1716,
      "cre": 1717,
      "creat": 1718,
      "cri": 1719,
      "cro": 1720,
      "cross": 1721,
      "cru": 1722,
      "cry": 1723,
      "cs": 1724,
      "ct": 1725,
      "ction": 1726,
      "ctor": 1727,
      "cu": 1728,
      "cub": 1729,
      "cul": 1730,
      "cum": 1731,
      "cup": 1732,
      "cur": 1733,
      "cure": 1734,
      "cus": 1735,
      "cut": 1736,
      "cv": 1737,
      "cw": 1738,
      "cx": 1739,
      "cy": 1740,
      "cyber": 1741,
      "cz": 1742,
      "d": 1743,
      "d0": 1744,
      "d1": 1745,
      "d2": 1746,
      "d3": 1747,
      "d4": 1748,
      "d5": 1749,
      "d6": 1750,
      "d7": 1751,
      "d8": 1752,
      "d9": 1753,
      "dB": 1754,
      "da": 1755,
      "dab": 1756,
      "dad": 1757,
      "daddy": 1758,
      "dag": 1759,
      "dak": 1760,
      "dal": 1761,
      "dale": 1762,
      "dam": 1763,
      "damn": 1764,
      "dan": 1765,
      "dani": 1766,
      "daniel": 1767,
      "dar": 1768,
      "dark": 1769,
      "dat": 1770,
      "dave": 1771,
      "david": 1772,
      "daw": 1773,
      "dawn": 1774,
      "day": 1775,
      "db": 1776,
      "dc": 1777,
      "dd": 1778,
      "de": 1779,
      "dead": 1780,
      "dean": 1781,
      "death": 1782,
      "dec": 1783,
      "ded": 1784,
      "dee": 1785,
      "deep": 1786,
      "def": 1787,
      "del": 1788,
      "dell": 1789,
      "delta": 1790,
      "dem": 1791,
      "demon": 1792,
      "den": 1793,
      "der": 1794,
      "des": 1795,
      "desk": 1796,
      "det": 1797,
      "dev": 1798,
      "devil": 1799,
      "dex": 1800,
      "df": 1801,
      "dg": 1802,
      "dge": 1803,
      "dh": 1804,
      "di": 1805,
      "diablo": 1806,
      "diam": 1807,
      "dian": 1808,
      "dick": 1809,
      "did": 1810,
      "die": 1811,
      "dig": 1812,
      "digital": 1813,
      "dil": 1814,
      "dim": 1815,
      "din": 1816,
      "ding": 1817,
      "dio": 1818,
      "dir": 1819,
      "dirty": 1820,
      "dis": 1821,
      "dj": 1822,
      "dk": 1823,
      "dl": 1824,
      "dle": 1825,
      "dm": 1826,
      "dn": 1827,
      "do": 1828,
      "dodo": 1829,
      "dog": 1830,
      "dogg": 1831,
      "doggy": 1832,
      "dogs": 1833,
      "dol": 1834,
      "dom": 1835,
      "domin": 1836,
      "don": 1837,
      "dont": 1838,
      "doo": 1839,
      "door": 1840,
      "dor": 1841,
      "dot": 1842,
      "down": 1843,
      "dp": 1844,
      "dq": 1845,
      "dr": 1846,
      "dra": 1847,
      "drag": 1848,
      "dragon": 1849,
      "dre": 1850,
      "dream": 1851,
      "dri": 1852,
      "dro": 1853,
      "drop": 1854,
      "drum": 1855,
      "ds": 1856,
      "dt": 1857,
      "du": 1858,
      "duck": 1859,
      "dude": 1860,
      "duke": 1861,
      "dum": 1862,
      "dun": 1863,
      "dur": 1864,
      "dv": 1865,
      "dw": 1866,
      "dx": 1867,
      "dy": 1868,
      "dz": 1869,
      "e": 1870,
      "e0": 1871,
      "e1": 1872,
      "e2": 1873,
      "e3": 1874,
      "e4": 1875,
      "e5": 1876,
      "e7": 1877,
      "e8": 1878,
      "e9": 1879,
      "ea": 1880,
      "eagle": 1881,
      "ear": 1882,
      "earth": 1883,
      "eat": 1884,
      "eb": 1885,
      "eball": 1886,
      "ec": 1887,
      "ech": 1888,
      "ed": 1889,
      "eda": 1890,
      "edc": 1891,
      "ede": 1892,
      "eden": 1893,
      "edo": 1894,
      "edog": 1895,
      "edom": 1896,
      "ee": 1897,
      "ef": 1898,
      "eg": 1899,
      "eh": 1900,
      "ein": 1901,
      "ek": 1902,
      "el": 1903,
      "ela": 1904,
      "eld": 1905,
      "ele": 1906,
      "eless": 1907,
      "elf": 1908,
      "eli": 1909,
      "eline": 1910,
      "elite": 1911,
      "ell": 1912,
      "ella": 1913,
      "elle": 1914,
      "elli": 1915,
      "ello": 1916,
      "elly": 1917,
      "elo": 1918,
      "elove": 1919,
      "els": 1920,
      "elvis": 1921,
      "em": 1922,
      "eman": 1923,
      "eme": 1924,
      "ement": 1925,
      "emin": 1926,
      "emma": 1927,
      "emo": 1928,
      "emy": 1929,
      "en": 1930,
      "en1": 1931,
      "ena": 1932,
      "ence": 1933,
      "end": 1934,
      "endo": 1935,
      "ene": 1936,
      "ener": 1937,
      "eng": 1938,
      "enix": 1939,
      "enn": 1940,
      "eno": 1941,
      "ens": 1942,
      "ent": 1943,
      "enter": 1944,
      "eo": 1945,
      "ep": 1946,
      "eq": 1947,
      "er": 1948,
      "era": 1949,
      "ere": 1950,
      "eric": 1951,
      "erik": 1952,
      "ero": 1953,
      "ers": 1954,
      "ers1": 1955,
      "ert": 1956,
      "es": 1957,
      "es1": 1958,
      "ese": 1959,
      "esh": 1960,
      "esis": 1961,
      "ess": 1962,
      "essa": 1963,
      "est": 1964,
      "ester": 1965,
      "et": 1966,
      "eta": 1967,
      "ete": 1968,
      "eter": 1969,
      "eth": 1970,
      "eto": 1971,
      "ets": 1972,
      "ett": 1973,
      "ette": 1974,
      "eu": 1975,
      "euro": 1976,
      "ev": 1977,
      "ever": 1978,
      "evil": 1979,
      "ew": 1980,
      "ex": 1981,
      "ey": 1982,
      "eye": 1983,
      "ez": 1984,
      "f": 1985,
      "f0": 1986,
      "f0r": 1987,
      "f1": 1988,
      "f2": 1989,
      "f3": 1990,
      "f4": 1991,
      "f5": 1992,
      "f6": 1993,
      "f7": 1994,
      "f8": 1995,
      "f9": 1996,
      "fa": 1997,
      "fab": 1998,
      "fac": 1999,
      "face": 2000,
      "fad": 2001,
      "faith": 2002,
      "fal": 2003,
      "falcon": 2004,
      "fall": 2005,
      "fam": 2006,
      "fan": 2007,
      "fant": 2008,
      "far": 2009,
      "fart": 2010,
      "fas": 2011,
      "fast": 2012,
      "fat": 2013,
      "fb": 2014,
      "fc": 2015,
      "fd": 2016,
      "fe": 2017,
      "fed": 2018,
      "fel": 2019,
      "fen": 2020,
      "fender": 2021,
      "fer": 2022,
      "ff": 2023,
      "ffe": 2024,
      "ffee": 2025,
      "ffer": 2026,
      "ffin": 2027,
      "ffy": 2028,
      "fg": 2029,
      "fh": 2030,
      "fi": 2031,
      "fid": 2032,
      "field": 2033,
      "fil": 2034,
      "fin": 2035,
      "fir": 2036,
      "fire": 2037,
      "fis": 2038,
      "fish": 2039,
      "fj": 2040,
      "fk": 2041,
      "fl": 2042,
      "fla": 2043,
      "flame": 2044,
      "flash": 2045,
      "flat": 2046,
      "fle": 2047,
      "fli": 2048,
      "flo": 2049,
      "flor": 2050,
      "flow": 2051,
      "flower": 2052,
      "flu": 2053,
      "fly": 2054,
      "fm": 2055,
      "fn": 2056,
      "fo": 2057,
      "fol": 2058,
      "foo": 2059,
      "food": 2060,
      "foot": 2061,
      "for": 2062,
      "force": 2063,
      "ford": 2064,
      "forever": 2065,
      "forum": 2066,
      "forums": 2067,
      "four": 2068,
      "fox": 2069,
      "fp": 2070,
      "fq": 2071,
      "fr": 2072,
      "fra": 2073,
      "fran": 2074,
      "frank": 2075,
      "fre": 2076,
      "freak": 2077,
      "fred": 2078,
      "free": 2079,
      "freedom": 2080,
      "fri": 2081,
      "fro": 2082,
      "frog": 2083,
      "fru": 2084,
      "fs": 2085,
      "ft": 2086,
      "fu": 2087,
      "fuck": 2088,
      "fucker": 2089,
      "fuckoff": 2090,
      "fuckyou": 2091,
      "ful": 2092,
      "fun": 2093,
      "funk": 2094,
      "funny": 2095,
      "fur": 2096,
      "fus": 2097,
      "fut": 2098,
      "fv": 2099,
      "fw": 2100,
      "fx": 2101,
      "fy": 2102,
      "fz": 2103,
      "g": 2104,
      "g0": 2105,
      "g1": 2106,
      "g3": 2107,
      "g4": 2108,
      "g5": 2109,
      "g6": 2110,
      "g7": 2111,
      "g8": 2112,
      "g9": 2113,
      "ga": 2114,
      "gab": 2115,
      "gad": 2116,
      "gal": 2117,
      "gam": 2118,
      "game": 2119,
      "games": 2120,
      "gan": 2121,
      "gang": 2122,
      "gar": 2123,
      "gas": 2124,
      "gat": 2125,
      "gate": 2126,
      "gay": 2127,
      "gb": 2128,
      "gc": 2129,
      "gd": 2130,
      "ge": 2131,
      "ged": 2132,
      "geek": 2133,
      "gel": 2134,
      "gem": 2135,
      "gen": 2136,
      "geor": 2137,
      "george": 2138,
      "ger": 2139,
      "get": 2140,
      "gf": 2141,
      "gg": 2142,
      "ggie": 2143,
      "ggs": 2144,
      "gh": 2145,
      "ghost": 2146,
      "ght": 2147,
      "gi": 2148,
      "gie": 2149,
      "gig": 2150,
      "gil": 2151,
      "gin": 2152,
      "ginger": 2153,
      "girl": 2154,
      "gk": 2155,
      "gl": 2156,
      "gla": 2157,
      "gle": 2158,
      "glo": 2159,
      "gm": 2160,
      "gn": 2161,
      "go": 2162,
      "goat": 2163,
      "god": 2164,
      "gogo": 2165,
      "gol": 2166,
      "gold": 2167,
      "golden": 2168,
      "golf": 2169,
      "gon": 2170,
      "goo": 2171,
      "good": 2172,
      "google": 2173,
      "gor": 2174,
      "gos": 2175,
      "got": 2176,
      "gp": 2177,
      "gr": 2178,
      "gra": 2179,
      "gram": 2180,
      "grand": 2181,
      "gray": 2182,
      "gre": 2183,
      "great": 2184,
      "green": 2185,
      "grey": 2186,
      "gri": 2187,
      "gro": 2188,
      "gs": 2189,
      "gt": 2190,
      "gu": 2191,
      "guin": 2192,
      "guitar": 2193,
      "gum": 2194,
      "gun": 2195,
      "gund": 2196,
      "gundam": 2197,
      "gur": 2198,
      "guru": 2199,
      "gut": 2200,
      "guy": 2201,
      "gw": 2202,
      "gy": 2203,
      "h": 2204,
      "h0": 2205,
      "h1": 2206,
      "h2": 2207,
      "h3": 2208,
      "h4": 2209,
      "h6": 2210,
      "h7": 2211,
      "h8": 2212,
      "h9": 2213,
      "ha": 2214,
      "hab": 2215,
      "hack": 2216,
      "hacker": 2217,
      "had": 2218,
      "hag": 2219,
      "haha": 2220,
      "hai": 2221,
      "hair": 2222,
      "hak": 2223,
      "hal": 2224,
      "hall": 2225,
      "ham": 2226,
      "hammer": 2227,
      "han": 2228,
      "hand": 2229,
      "hang": 2230,
      "hannah": 2231,
      "hap": 2232,
      "happy": 2233,
      "har": 2234,
      "hard": 2235,
      "harley": 2236,
      "harry": 2237,
      "hart": 2238,
      "has": 2239,
      "hat": 2240,
      "hate": 2241,
      "haw": 2242,
      "hawk": 2243,
      "hay": 2244,
      "hb": 2245,
      "hc": 2246,
      "hd": 2247,
      "he": 2248,
      "head": 2249,
      "heart": 2250,
      "hed": 2251,
      "heim": 2252,
      "hel": 2253,
      "hell": 2254,
      "hello": 2255,
      "help": 2256,
      "hem": 2257,
      "hen": 2258,
      "her": 2259,
      "here": 2260,
      "hes": 2261,
      "hey": 2262,
      "hg": 2263,
      "hh": 2264,
      "hi": 2265,
      "high": 2266,
      "hil": 2267,
      "hill": 2268,
      "him": 2269,
      "hip": 2270,
      "hit": 2271,
      "hj": 2272,
      "hjk": 2273,
      "hk": 2274,
      "hl": 2275,
      "hm": 2276,
      "hn": 2277,
      "ho": 2278,
      "hockey": 2279,
      "hol": 2280,
      "hold": 2281,
      "hole": 2282,
      "holly": 2283,
      "holy": 2284,
      "hom": 2285,
      "home": 2286,
      "homer": 2287,
      "hon": 2288,
      "hoo": 2289,
      "hop": 2290,
      "hor": 2291,
      "horn": 2292,
      "horse": 2293,
      "hos": 2294,
      "host": 2295,
      "hot": 2296,
      "hotmail": 2297,
      "house": 2298,
      "how": 2299,
      "hp": 2300,
      "hq": 2301,
      "hr": 2302,
      "hs": 2303,
      "ht": 2304,
      "hu": 2305,
      "hum": 2306,
      "hun": 2307,
      "hunter": 2308,
      "hur": 2309,
      "hv": 2310,
      "hy": 2311,
      "hyper": 2312,
      "i": 2313,
      "i1": 2314,
      "i11": 2315,
      "i2": 2316,
      "i3": 2317,
      "i6": 2318,
      "i7": 2319,
      "i8": 2320,
      "i9": 2321,
      "ia": 2322,
      "ia1": 2323,
      "iah": 2324,
      "ial": 2325,
      "iam": 2326,
      "ian": 2327,
      "iao": 2328,
      "ib": 2329,
      "ic": 2330,
      "ica": 2331,
      "ical": 2332,
      "ice": 2333,
      "ich": 2334,
      "ick": 2335,
      "ico": 2336,
      "ics": 2337,
      "ict": 2338,
      "id": 2339,
      "ida": 2340,
      "ide": 2341,
      "iden": 2342,
      "ider": 2343,
      "idi": 2344,
      "ido": 2345,
      "ie": 2346,
      "ie1": 2347,
      "ie123": 2348,
      "ien": 2349,
      "ier": 2350,
      "ies": 2351,
      "if": 2352,
      "ife": 2353,
      "ig": 2354,
      "iger": 2355,
      "iggy": 2356,
      "igh": 2357,
      "ight": 2358,
      "ighty": 2359,
      "ign": 2360,
      "ih": 2361,
      "ii": 2362,
      "ij": 2363,
      "ik": 2364,
      "ika": 2365,
      "ikben": 2366,
      "ike": 2367,
      "iker": 2368,
      "iki": 2369,
      "ikke": 2370,
      "iko": 2371,
      "il": 2372,
      "ila": 2373,
      "ild": 2374,
      "ile": 2375,
      "ili": 2376,
      "ilike": 2377,
      "ill": 2378,
      "illa": 2379,
      "ille": 2380,
      "illy": 2381,
      "ilo": 2382,
      "ilove": 2383,
      "ilovem": 2384,
      "iloves": 2385,
      "iluv": 2386,
      "ily": 2387,
      "im": 2388,
      "ima": 2389,
      "iman": 2390,
      "ime": 2391,
      "imin": 2392,
      "imo": 2393,
      "imp": 2394,
      "in": 2395,
      "in1": 2396,
      "ina": 2397,
      "inc": 2398,
      "ind": 2399,
      "ine": 2400,
      "iner": 2401,
      "ines": 2402,
      "info": 2403,
      "ing": 2404,
      "ing1": 2405,
      "inger": 2406,
      "ings": 2407,
      "ington": 2408,
      "ini": 2409,
      "ink": 2410,
      "ino": 2411,
      "ins": 2412,
      "int": 2413,
      "inter": 2414,
      "internet": 2415,
      "io": 2416,
      "ion": 2417,
      "ions": 2418,
      "ior": 2419,
      "ious": 2420,
      "ip": 2421,
      "iper": 2422,
      "iq": 2423,
      "ir": 2424,
      "ira": 2425,
      "ird": 2426,
      "ire": 2427,
      "iri": 2428,
      "irl": 2429,
      "iro": 2430,
      "iron": 2431,
      "is": 2432,
      "isa": 2433,
      "iscool": 2434,
      "ise": 2435,
      "iser": 2436,
      "isgood": 2437,
      "ish": 2438,
      "isk": 2439,
      "iso": 2440,
      "ison": 2441,
      "iss": 2442,
      "issa": 2443,
      "ist": 2444,
      "ister": 2445,
      "it": 2446,
      "ita": 2447,
      "ital": 2448,
      "itar": 2449,
      "itch": 2450,
      "ite": 2451,
      "iter": 2452,
      "ith": 2453,
      "iti": 2454,
      "ito": 2455,
      "its": 2456,
      "itt": 2457,
      "itten": 2458,
      "ittle": 2459,
      "ity": 2460,
      "itz": 2461,
      "iu": 2462,
      "ium": 2463,
      "ius": 2464,
      "iv": 2465,
      "ive": 2466,
      "iw": 2467,
      "ix": 2468,
      "iy": 2469,
      "iz": 2470,
      "j": 2471,
      "j0": 2472,
      "j1": 2473,
      "j2": 2474,
      "j3": 2475,
      "j4": 2476,
      "j6": 2477,
      "j7": 2478,
      "j8": 2479,
      "j9": 2480,
      "ja": 2481,
      "jab": 2482,
      "jac": 2483,
      "jack": 2484,
      "jad": 2485,
      "jade": 2486,
      "jag": 2487,
      "jak": 2488,
      "jake": 2489,
      "jam": 2490,
      "james": 2491,
      "jamie": 2492,
      "jan": 2493,
      "jane": 2494,
      "jar": 2495,
      "jas": 2496,
      "jason": 2497,
      "java": 2498,
      "jay": 2499,
      "jazz": 2500,
      "jb": 2501,
      "jc": 2502,
      "jd": 2503,
      "je": 2504,
      "jean": 2505,
      "jed": 2506,
      "jeep": 2507,
      "jeff": 2508,
      "jen": 2509,
      "jenny": 2510,
      "jer": 2511,
      "jerry": 2512,
      "jes": 2513,
      "jess": 2514,
      "jesus": 2515,
      "jet": 2516,
      "jg": 2517,
      "jh": 2518,
      "ji": 2519,
      "jim": 2520,
      "jimmy": 2521,
      "jin": 2522,
      "jj": 2523,
      "jk": 2524,
      "jkl": 2525,
      "jl": 2526,
      "jm": 2527,
      "jn": 2528,
      "jo": 2529,
      "joe": 2530,
      "joey": 2531,
      "johan": 2532,
      "john": 2533,
      "jojo": 2534,
      "joker": 2535,
      "jol": 2536,
      "jon": 2537,
      "jones": 2538,
      "jord": 2539,
      "jordan": 2540,
      "jos": 2541,
      "jose": 2542,
      "joseph": 2543,
      "josh": 2544,
      "joshua": 2545,
      "joy": 2546,
      "jp": 2547,
      "jq": 2548,
      "jr": 2549,
      "js": 2550,
      "jt": 2551,
      "ju": 2552,
      "juan": 2553,
      "jug": 2554,
      "jul": 2555,
      "juli": 2556,
      "jump": 2557,
      "jun": 2558,
      "june": 2559,
      "junk": 2560,
      "just": 2561,
      "jv": 2562,
      "jw": 2563,
      "jy": 2564,
      "jz": 2565,
      "k": 2566,
      "k0": 2567,
      "k1": 2568,
      "k2": 2569,
      "k3": 2570,
      "k4": 2571,
      "k5": 2572,
      "k7": 2573,
      "k8": 2574,
      "k9": 2575,
      "ka": 2576,
      "kab": 2577,
      "kad": 2578,
      "kak": 2579,
      "kal": 2580,
      "kam": 2581,
      "kan": 2582,
      "kap": 2583,
      "kar": 2584,
      "karen": 2585,
      "kas": 2586,
      "kat": 2587,
      "kate": 2588,
      "kay": 2589,
      "kb": 2590,
      "kc": 2591,
      "kd": 2592,
      "ke": 2593,
      "ked": 2594,
      "kee": 2595,
      "keep": 2596,
      "kel": 2597,
      "kelly": 2598,
      "ken": 2599,
      "ker": 2600,
      "kes": 2601,
      "ket": 2602,
      "kevin": 2603,
      "key": 2604,
      "kf": 2605,
      "kg": 2606,
      "kh": 2607,
      "khan": 2608,
      "ki": 2609,
      "kia": 2610,
      "kick": 2611,
      "kid": 2612,
      "kids": 2613,
      "kie": 2614,
      "kik": 2615,
      "kil": 2616,
      "kill": 2617,
      "killer": 2618,
      "kim": 2619,
      "kin": 2620,
      "king": 2621,
      "kir": 2622,
      "kis": 2623,
      "kiss": 2624,
      "kit": 2625,
      "kitty": 2626,
      "kj": 2627,
      "kk": 2628,
      "kl": 2629,
      "kla": 2630,
      "kle": 2631,
      "klo": 2632,
      "km": 2633,
      "kn": 2634,
      "knight": 2635,
      "kno": 2636,
      "know": 2637,
      "ko": 2638,
      "kol": 2639,
      "kom": 2640,
      "kon": 2641,
      "kool": 2642,
      "kop": 2643,
      "kor": 2644,
      "korn": 2645,
      "kos": 2646,
      "kot": 2647,
      "kp": 2648,
      "kq": 2649,
      "kr": 2650,
      "kra": 2651,
      "kris": 2652,
      "krist": 2653,
      "kro": 2654,
      "ks": 2655,
      "kt": 2656,
      "ku": 2657,
      "kuk": 2658,
      "kun": 2659,
      "kur": 2660,
      "kv": 2661,
      "kw": 2662,
      "kx": 2663,
      "ky": 2664,
      "kyle": 2665,
      "kz": 2666,
      "l": 2667,
      "l0": 2668,
      "l1": 2669,
      "l3": 2670,
      "l4": 2671,
      "l8": 2672,
      "lF": 2673,
      "la": 2674,
      "lab": 2675,
      "lad": 2676,
      "lady": 2677,
      "lake": 2678,
      "lal": 2679,
      "lam": 2680,
      "lan": 2681,
      "land": 2682,
      "lar": 2683,
      "las": 2684,
      "laser": 2685,
      "lash": 2686,
      "last": 2687,
      "lat": 2688,
      "laur": 2689,
      "lav": 2690,
      "law": 2691,
      "lay": 2692,
      "layer": 2693,
      "lb": 2694,
      "lc": 2695,
      "ld": 2696,
      "le": 2697,
      "lee": 2698,
      "leg": 2699,
      "lek": 2700,
      "lem": 2701,
      "lemon": 2702,
      "len": 2703,
      "leon": 2704,
      "ler": 2705,
      "les": 2706,
      "les1": 2707,
      "less": 2708,
      "let": 2709,
      "letmein": 2710,
      "lett": 2711,
      "lex": 2712,
      "ley": 2713,
      "lg": 2714,
      "li": 2715,
      "liam": 2716,
      "liber": 2717,
      "lic": 2718,
      "lick": 2719,
      "lie": 2720,
      "life": 2721,
      "light": 2722,
      "lil": 2723,
      "lim": 2724,
      "lin": 2725,
      "line": 2726,
      "ling": 2727,
      "link": 2728,
      "linux": 2729,
      "lion": 2730,
      "lip": 2731,
      "lis": 2732,
      "list": 2733,
      "lit": 2734,
      "little": 2735,
      "liv": 2736,
      "live": 2737,
      "liver": 2738,
      "lj": 2739,
      "lk": 2740,
      "ll": 2741,
      "lm": 2742,
      "lo": 2743,
      "lock": 2744,
      "log": 2745,
      "login": 2746,
      "lol": 2747,
      "lon": 2748,
      "long": 2749,
      "loo": 2750,
      "loop": 2751,
      "lor": 2752,
      "lord": 2753,
      "los": 2754,
      "lost": 2755,
      "lot": 2756,
      "lou": 2757,
      "lov": 2758,
      "love": 2759,
      "lovel": 2760,
      "lover": 2761,
      "loves": 2762,
      "low": 2763,
      "lp": 2764,
      "lq": 2765,
      "ls": 2766,
      "lt": 2767,
      "lu": 2768,
      "lucky": 2769,
      "lucy": 2770,
      "lue": 2771,
      "lug": 2772,
      "lum": 2773,
      "lun": 2774,
      "luv": 2775,
      "lv": 2776,
      "lx": 2777,
      "ly": 2778,
      "lyn": 2779,
      "lz": 2780,
      "m": 2781,
      "m0": 2782,
      "m00": 2783,
      "m0n": 2784,
      "m1": 2785,
      "m1n": 2786,
      "m2": 2787,
      "m3": 2788,
      "m4": 2789,
      "m4n": 2790,
      "m5": 2791,
      "m7": 2792,
      "m8": 2793,
      "m9": 2794,
      "ma": 2795,
      "mac": 2796,
      "mach": 2797,
      "mack": 2798,
      "mad": 2799,
      "mag": 2800,
      "mage": 2801,
      "magic": 2802,
      "mah": 2803,
      "mail": 2804,
      "main": 2805,
      "maj": 2806,
      "mak": 2807,
      "make": 2808,
      "maker": 2809,
      "mal": 2810,
      "mam": 2811,
      "man": 2812,
      "man1": 2813,
      "mand": 2814,
      "mani": 2815,
      "mania": 2816,
      "mann": 2817,
      "mar": 2818,
      "mari": 2819,
      "mario": 2820,
      "mark": 2821,
      "mart": 2822,
      "martin": 2823,
      "mary": 2824,
      "mas": 2825,
      "mass": 2826,
      "master": 2827,
      "mat": 2828,
      "mate": 2829,
      "math": 2830,
      "matrix": 2831,
      "matt": 2832,
      "matthe": 2833,
      "max": 2834,
      "may": 2835,
      "maz": 2836,
      "mb": 2837,
      "mc": 2838,
      "md": 2839,
      "me": 2840,
      "meat": 2841,
      "med": 2842,
      "meg": 2843,
      "mega": 2844,
      "mein": 2845,
      "mel": 2846,
      "mem": 2847,
      "men": 2848,
      "ment": 2849,
      "mer": 2850,
      "merlin": 2851,
      "mes": 2852,
      "met": 2853,
      "metal": 2854,
      "mf": 2855,
      "mg": 2856,
      "mh": 2857,
      "mi": 2858,
      "mic": 2859,
      "mich": 2860,
      "micha": 2861,
      "michael": 2862,
      "mick": 2863,
      "micro": 2864,
      "mid": 2865,
      "mie": 2866,
      "mig": 2867,
      "mik": 2868,
      "mike": 2869,
      "mil": 2870,
      "mile": 2871,
      "mill": 2872,
      "min": 2873,
      "mind": 2874,
      "mine": 2875,
      "ming": 2876,
      "mir": 2877,
      "mis": 2878,
      "miss": 2879,
      "mister": 2880,
      "mit": 2881,
      "mith": 2882,
      "mix": 2883,
      "mj": 2884,
      "mk": 2885,
      "ml": 2886,
      "mm": 2887,
      "mn": 2888,
      "mo": 2889,
      "mod": 2890,
      "mol": 2891,
      "molly": 2892,
      "mom": 2893,
      "mon": 2894,
      "money": 2895,
      "monkey": 2896,
      "monster": 2897,
      "moo": 2898,
      "moon": 2899,
      "mor": 2900,
      "more": 2901,
      "mort": 2902,
      "mos": 2903,
      "mot": 2904,
      "mother": 2905,
      "mouse": 2906,
      "mp": 2907,
      "mr": 2908,
      "ms": 2909,
      "mt": 2910,
      "mu": 2911,
      "mud": 2912,
      "mul": 2913,
      "mun": 2914,
      "mur": 2915,
      "mus": 2916,
      "music": 2917,
      "must": 2918,
      "mustang": 2919,
      "mut": 2920,
      "mv": 2921,
      "mx": 2922,
      "my": 2923,
      "mz": 2924,
      "n": 2925,
      "n0": 2926,
      "n1": 2927,
      "n2": 2928,
      "n3": 2929,
      "n4": 2930,
      "n7": 2931,
      "n8": 2932,
      "n9": 2933,
      "na": 2934,
      "nab": 2935,
      "nad": 2936,
      "nag": 2937,
      "nah": 2938,
      "nak": 2939,
      "nal": 2940,
      "nam": 2941,
      "name": 2942,
      "nan": 2943,
      "nap": 2944,
      "nar": 2945,
      "nas": 2946,
      "nat": 2947,
      "nathan": 2948,
      "nb": 2949,
      "nc": 2950,
      "ncc": 2951,
      "nd": 2952,
      "ne": 2953,
      "ned": 2954,
      "need": 2955,
      "nel": 2956,
      "neo": 2957,
      "ner": 2958,
      "nes": 2959,
      "ness": 2960,
      "net": 2961,
      "never": 2962,
      "new": 2963,
      "ney": 2964,
      "ng": 2965,
      "nh": 2966,
      "ni": 2967,
      "nic": 2968,
      "nick": 2969,
      "nickel": 2970,
      "nicole": 2971,
      "nie": 2972,
      "nig": 2973,
      "night": 2974,
      "nik": 2975,
      "nike": 2976,
      "nil": 2977,
      "nin": 2978,
      "nine": 2979,
      "nip": 2980,
      "nis": 2981,
      "nit": 2982,
      "nix": 2983,
      "nm": 2984,
      "nn": 2985,
      "no": 2986,
      "no1": 2987,
      "nokia": 2988,
      "nom": 2989,
      "non": 2990,
      "nop": 2991,
      "nor": 2992,
      "north": 2993,
      "nos": 2994,
      "not": 2995,
      "nov": 2996,
      "nova": 2997,
      "now": 2998,
      "nr": 2999,
      "nt": 3000,
      "nu": 3001,
      "num": 3002,
      "number": 3003,
      "nut": 3004,
      "nv": 3005,
      "nw": 3006,
      "nx": 3007,
      "ny": 3008,
      "nz": 3009,
      "o": 3010,
      "o1": 3011,
      "o2": 3012,
      "oak": 3013,
      "ob": 3014,
      "oc": 3015,
      "od": 3016,
      "oe": 3017,
      "of": 3018,
      "off": 3019,
      "oft": 3020,
      "og": 3021,
      "oh": 3022,
      "oi": 3023,
      "ok": 3024,
      "ol": 3025,
      "ola": 3026,
      "olas": 3027,
      "old": 3028,
      "ole": 3029,
      "olf": 3030,
      "oli": 3031,
      "olin": 3032,
      "olive": 3033,
      "oll": 3034,
      "ollo": 3035,
      "olly": 3036,
      "olo": 3037,
      "olog": 3038,
      "ology": 3039,
      "oly": 3040,
      "om": 3041,
      "oman": 3042,
      "ome": 3043,
      "omega": 3044,
      "omo": 3045,
      "on": 3046,
      "on1": 3047,
      "ona": 3048,
      "ond": 3049,
      "one": 3050,
      "one1": 3051,
      "ones": 3052,
      "oney": 3053,
      "ong": 3054,
      "oni": 3055,
      "onic": 3056,
      "online": 3057,
      "only": 3058,
      "ono": 3059,
      "ons": 3060,
      "ont": 3061,
      "ony": 3062,
      "oo": 3063,
      "oob": 3064,
      "ood": 3065,
      "ook": 3066,
      "ool": 3067,
      "oon": 3068,
      "oop": 3069,
      "oot": 3070,
      "op": 3071,
      "ope": 3072,
      "open": 3073,
      "oper": 3074,
      "ople": 3075,
      "or": 3076,
      "ora": 3077,
      "orang": 3078,
      "ord": 3079,
      "ore": 3080,
      "ori": 3081,
      "orn": 3082,
      "oro": 3083,
      "orp": 3084,
      "ort": 3085,
      "ory": 3086,
      "os": 3087,
      "osa": 3088,
      "oscar": 3089,
      "oso": 3090,
      "ot": 3091,
      "ota": 3092,
      "ote": 3093,
      "oter": 3094,
      "oth": 3095,
      "oto": 3096,
      "ou": 3097,
      "our": 3098,
      "ous": 3099,
      "out": 3100,
      "ov": 3101,
      "ove": 3102,
      "over": 3103,
      "ow": 3104,
      "ower": 3105,
      "own": 3106,
      "ox": 3107,
      "oy": 3108,
      "oz": 3109,
      "p": 3110,
      "p0": 3111,
      "p00": 3112,
      "p1": 3113,
      "p2": 3114,
      "p3": 3115,
      "p4": 3116,
      "p5": 3117,
      "p7": 3118,
      "p8": 3119,
      "p9": 3120,
      "p@": 3121,
      "pa": 3122,
      "pac": 3123,
      "pack": 3124,
      "pad": 3125,
      "pak": 3126,
      "pal": 3127,
      "pam": 3128,
      "pan": 3129,
      "pand": 3130,
      "pap": 3131,
      "paper": 3132,
      "paq": 3133,
      "par": 3134,
      "parad": 3135,
      "park": 3136,
      "part": 3137,
      "pas": 3138,
      "pass": 3139,
      "password": 3140,
      "pat": 3141,
      "patrick": 3142,
      "paul": 3143,
      "pb": 3144,
      "pbb": 3145,
      "pc": 3146,
      "pd": 3147,
      "pe": 3148,
      "peace": 3149,
      "pear": 3150,
      "ped": 3151,
      "pel": 3152,
      "pen": 3153,
      "pent": 3154,
      "pep": 3155,
      "pepper": 3156,
      "per": 3157,
      "pers": 3158,
      "pet": 3159,
      "peter": 3160,
      "pg": 3161,
      "ph": 3162,
      "pha": 3163,
      "phant": 3164,
      "phat": 3165,
      "phe": 3166,
      "pher": 3167,
      "phi": 3168,
      "phil": 3169,
      "pho": 3170,
      "phone": 3171,
      "php": 3172,
      "phpBB": 3173,
      "phpb": 3174,
      "phpbb": 3175,
      "phpbb2": 3176,
      "phpbb4": 3177,
      "phy": 3178,
      "pi": 3179,
      "pic": 3180,
      "pie": 3181,
      "pier": 3182,
      "pig": 3183,
      "pik": 3184,
      "pil": 3185,
      "pin": 3186,
      "pine": 3187,
      "ping": 3188,
      "pink": 3189,
      "pip": 3190,
      "pir": 3191,
      "pire": 3192,
      "pis": 3193,
      "pit": 3194,
      "pix": 3195,
      "pj": 3196,
      "pk": 3197,
      "pl": 3198,
      "pla": 3199,
      "plan": 3200,
      "planet": 3201,
      "plat": 3202,
      "play": 3203,
      "ple": 3204,
      "please": 3205,
      "plo": 3206,
      "pm": 3207,
      "pn": 3208,
      "po": 3209,
      "point": 3210,
      "poke": 3211,
      "pol": 3212,
      "pom": 3213,
      "pon": 3214,
      "poo": 3215,
      "pool": 3216,
      "pop": 3217,
      "por": 3218,
      "port": 3219,
      "pos": 3220,
      "post": 3221,
      "pot": 3222,
      "pow": 3223,
      "power": 3224,
      "pp": 3225,
      "pr": 3226,
      "pra": 3227,
      "pre": 3228,
      "press": 3229,
      "pri": 3230,
      "prin": 3231,
      "princ": 3232,
      "prince": 3233,
      "pro": 3234,
      "ps": 3235,
      "psy": 3236,
      "pt": 3237,
      "pu": 3238,
      "pub": 3239,
      "pun": 3240,
      "punk": 3241,
      "pup": 3242,
      "puppy": 3243,
      "pur": 3244,
      "purple": 3245,
      "pus": 3246,
      "pussy": 3247,
      "put": 3248,
      "puter": 3249,
      "pv": 3250,
      "pw": 3251,
      "py": 3252,
      "pz": 3253,
      "q": 3254,
      "q1": 3255,
      "q2": 3256,
      "q3": 3257,
      "q8": 3258,
      "q9": 3259,
      "qa": 3260,
      "qaz": 3261,
      "qp": 3262,
      "qq": 3263,
      "qqqq": 3264,
      "qs": 3265,
      "qt": 3266,
      "qu": 3267,
      "que": 3268,
      "queen": 3269,
      "quest": 3270,
      "qui": 3271,
      "quick": 3272,
      "qv": 3273,
      "qw": 3274,
      "qwe": 3275,
      "qwer": 3276,
      "qwerty": 3277,
      "qy": 3278,
      "qz": 3279,
      "r": 3280,
      "r0": 3281,
      "r1": 3282,
      "r2": 3283,
      "r3": 3284,
      "r4": 3285,
      "r6": 3286,
      "r7": 3287,
      "r8": 3288,
      "ra": 3289,
      "rabbit": 3290,
      "rac": 3291,
      "racing": 3292,
      "rad": 3293,
      "radio": 3294,
      "rag": 3295,
      "ragon": 3296,
      "rain": 3297,
      "rak": 3298,
      "ram": 3299,
      "ran": 3300,
      "rand": 3301,
      "ranger": 3302,
      "rap": 3303,
      "rari": 3304,
      "ras": 3305,
      "rat": 3306,
      "rav": 3307,
      "raven": 3308,
      "ray": 3309,
      "rb": 3310,
      "rc": 3311,
      "rd": 3312,
      "re": 3313,
      "real": 3314,
      "rebel": 3315,
      "red": 3316,
      "ree": 3317,
      "reg": 3318,
      "rek": 3319,
      "rel": 3320,
      "ren": 3321,
      "res": 3322,
      "rest": 3323,
      "ret": 3324,
      "rew": 3325,
      "rex": 3326,
      "rey": 3327,
      "rf": 3328,
      "rg": 3329,
      "rh": 3330,
      "ri": 3331,
      "ric": 3332,
      "rich": 3333,
      "rick": 3334,
      "rid": 3335,
      "ride": 3336,
      "rider": 3337,
      "rie": 3338,
      "right": 3339,
      "ril": 3340,
      "rin": 3341,
      "ring": 3342,
      "rior": 3343,
      "rip": 3344,
      "ris": 3345,
      "rist": 3346,
      "rit": 3347,
      "river": 3348,
      "rix": 3349,
      "rj": 3350,
      "rk": 3351,
      "rl": 3352,
      "rm": 3353,
      "rn": 3354,
      "ro": 3355,
      "road": 3356,
      "rob": 3357,
      "robert": 3358,
      "robin": 3359,
      "rock": 3360,
      "rocket": 3361,
      "rocks": 3362,
      "rod": 3363,
      "rog": 3364,
      "rol": 3365,
      "roll": 3366,
      "rom": 3367,
      "roman": 3368,
      "ron": 3369,
      "roo": 3370,
      "roof": 3371,
      "room": 3372,
      "root": 3373,
      "rop": 3374,
      "ror": 3375,
      "ros": 3376,
      "rose": 3377,
      "ross": 3378,
      "rot": 3379,
      "row": 3380,
      "rox": 3381,
      "roy": 3382,
      "rq": 3383,
      "rr": 3384,
      "rs": 3385,
      "rt": 3386,
      "ru": 3387,
      "rul": 3388,
      "rule": 3389,
      "rules": 3390,
      "rulez": 3391,
      "rum": 3392,
      "run": 3393,
      "rup": 3394,
      "rus": 3395,
      "rust": 3396,
      "rx": 3397,
      "ry": 3398,
      "ryan": 3399,
      "s": 3400,
      "s0": 3401,
      "s1": 3402,
      "s12": 3403,
      "s2": 3404,
      "s3": 3405,
      "s4": 3406,
      "s5": 3407,
      "s6": 3408,
      "s7": 3409,
      "s8": 3410,
      "s9": 3411,
      "sa": 3412,
      "sab": 3413,
      "sac": 3414,
      "sad": 3415,
      "sag": 3416,
      "sai": 3417,
      "sail": 3418,
      "sak": 3419,
      "sal": 3420,
      "sam": 3421,
      "san": 3422,
      "sand": 3423,
      "sant": 3424,
      "sap": 3425,
      "sar": 3426,
      "sarah": 3427,
      "sas": 3428,
      "sat": 3429,
      "saturn": 3430,
      "sav": 3431,
      "say": 3432,
      "sb": 3433,
      "sc": 3434,
      "scar": 3435,
      "sch": 3436,
      "sche": 3437,
      "school": 3438,
      "sco": 3439,
      "scorp": 3440,
      "scot": 3441,
      "scott": 3442,
      "scre": 3443,
      "sd": 3444,
      "se": 3445,
      "sea": 3446,
      "sean": 3447,
      "secre": 3448,
      "secret": 3449,
      "sed": 3450,
      "sel": 3451,
      "sem": 3452,
      "sen": 3453,
      "ser": 3454,
      "server": 3455,
      "ses": 3456,
      "set": 3457,
      "seven": 3458,
      "sex": 3459,
      "sexy": 3460,
      "sey": 3461,
      "sf": 3462,
      "sg": 3463,
      "sh": 3464,
      "sha": 3465,
      "shadow": 3466,
      "shak": 3467,
      "sham": 3468,
      "shan": 3469,
      "shar": 3470,
      "shark": 3471,
      "she": 3472,
      "shel": 3473,
      "shell": 3474,
      "sher": 3475,
      "shi": 3476,
      "shin": 3477,
      "shine": 3478,
      "ship": 3479,
      "shit": 3480,
      "sho": 3481,
      "shop": 3482,
      "shot": 3483,
      "show": 3484,
      "si": 3485,
      "sick": 3486,
      "sid": 3487,
      "side": 3488,
      "sie": 3489,
      "sig": 3490,
      "sik": 3491,
      "sil": 3492,
      "silly": 3493,
      "silver": 3494,
      "sim": 3495,
      "simp": 3496,
      "simple": 3497,
      "sin": 3498,
      "sing": 3499,
      "sink": 3500,
      "sir": 3501,
      "sis": 3502,
      "site": 3503,
      "six": 3504,
      "sj": 3505,
      "sk": 3506,
      "sk8": 3507,
      "ski": 3508,
      "skin": 3509,
      "skip": 3510,
      "sky": 3511,
      "sl": 3512,
      "sla": 3513,
      "slayer": 3514,
      "sle": 3515,
      "slip": 3516,
      "slo": 3517,
      "sm": 3518,
      "smart": 3519,
      "smith": 3520,
      "smo": 3521,
      "sn": 3522,
      "sna": 3523,
      "snake": 3524,
      "sniper": 3525,
      "snoo": 3526,
      "snoopy": 3527,
      "snow": 3528,
      "so": 3529,
      "soccer": 3530,
      "sof": 3531,
      "soft": 3532,
      "sol": 3533,
      "som": 3534,
      "some": 3535,
      "son": 3536,
      "song": 3537,
      "sonic": 3538,
      "sony": 3539,
      "sor": 3540,
      "soul": 3541,
      "sound": 3542,
      "soup": 3543,
      "sour": 3544,
      "south": 3545,
      "sp": 3546,
      "spa": 3547,
      "spac": 3548,
      "space": 3549,
      "spam": 3550,
      "spar": 3551,
      "spark": 3552,
      "spe": 3553,
      "speed": 3554,
      "spider": 3555,
      "spike": 3556,
      "spir": 3557,
      "sport": 3558,
      "spot": 3559,
      "spr": 3560,
      "spring": 3561,
      "sq": 3562,
      "squ": 3563,
      "sr": 3564,
      "ss": 3565,
      "st": 3566,
      "sta": 3567,
      "stal": 3568,
      "stan": 3569,
      "stand": 3570,
      "star": 3571,
      "start": 3572,
      "ste": 3573,
      "steel": 3574,
      "stein": 3575,
      "stem": 3576,
      "step": 3577,
      "steph": 3578,
      "ster": 3579,
      "sters": 3580,
      "steve": 3581,
      "sth": 3582,
      "sti": 3583,
      "stic": 3584,
      "stick": 3585,
      "stin": 3586,
      "sting": 3587,
      "sto": 3588,
      "stock": 3589,
      "ston": 3590,
      "stone": 3591,
      "stop": 3592,
      "stor": 3593,
      "storm": 3594,
      "str": 3595,
      "stra": 3596,
      "stre": 3597,
      "street": 3598,
      "stri": 3599,
      "stro": 3600,
      "stu": 3601,
      "stuff": 3602,
      "stupid": 3603,
      "sty": 3604,
      "su": 3605,
      "sub": 3606,
      "suck": 3607,
      "sucks": 3608,
      "sum": 3609,
      "summer": 3610,
      "sun": 3611,
      "sung": 3612,
      "sunny": 3613,
      "sup": 3614,
      "super": 3615,
      "sur": 3616,
      "sus": 3617,
      "sux": 3618,
      "sv": 3619,
      "sw": 3620,
      "sweet": 3621,
      "sword": 3622,
      "sx": 3623,
      "sy": 3624,
      "sys": 3625,
      "system": 3626,
      "sz": 3627,
      "t": 3628,
      "t0": 3629,
      "t1": 3630,
      "t3": 3631,
      "t4": 3632,
      "t5": 3633,
      "t6": 3634,
      "t7": 3635,
      "t9": 3636,
      "ta": 3637,
      "tab": 3638,
      "taco": 3639,
      "tag": 3640,
      "tain": 3641,
      "tak": 3642,
      "tal": 3643,
      "tam": 3644,
      "tan": 3645,
      "tang": 3646,
      "tar": 3647,
      "tat": 3648,
      "tay": 3649,
      "taz": 3650,
      "tb": 3651,
      "tc": 3652,
      "te": 3653,
      "team": 3654,
      "tec": 3655,
      "tech": 3656,
      "ted": 3657,
      "tek": 3658,
      "tel": 3659,
      "tele": 3660,
      "tem": 3661,
      "ten": 3662,
      "ter": 3663,
      "ters": 3664,
      "tes": 3665,
      "test": 3666,
      "tester": 3667,
      "tex": 3668,
      "tf": 3669,
      "tg": 3670,
      "th": 3671,
      "tha": 3672,
      "than": 3673,
      "thanh": 3674,
      "that": 3675,
      "the": 3676,
      "thed": 3677,
      "thel": 3678,
      "them": 3679,
      "thep": 3680,
      "ther": 3681,
      "thes": 3682,
      "thet": 3683,
      "thi": 3684,
      "thing": 3685,
      "this": 3686,
      "thisis": 3687,
      "tho": 3688,
      "thom": 3689,
      "thomas": 3690,
      "thor": 3691,
      "three": 3692,
      "thu": 3693,
      "thunder": 3694,
      "thy": 3695,
      "ti": 3696,
      "tic": 3697,
      "tie": 3698,
      "tig": 3699,
      "tiger": 3700,
      "tigger": 3701,
      "tik": 3702,
      "tim": 3703,
      "time": 3704,
      "tin": 3705,
      "ting": 3706,
      "tip": 3707,
      "tis": 3708,
      "tit": 3709,
      "tj": 3710,
      "tje": 3711,
      "tk": 3712,
      "tl": 3713,
      "tle": 3714,
      "tm": 3715,
      "tn": 3716,
      "to": 3717,
      "tober": 3718,
      "tom": 3719,
      "tommy": 3720,
      "ton": 3721,
      "tony": 3722,
      "too": 3723,
      "top": 3724,
      "tor": 3725,
      "tos": 3726,
      "tot": 3727,
      "town": 3728,
      "toy": 3729,
      "tp": 3730,
      "tr": 3731,
      "tra": 3732,
      "tran": 3733,
      "tre": 3734,
      "tree": 3735,
      "treme": 3736,
      "tri": 3737,
      "trin": 3738,
      "trip": 3739,
      "tro": 3740,
      "tron": 3741,
      "tru": 3742,
      "trust": 3743,
      "try": 3744,
      "ts": 3745,
      "tt": 3746,
      "tu": 3747,
      "tun": 3748,
      "tur": 3749,
      "turbo": 3750,
      "tv": 3751,
      "tw": 3752,
      "twin": 3753,
      "two": 3754,
      "tx": 3755,
      "ty": 3756,
      "tz": 3757,
      "u": 3758,
      "u2": 3759,
      "u5": 3760,
      "u7": 3761,
      "u8": 3762,
      "u9": 3763,
      "ua": 3764,
      "ual": 3765,
      "uar": 3766,
      "ub": 3767,
      "uber": 3768,
      "uble": 3769,
      "uc": 3770,
      "uch": 3771,
      "uck": 3772,
      "ucks": 3773,
      "ud": 3774,
      "ude": 3775,
      "ue": 3776,
      "uel": 3777,
      "uf": 3778,
      "ug": 3779,
      "ugar": 3780,
      "ugh": 3781,
      "uh": 3782,
      "ui": 3783,
      "uj": 3784,
      "uk": 3785,
      "uke": 3786,
      "ul": 3787,
      "ula": 3788,
      "ule": 3789,
      "ules": 3790,
      "ull": 3791,
      "ulo": 3792,
      "ult": 3793,
      "um": 3794,
      "uma": 3795,
      "umi": 3796,
      "ump": 3797,
      "un": 3798,
      "una": 3799,
      "und": 3800,
      "under": 3801,
      "une": 3802,
      "ung": 3803,
      "uni": 3804,
      "unit": 3805,
      "unk": 3806,
      "unt": 3807,
      "unter": 3808,
      "up": 3809,
      "uper": 3810,
      "upid": 3811,
      "ur": 3812,
      "ura": 3813,
      "ure": 3814,
      "urf": 3815,
      "uri": 3816,
      "urn": 3817,
      "urt": 3818,
      "us": 3819,
      "us1": 3820,
      "use": 3821,
      "user": 3822,
      "ush": 3823,
      "uss": 3824,
      "ust": 3825,
      "ut": 3826,
      "uta": 3827,
      "ute": 3828,
      "uth": 3829,
      "uto": 3830,
      "uts": 3831,
      "uu": 3832,
      "uv": 3833,
      "uw": 3834,
      "ux": 3835,
      "uy": 3836,
      "uz": 3837,
      "v": 3838,
      "v0": 3839,
      "v1": 3840,
      "v3": 3841,
      "v3r": 3842,
      "v4": 3843,
      "v6": 3844,
      "v8": 3845,
      "v9": 3846,
      "va": 3847,
      "val": 3848,
      "vam": 3849,
      "van": 3850,
      "var": 3851,
      "vas": 3852,
      "vat": 3853,
      "vc": 3854,
      "ve": 3855,
      "ved": 3856,
      "vel": 3857,
      "vem": 3858,
      "ven": 3859,
      "vent": 3860,
      "ver": 3861,
      "very": 3862,
      "ves": 3863,
      "vet": 3864,
      "vg": 3865,
      "vi": 3866,
      "vic": 3867,
      "vid": 3868,
      "vie": 3869,
      "vier": 3870,
      "view": 3871,
      "vig": 3872,
      "vik": 3873,
      "vil": 3874,
      "ville": 3875,
      "vin": 3876,
      "vio": 3877,
      "viper": 3878,
      "vir": 3879,
      "vis": 3880,
      "vision": 3881,
      "vit": 3882,
      "vl": 3883,
      "vn": 3884,
      "vo": 3885,
      "vol": 3886,
      "von": 3887,
      "vor": 3888,
      "vq": 3889,
      "vr": 3890,
      "vt": 3891,
      "vu": 3892,
      "vv": 3893,
      "vw": 3894,
      "vx": 3895,
      "vy": 3896,
      "vz": 3897,
      "w": 3898,
      "w0": 3899,
      "w0rd": 3900,
      "w1": 3901,
      "w2": 3902,
      "w3": 3903,
      "w5": 3904,
      "w6": 3905,
      "w7": 3906,
      "w8": 3907,
      "w9": 3908,
      "wa": 3909,
      "wak": 3910,
      "wal": 3911,
      "walker": 3912,
      "wall": 3913,
      "wan": 3914,
      "wang": 3915,
      "war": 3916,
      "ward": 3917,
      "ware": 3918,
      "warrior": 3919,
      "wars": 3920,
      "was": 3921,
      "wash": 3922,
      "wat": 3923,
      "water": 3924,
      "wave": 3925,
      "way": 3926,
      "wb": 3927,
      "wc": 3928,
      "wd": 3929,
      "we": 3930,
      "web": 3931,
      "wed": 3932,
      "weed": 3933,
      "weet": 3934,
      "wel": 3935,
      "welcome": 3936,
      "well": 3937,
      "wen": 3938,
      "wer": 3939,
      "wes": 3940,
      "west": 3941,
      "wf": 3942,
      "wg": 3943,
      "wh": 3944,
      "what": 3945,
      "whe": 3946,
      "whit": 3947,
      "white": 3948,
      "who": 3949,
      "why": 3950,
      "wi": 3951,
      "wick": 3952,
      "wil": 3953,
      "wild": 3954,
      "will": 3955,
      "william": 3956,
      "wilson": 3957,
      "win": 3958,
      "wind": 3959,
      "windo": 3960,
      "wing": 3961,
      "winter": 3962,
      "wire": 3963,
      "wis": 3964,
      "wk": 3965,
      "wl": 3966,
      "wm": 3967,
      "wn": 3968,
      "wo": 3969,
      "wol": 3970,
      "wolf": 3971,
      "won": 3972,
      "wonder": 3973,
      "woo": 3974,
      "wood": 3975,
      "wor": 3976,
      "word": 3977,
      "work": 3978,
      "world": 3979,
      "wp": 3980,
      "wq": 3981,
      "wr": 3982,
      "ws": 3983,
      "wsx": 3984,
      "wt": 3985,
      "wu": 3986,
      "ww": 3987,
      "www": 3988,
      "wx": 3989,
      "wy": 3990,
      "x": 3991,
      "x0r": 3992,
      "x1": 3993,
      "x2": 3994,
      "x3": 3995,
      "x4": 3996,
      "x5": 3997,
      "x6": 3998,
      "x7": 3999,
      "x8": 4000,
      "x9": 4001,
      "xa": 4002,
      "xe": 4003,
      "xi": 4004,
      "xl": 4005,
      "xn": 4006,
      "xo": 4007,
      "xp": 4008,
      "xs": 4009,
      "xsw": 4010,
      "xt": 4011,
      "xu": 4012,
      "xx": 4013,
      "xxx": 4014,
      "xxxx": 4015,
      "xy": 4016,
      "xz": 4017,
      "y": 4018,
      "y0": 4019,
      "y1": 4020,
      "y123": 4021,
      "y2": 4022,
      "y7": 4023,
      "y9": 4024,
      "ya": 4025,
      "yah": 4026,
      "yahoo": 4027,
      "yam": 4028,
      "yan": 4029,
      "yas": 4030,
      "yd": 4031,
      "ye": 4032,
      "yel": 4033,
      "yellow": 4034,
      "yen": 4035,
      "yes": 4036,
      "yi": 4037,
      "yl": 4038,
      "yn": 4039,
      "yo": 4040,
      "yor": 4041,
      "you": 4042,
      "your": 4043,
      "yoyo": 4044,
      "yp": 4045,
      "yr": 4046,
      "ys": 4047,
      "yt": 4048,
      "yu": 4049,
      "yy": 4050,
      "yz": 4051,
      "z": 4052,
      "z1": 4053,
      "z2": 4054,
      "z4": 4055,
      "z6": 4056,
      "z8": 4057,
      "za": 4058,
      "zak": 4059,
      "zal": 4060,
      "zam": 4061,
      "zan": 4062,
      "zap": 4063,
      "zar": 4064,
      "zard": 4065,
      "ze": 4066,
      "zel": 4067,
      "zen": 4068,
      "zer": 4069,
      "zero": 4070,
      "zg": 4071,
      "zh": 4072,
      "zi": 4073,
      "zie": 4074,
      "zin": 4075,
      "zip": 4076,
      "zk": 4077,
      "zn": 4078,
      "zo": 4079,
      "zom": 4080,
      "zone": 4081,
      "zoo": 4082,
      "zor": 4083,
      "zp": 4084,
      "zq": 4085,
      "zt": 4086,
      "zu": 4087,
      "zx": 4088,
      "zxcv": 4089,
      "zy": 4090,
      "zz": 4091,
      "zza": 4092,
      "zzy": 4093,
      "|": 4094,
      "~": 4095
    },
    "merges": [
      [
        "e",
        "r"
      ],
      [
        "a",
        "n"
      ],
      [
        "i",
        "n"
      ],
      [
        "a",
        "r"
      ],
      [
        "1",
        "2"
      ],
      [
        "o",
        "n"
      ],
      [
        "0",
        "0"
      ],
      [
        "e",
        "n"
      ],
      [
        "s",
        "t"
      ],
      [
        "a",
        "l"
      ],
      [
        "o",
        "r"
      ],
      [
        "1",
        "9"
      ],
      [
        "a",
        "t"
      ],
      [
        "e",
        "l"
      ],
      [
        "a",
        "s"
      ],
      [
        "c",
        "h"
      ],
      [
        "a",
        "m"
      ],
      [
        "r",
        "e"
      ],
      [
        "l",
        "e"
      ],
      [
        "i",
        "l"
      ],
      [
        "a",
        "d"
      ],
      [
        "i",
        "s"
      ],
      [
        "1",
        "1"
      ],
      [
        "c",
        "k"
      ],
      [
        "o",
        "l"
      ],
      [
        "i",
        "t"
      ],
      [
        "12",
        "3"
      ],
      [
        "p",
        "h"
      ],
      [
        "e",
        "s"
      ],
      [
        "r",
        "o"
      ],
      [
        "1",
        "0"
      ],
      [
        "e",
        "t"
      ],
      [
        "r",
        "a"
      ],
      [
        "c",
        "o"
      ],
      [
        "u",
        "n"
      ],
      [
        "m",
        "a"
      ],
      [
        "t",
        "h"
      ],
      [
        "b",
        "b"
      ],
      [
        "1",
        "3"
      ],
      [
        "l",
        "o"
      ],
      [
        "r",
        "i"
      ],
      [
        "u",
        "s"
      ],
      [
        "o",
        "o"
      ],
      [
        "i",
        "c"
      ],
      [
        "ph",
        "p"
      ],
      [
        "e",
        "d"
      ],
      [
        "2",
        "3"
      ],
      [
        "l",
        "a"
      ],
      [
        "9",
        "9"
      ],
      [
        "6",
        "6"
      ],
      [
        "4",
        "5"
      ],
      [
        "i",
        "m"
      ],
      [
        "2",
        "00"
      ],
      [
        "s",
        "h"
      ],
      [
        "7",
        "7"
      ],
      [
        "d",
        "e"
      ],
      [
        "2",
        "2"
      ],
      [
        "i",
        "g"
      ],
      [
        "in",
        "g"
      ],
      [
        "1",
        "5"
      ],
      [
        "a",
        "b"
      ],
      [
        "o",
        "m"
      ],
      [
        "1",
        "4"
      ],
      [
        "i",
        "e"
      ],
      [
        "8",
        "8"
      ],
      [
        "k",
        "e"
      ],
      [
        "u",
        "r"
      ],
      [
        "2",
        "0"
      ],
      [
        "2",
        "5"
      ],
      [
        "1",
        "8"
      ],
      [
        "php",
        "bb"
      ],
      [
        "6",
        "9"
      ],
      [
        "e",
        "m"
      ],
      [
        "19",
        "8"
      ],
      [
        "an",
        "d"
      ],
      [
        "b",
        "o"
      ],
      [
        "7",
        "8"
      ],
      [
        "u",
        "m"
      ],
      [
        "2",
        "4"
      ],
      [
        "i",
        "d"
      ],
      [
        "u",
        "t"
      ],
      [
        "a",
        "k"
      ],
      [
        "i",
        "r"
      ],
      [
        "0",
        "1"
      ],
      [
        "3",
        "3"
      ],
      [
        "o",
        "t"
      ],
      [
        "l",
        "i"
      ],
      [
        "0",
        "5"
      ],
      [
        "a",
        "p"
      ],
      [
        "a",
        "c"
      ],
      [
        "s",
        "e"
      ],
      [
        "1",
        "6"
      ],
      [
        "v",
        "e"
      ],
      [
        "m",
        "an"
      ],
      [
        "1",
        "7"
      ],
      [
        "v",
        "er"
      ],
      [
        "o",
        "p"
      ],
      [
        "a",
        "g"
      ],
      [
        "m",
        "e"
      ],
      [
        "0",
        "3"
      ],
      [
        "as",
        "s"
      ],
      [
        "d",
        "o"
      ],
      [
        "0",
        "9"
      ],
      [
        "5",
        "5"
      ],
      [
        "0",
        "4"
      ],
      [
        "a",
        "y"
      ],
      [
        "t",
        "e"
      ],
      [
        "i",
        "k"
      ],
      [
        "s",
        "p"
      ],
      [
        "2",
        "6"
      ],
      [
        "2",
        "1"
      ],
      [
        "n",
        "e"
      ],
      [
        "2",
        "8"
      ],
      [
        "7",
        "9"
      ],
      [
        "u",
        "l"
      ],
      [
        "0",
        "8"
      ],
      [
        "an",
        "g"
      ],
      [
        "o",
        "w"
      ],
      [
        "0",
        "6"
      ],
      [
        "b",
        "e"
      ],
      [
        "o",
        "s"
      ],
      [
        "u",
        "p"
      ],
      [
        "i",
        "a"
      ],
      [
        "9",
        "8"
      ],
      [
        "7",
        "5"
      ],
      [
        "f",
        "f"
      ],
      [
        "4",
        "4"
      ],
      [
        "h",
        "a"
      ],
      [
        "h",
        "e"
      ],
      [
        "6",
        "5"
      ],
      [
        "m",
        "ar"
      ],
      [
        "l",
        "u"
      ],
      [
        "j",
        "o"
      ],
      [
        "2",
        "7"
      ],
      [
        "2",
        "9"
      ],
      [
        "t",
        "er"
      ],
      [
        "st",
        "er"
      ],
      [
        "4",
        "3"
      ],
      [
        "d",
        "a"
      ],
      [
        "al",
        "l"
      ],
      [
        "m",
        "o"
      ],
      [
        "0",
        "7"
      ],
      [
        "il",
        "l"
      ],
      [
        "r",
        "u"
      ],
      [
        "w",
        "e"
      ],
      [
        "f",
        "or"
      ],
      [
        "g",
        "o"
      ],
      [
        "i",
        "p"
      ],
      [
        "h",
        "o"
      ],
      [
        "j",
        "a"
      ],
      [
        "0",
        "2"
      ],
      [
        "b",
        "er"
      ],
      [
        "c",
        "e"
      ],
      [
        "7",
        "4"
      ],
      [
        "6",
        "3"
      ],
      [
        "on",
        "e"
      ],
      [
        "6",
        "8"
      ],
      [
        "t",
        "y"
      ],
      [
        "t",
        "o"
      ],
      [
        "in",
        "e"
      ],
      [
        "s",
        "s"
      ],
      [
        "7",
        "3"
      ],
      [
        "d",
        "i"
      ],
      [
        "m",
        "i"
      ],
      [
        "m",
        "y"
      ],
      [
        "n",
        "o"
      ],
      [
        "el",
        "l"
      ],
      [
        "k",
        "a"
      ],
      [
        "s",
        "o"
      ],
      [
        "4",
        "8"
      ],
      [
        "g",
        "e"
      ],
      [
        "q",
        "u"
      ],
      [
        "i",
        "on"
      ],
      [
        "b",
        "a"
      ],
      [
        "f",
        "i"
      ],
      [
        "an",
        "t"
      ],
      [
        "6",
        "4"
      ],
      [
        "or",
        "d"
      ],
      [
        "n",
        "a"
      ],
      [
        "en",
        "t"
      ],
      [
        "3",
        "4"
      ],
      [
        "u",
        "ck"
      ],
      [
        "e",
        "p"
      ],
      [
        "m",
        "on"
      ],
      [
        "3",
        "5"
      ],
      [
        "s",
        "k"
      ],
      [
        "h",
        "t"
      ],
      [
        "ar",
        "d"
      ],
      [
        "f",
        "e"
      ],
      [
        "r",
        "y"
      ],
      [
        "s",
        "a"
      ],
      [
        "7",
        "6"
      ],
      [
        "u",
        "g"
      ],
      [
        "8",
        "9"
      ],
      [
        "p",
        "o"
      ],
      [
        "l",
        "y"
      ],
      [
        "8",
        "5"
      ],
      [
        "p",
        "ass"
      ],
      [
        "a",
        "z"
      ],
      [
        "k",
        "o"
      ],
      [
        "d",
        "er"
      ],
      [
        "p",
        "er"
      ],
      [
        "th",
        "e"
      ],
      [
        "b",
        "r"
      ],
      [
        "m",
        "in"
      ],
      [
        "i",
        "o"
      ],
      [
        "123",
        "4"
      ],
      [
        "t",
        "r"
      ],
      [
        "y",
        "o"
      ],
      [
        "19",
        "9"
      ],
      [
        "c",
        "a"
      ],
      [
        "3",
        "2"
      ],
      [
        "c",
        "ar"
      ],
      [
        "6",
        "7"
      ],
      [
        "n",
        "i"
      ],
      [
        "as",
        "h"
      ],
      [
        "j",
        "e"
      ],
      [
        "is",
        "h"
      ],
      [
        "5",
        "4"
      ],
      [
        "p",
        "a"
      ],
      [
        "le",
        "s"
      ],
      [
        "s",
        "on"
      ],
      [
        "t",
        "a"
      ],
      [
        "g",
        "u"
      ],
      [
        "ar",
        "k"
      ],
      [
        "es",
        "s"
      ],
      [
        "1",
        "00"
      ],
      [
        "co",
        "m"
      ],
      [
        "re",
        "d"
      ],
      [
        "l",
        "in"
      ],
      [
        "u",
        "d"
      ],
      [
        "8",
        "4"
      ],
      [
        "at",
        "h"
      ],
      [
        "s",
        "i"
      ],
      [
        "p",
        "e"
      ],
      [
        "8",
        "3"
      ],
      [
        "8",
        "7"
      ],
      [
        "ar",
        "t"
      ],
      [
        "s",
        "c"
      ],
      [
        "k",
        "i"
      ],
      [
        "z",
        "z"
      ],
      [
        "5",
        "6"
      ],
      [
        "a",
        "h"
      ],
      [
        "d",
        "y"
      ],
      [
        "3",
        "9"
      ],
      [
        "at",
        "e"
      ],
      [
        "8",
        "6"
      ],
      [
        "j",
        "u"
      ],
      [
        "7",
        "2"
      ],
      [
        "ch",
        "e"
      ],
      [
        "al",
        "e"
      ],
      [
        "er",
        "s"
      ],
      [
        "200",
        "0"
      ],
      [
        "4",
        "9"
      ],
      [
        "u",
        "b"
      ],
      [
        "w",
        "h"
      ],
      [
        "66",
        "6"
      ],
      [
        "on",
        "g"
      ],
      [
        "oo",
        "d"
      ],
      [
        "b",
        "la"
      ],
      [
        "5",
        "3"
      ],
      [
        "s",
        "w"
      ],
      [
        "v",
        "i"
      ],
      [
        "do",
        "g"
      ],
      [
        "p",
        "l"
      ],
      [
        "c",
        "at"
      ],
      [
        "f",
        "a"
      ],
      [
        "n",
        "y"
      ],
      [
        "c",
        "c"
      ],
      [
        "e",
        "k"
      ],
      [
        "123",
        "45"
      ],
      [
        "5",
        "9"
      ],
      [
        "s",
        "y"
      ],
      [
        "4",
        "7"
      ],
      [
        "k",
        "er"
      ],
      [
        "s",
        "m"
      ],
      [
        "f",
        "r"
      ],
      [
        "c",
        "t"
      ],
      [
        "x",
        "x"
      ],
      [
        "s",
        "n"
      ],
      [
        "v",
        "en"
      ],
      [
        "m",
        "at"
      ],
      [
        "4",
        "2"
      ],
      [
        "4",
        "6"
      ],
      [
        "m",
        "er"
      ],
      [
        "st",
        "ar"
      ],
      [
        "f",
        "re"
      ],
      [
        "0",
        "r"
      ],
      [
        "p",
        "i"
      ],
      [
        "il",
        "o"
      ],
      [
        "v",
        "a"
      ],
      [
        "u",
        "k"
      ],
      [
        "3",
        "6"
      ],
      [
        "t",
        "i"
      ],
      [
        "00",
        "7"
      ],
      [
        "9",
        "7"
      ],
      [
        "f",
        "l"
      ],
      [
        "w",
        "in"
      ],
      [
        "f",
        "t"
      ],
      [
        "o",
        "k"
      ],
      [
        "g",
        "r"
      ],
      [
        "st",
        "e"
      ],
      [
        "1",
        "n"
      ],
      [
        "b",
        "i"
      ],
      [
        "g",
        "er"
      ],
      [
        "f",
        "o"
      ],
      [
        "3",
        "0"
      ],
      [
        "bo",
        "y"
      ],
      [
        "ig",
        "ht"
      ],
      [
        "8",
        "2"
      ],
      [
        "ra",
        "g"
      ],
      [
        "s",
        "up"
      ],
      [
        "8",
        "0"
      ],
      [
        "d",
        "u"
      ],
      [
        "p",
        "y"
      ],
      [
        "c",
        "on"
      ],
      [
        "ke",
        "y"
      ],
      [
        "9",
        "0"
      ],
      [
        "e",
        "y"
      ],
      [
        "in",
        "a"
      ],
      [
        "3",
        "7"
      ],
      [
        "g",
        "i"
      ],
      [
        "t",
        "on"
      ],
      [
        "w",
        "ord"
      ],
      [
        "c",
        "y"
      ],
      [
        "d",
        "an"
      ],
      [
        "d",
        "f"
      ],
      [
        "e",
        "b"
      ],
      [
        "n",
        "et"
      ],
      [
        "9",
        "5"
      ],
      [
        "3",
        "1"
      ],
      [
        "a",
        "a"
      ],
      [
        "it",
        "e"
      ],
      [
        "h",
        "n"
      ],
      [
        "or",
        "e"
      ],
      [
        "7",
        "1"
      ],
      [
        "d",
        "r"
      ],
      [
        "g",
        "re"
      ],
      [
        "z",
        "a"
      ],
      [
        "b",
        "l"
      ],
      [
        "g",
        "a"
      ],
      [
        "q",
        "w"
      ],
      [
        "h",
        "an"
      ],
      [
        "b",
        "u"
      ],
      [
        "3",
        "r"
      ],
      [
        "or",
        "t"
      ],
      [
        "5",
        "8"
      ],
      [
        "b",
        "lu"
      ],
      [
        "s",
        "u"
      ],
      [
        "t",
        "t"
      ],
      [
        "b",
        "ar"
      ],
      [
        "c",
        "r"
      ],
      [
        "d",
        "d"
      ],
      [
        "w",
        "n"
      ],
      [
        "k",
        "y"
      ],
      [
        "p",
        "ro"
      ],
      [
        "1",
        "12"
      ],
      [
        "h",
        "u"
      ],
      [
        "0",
        "n"
      ],
      [
        "p",
        "le"
      ],
      [
        "w",
        "ar"
      ],
      [
        "3",
        "8"
      ],
      [
        "o",
        "g"
      ],
      [
        "b",
        "y"
      ],
      [
        "co",
        "ol"
      ],
      [
        "e",
        "e"
      ],
      [
        "h",
        "i"
      ],
      [
        "9",
        "2"
      ],
      [
        "j",
        "k"
      ],
      [
        "10",
        "1"
      ],
      [
        "5",
        "7"
      ],
      [
        "s",
        "ch"
      ],
      [
        "for",
        "um"
      ],
      [
        "s",
        "am"
      ],
      [
        "w",
        "i"
      ],
      [
        "o",
        "d"
      ],
      [
        "ad",
        "e"
      ],
      [
        "an",
        "a"
      ],
      [
        "p",
        "r"
      ],
      [
        "9",
        "6"
      ],
      [
        "c",
        "i"
      ],
      [
        "w",
        "a"
      ],
      [
        "5",
        "2"
      ],
      [
        "c",
        "u"
      ],
      [
        "er",
        "o"
      ],
      [
        "ma",
        "ster"
      ],
      [
        "s",
        "l"
      ],
      [
        "ch",
        "i"
      ],
      [
        "h",
        "el"
      ],
      [
        "7",
        "0"
      ],
      [
        "4",
        "0"
      ],
      [
        "e",
        "ver"
      ],
      [
        "an",
        "n"
      ],
      [
        "g",
        "g"
      ],
      [
        "j",
        "am"
      ],
      [
        "m",
        "u"
      ],
      [
        "b",
        "ab"
      ],
      [
        "it",
        "y"
      ],
      [
        "w",
        "or"
      ],
      [
        "ch",
        "a"
      ],
      [
        "d",
        "s"
      ],
      [
        "c",
        "l"
      ],
      [
        "f",
        "er"
      ],
      [
        "ro",
        "ck"
      ],
      [
        "z",
        "e"
      ],
      [
        "200",
        "2"
      ],
      [
        "9",
        "3"
      ],
      [
        "al",
        "i"
      ],
      [
        "h",
        "ar"
      ],
      [
        "k",
        "n"
      ],
      [
        "r",
        "is"
      ],
      [
        "f",
        "uck"
      ],
      [
        "a",
        "f"
      ],
      [
        "e",
        "v"
      ],
      [
        "p",
        "p"
      ],
      [
        "t",
        "im"
      ],
      [
        "8",
        "1"
      ],
      [
        "le",
        "y"
      ],
      [
        "5",
        "0"
      ],
      [
        "fi",
        "re"
      ],
      [
        "k",
        "s"
      ],
      [
        "lo",
        "ve"
      ],
      [
        "ol",
        "d"
      ],
      [
        "p",
        "en"
      ],
      [
        "g",
        "h"
      ],
      [
        "or",
        "n"
      ],
      [
        "sup",
        "er"
      ],
      [
        "A",
        "N"
      ],
      [
        "s",
        "er"
      ],
      [
        "200",
        "3"
      ],
      [
        "h",
        "er"
      ],
      [
        "i",
        "an"
      ],
      [
        "in",
        "t"
      ],
      [
        "p",
        "t"
      ],
      [
        "b",
        "oo"
      ],
      [
        "6",
        "2"
      ],
      [
        "c",
        "ra"
      ],
      [
        "s",
        "1"
      ],
      [
        "ma",
        "g"
      ],
      [
        "h",
        "am"
      ],
      [
        "lo",
        "w"
      ],
      [
        "p",
        "ar"
      ],
      [
        "ic",
        "e"
      ],
      [
        "9",
        "1"
      ],
      [
        "E",
        "R"
      ],
      [
        "a",
        "st"
      ],
      [
        "f",
        "ish"
      ],
      [
        "k",
        "ing"
      ],
      [
        "rag",
        "on"
      ],
      [
        "d",
        "el"
      ],
      [
        "e",
        "x"
      ],
      [
        "yo",
        "u"
      ],
      [
        "6",
        "0"
      ],
      [
        "a",
        "v"
      ],
      [
        "ar",
        "i"
      ],
      [
        "o",
        "u"
      ],
      [
        "t",
        "re"
      ],
      [
        "e",
        "c"
      ],
      [
        "en",
        "d"
      ],
      [
        "l",
        "l"
      ],
      [
        "4",
        "1"
      ],
      [
        "5",
        "1"
      ],
      [
        "it",
        "h"
      ],
      [
        "2",
        "k"
      ],
      [
        "b",
        "ur"
      ],
      [
        "un",
        "d"
      ],
      [
        "0",
        "10"
      ],
      [
        "a",
        "1"
      ],
      [
        "i",
        "am"
      ],
      [
        "om",
        "e"
      ],
      [
        "a",
        "u"
      ],
      [
        "l",
        "d"
      ],
      [
        "m",
        "m"
      ],
      [
        "un",
        "g"
      ],
      [
        "ac",
        "e"
      ],
      [
        "le",
        "t"
      ],
      [
        "9",
        "4"
      ],
      [
        "an",
        "e"
      ],
      [
        "b",
        "ig"
      ],
      [
        "he",
        "ad"
      ],
      [
        "200",
        "1"
      ],
      [
        "b",
        "ro"
      ],
      [
        "bla",
        "ck"
      ],
      [
        "o",
        "f"
      ],
      [
        "v",
        "in"
      ],
      [
        "y",
        "a"
      ],
      [
        "an",
        "k"
      ],
      [
        "v",
        "o"
      ],
      [
        "w",
        "s"
      ],
      [
        "200",
        "5"
      ],
      [
        "b",
        "all"
      ],
      [
        "m",
        "ad"
      ],
      [
        "t",
        "ra"
      ],
      [
        "us",
        "e"
      ],
      [
        "c",
        "d"
      ],
      [
        "200",
        "4"
      ],
      [
        "am",
        "e"
      ],
      [
        "i",
        "x"
      ],
      [
        "in",
        "k"
      ],
      [
        "p",
        "s"
      ],
      [
        "b",
        "en"
      ],
      [
        "ol",
        "l"
      ],
      [
        "y",
        "n"
      ],
      [
        "00",
        "0"
      ],
      [
        "m",
        "el"
      ],
      [
        "12345",
        "6"
      ],
      [
        "c",
        "re"
      ],
      [
        "p",
        "et"
      ],
      [
        "w",
        "il"
      ],
      [
        "we",
        "b"
      ],
      [
        "ad",
        "min"
      ],
      [
        "d",
        "b"
      ],
      [
        "g",
        "y"
      ],
      [
        "m",
        "et"
      ],
      [
        "e",
        "st"
      ],
      [
        "ic",
        "a"
      ],
      [
        "s",
        "im"
      ],
      [
        "d",
        "ark"
      ],
      [
        "in",
        "o"
      ],
      [
        "k",
        "r"
      ],
      [
        "li",
        "fe"
      ],
      [
        "s",
        "il"
      ],
      [
        "c",
        "an"
      ],
      [
        "c",
        "ol"
      ],
      [
        "d",
        "on"
      ],
      [
        "g",
        "en"
      ],
      [
        "t",
        "ri"
      ],
      [
        "t",
        "u"
      ],
      [
        "78",
        "9"
      ],
      [
        "00",
        "1"
      ],
      [
        "6",
        "1"
      ],
      [
        "e",
        "f"
      ],
      [
        "x",
        "y"
      ],
      [
        "198",
        "7"
      ],
      [
        "A",
        "R"
      ],
      [
        "f",
        "un"
      ],
      [
        "k",
        "ill"
      ],
      [
        "198",
        "5"
      ],
      [
        "ma",
        "x"
      ],
      [
        "i",
        "z"
      ],
      [
        "is",
        "s"
      ],
      [
        "198",
        "4"
      ],
      [
        "at",
        "er"
      ],
      [
        "k",
        "ar"
      ],
      [
        "w",
        "ood"
      ],
      [
        "w",
        "w"
      ],
      [
        "ang",
        "el"
      ],
      [
        "ilo",
        "ve"
      ],
      [
        "r",
        "on"
      ],
      [
        "z",
        "y"
      ],
      [
        "3",
        "d"
      ],
      [
        "c",
        "al"
      ],
      [
        "ol",
        "f"
      ],
      [
        "19",
        "88"
      ],
      [
        "77",
        "7"
      ],
      [
        "a",
        "w"
      ],
      [
        "b",
        "el"
      ],
      [
        "c",
        "am"
      ],
      [
        "it",
        "t"
      ],
      [
        "k",
        "k"
      ],
      [
        "s",
        "d"
      ],
      [
        "v",
        "an"
      ],
      [
        "11",
        "1"
      ],
      [
        "pass",
        "word"
      ],
      [
        "s",
        "en"
      ],
      [
        "198",
        "3"
      ],
      [
        "I",
        "N"
      ],
      [
        "d",
        "ragon"
      ],
      [
        "ir",
        "l"
      ],
      [
        "p",
        "ow"
      ],
      [
        "u",
        "x"
      ],
      [
        "a",
        "i"
      ],
      [
        "f",
        "c"
      ],
      [
        "g",
        "et"
      ],
      [
        "ja",
        "ck"
      ],
      [
        "m",
        "al"
      ],
      [
        "te",
        "st"
      ],
      [
        "a",
        "ch"
      ],
      [
        "go",
        "d"
      ],
      [
        "m",
        "c"
      ],
      [
        "p",
        "re"
      ],
      [
        "t",
        "om"
      ],
      [
        "t",
        "w"
      ],
      [
        "f",
        "ro"
      ],
      [
        "j",
        "i"
      ],
      [
        "at",
        "ion"
      ],
      [
        "ch",
        "o"
      ],
      [
        "jo",
        "hn"
      ],
      [
        "ne",
        "w"
      ],
      [
        "s",
        "un"
      ],
      [
        "t",
        "in"
      ],
      [
        "b",
        "ra"
      ],
      [
        "j",
        "n"
      ],
      [
        "qw",
        "er"
      ],
      [
        "s",
        "al"
      ],
      [
        "3",
        "21"
      ],
      [
        "g",
        "ar"
      ],
      [
        "l",
        "and"
      ],
      [
        "B",
        "B"
      ],
      [
        "b",
        "al"
      ],
      [
        "b",
        "or"
      ],
      [
        "i",
        "st"
      ],
      [
        "k",
        "en"
      ],
      [
        "45",
        "6"
      ],
      [
        "ck",
        "er"
      ],
      [
        "w",
        "al"
      ],
      [
        "3",
        "n"
      ],
      [
        "h",
        "ot"
      ],
      [
        "th",
        "er"
      ],
      [
        "*",
        "*"
      ],
      [
        "19",
        "79"
      ],
      [
        "198",
        "6"
      ],
      [
        "an",
        "o"
      ],
      [
        "b",
        "1"
      ],
      [
        "h",
        "ol"
      ],
      [
        "n",
        "er"
      ],
      [
        "s",
        "co"
      ],
      [
        "am",
        "a"
      ],
      [
        "b",
        "on"
      ],
      [
        "d",
        "en"
      ],
      [
        "h",
        "al"
      ],
      [
        "m",
        "r"
      ],
      [
        "t",
        "s"
      ],
      [
        "te",
        "ch"
      ],
      [
        "99",
        "9"
      ],
      [
        "c",
        "ro"
      ],
      [
        "k",
        "at"
      ],
      [
        "la",
        "y"
      ],
      [
        "m",
        "en"
      ],
      [
        "m",
        "or"
      ],
      [
        "p",
        "oo"
      ],
      [
        "s",
        "ol"
      ],
      [
        "l",
        "er"
      ],
      [
        "p",
        "ol"
      ],
      [
        "h",
        "y"
      ],
      [
        "m",
        "p"
      ],
      [
        "4",
        "r"
      ],
      [
        "ag",
        "e"
      ],
      [
        "b",
        "ut"
      ],
      [
        "z",
        "o"
      ],
      [
        "0",
        "20"
      ],
      [
        "a",
        "j"
      ],
      [
        "g",
        "ra"
      ],
      [
        "v",
        "el"
      ],
      [
        "v",
        "il"
      ],
      [
        "c",
        "or"
      ],
      [
        "d",
        "re"
      ],
      [
        "m",
        "s"
      ],
      [
        "p",
        "w"
      ],
      [
        "ri",
        "st"
      ],
      [
        "2",
        "10"
      ],
      [
        "200",
        "6"
      ],
      [
        "as",
        "e"
      ],
      [
        "b",
        "re"
      ],
      [
        "blu",
        "e"
      ],
      [
        "ir",
        "d"
      ],
      [
        "k",
        "u"
      ],
      [
        "m",
        "n"
      ],
      [
        "m",
        "us"
      ],
      [
        "p",
        "at"
      ],
      [
        "w",
        "ay"
      ],
      [
        "y",
        "1"
      ],
      [
        "4",
        "n"
      ],
      [
        "b",
        "lo"
      ],
      [
        "c",
        "0"
      ],
      [
        "d",
        "j"
      ],
      [
        "el",
        "e"
      ],
      [
        "k",
        "l"
      ],
      [
        "t",
        "or"
      ],
      [
        "A",
        "S"
      ],
      [
        "et",
        "h"
      ],
      [
        "i",
        "ck"
      ],
      [
        "j",
        "an"
      ],
      [
        "m",
        "il"
      ],
      [
        "j",
        "on"
      ],
      [
        "t",
        "ig"
      ],
      [
        "v",
        "is"
      ],
      [
        "198",
        "0"
      ],
      [
        "k",
        "in"
      ],
      [
        "4",
        "20"
      ],
      [
        "ad",
        "ow"
      ],
      [
        "ale",
        "x"
      ],
      [
        "d",
        "ay"
      ],
      [
        "g",
        "l"
      ],
      [
        "o",
        "ut"
      ],
      [
        "pow",
        "er"
      ],
      [
        "y",
        "s"
      ],
      [
        "z",
        "x"
      ],
      [
        "0",
        "12"
      ],
      [
        "b",
        "at"
      ],
      [
        "b",
        "c"
      ],
      [
        "ig",
        "h"
      ],
      [
        "r",
        "am"
      ],
      [
        "un",
        "t"
      ],
      [
        "3",
        "00"
      ],
      [
        "and",
        "y"
      ],
      [
        "ar",
        "a"
      ],
      [
        "b",
        "ri"
      ],
      [
        "mon",
        "key"
      ],
      [
        "t",
        "ur"
      ],
      [
        "4",
        "u"
      ],
      [
        "an",
        "s"
      ],
      [
        "j",
        "im"
      ],
      [
        "n",
        "or"
      ],
      [
        "ul",
        "l"
      ],
      [
        "19",
        "78"
      ],
      [
        "O",
        "N"
      ],
      [
        "d",
        "c"
      ],
      [
        "g",
        "al"
      ],
      [
        "g",
        "am"
      ],
      [
        "198",
        "9"
      ],
      [
        "bab",
        "y"
      ],
      [
        "g",
        "irl"
      ],
      [
        "198",
        "2"
      ],
      [
        "ar",
        "e"
      ],
      [
        "f",
        "u"
      ],
      [
        "i",
        "v"
      ],
      [
        "it",
        "a"
      ],
      [
        "sp",
        "e"
      ],
      [
        "y",
        "e"
      ],
      [
        "15",
        "9"
      ],
      [
        "198",
        "1"
      ],
      [
        "a",
        "x"
      ],
      [
        "c",
        "el"
      ],
      [
        "it",
        "o"
      ],
      [
        "o",
        "x"
      ],
      [
        "an",
        "i"
      ],
      [
        "b",
        "ad"
      ],
      [
        "gu",
        "y"
      ],
      [
        "j",
        "en"
      ],
      [
        "j",
        "j"
      ],
      [
        "st",
        "r"
      ],
      [
        "b",
        "d"
      ],
      [
        "d",
        "am"
      ],
      [
        "d",
        "ig"
      ],
      [
        "gre",
        "en"
      ],
      [
        "v",
        "al"
      ],
      [
        "a",
        "2"
      ],
      [
        "ch",
        "ar"
      ],
      [
        "d",
        "es"
      ],
      [
        "g",
        "an"
      ],
      [
        "i",
        "f"
      ],
      [
        "ol",
        "a"
      ],
      [
        "ol",
        "o"
      ],
      [
        "00",
        "00"
      ],
      [
        "4",
        "ever"
      ],
      [
        "it",
        "ch"
      ],
      [
        "ma",
        "c"
      ],
      [
        "p",
        "ap"
      ],
      [
        "t",
        "ro"
      ],
      [
        "el",
        "d"
      ],
      [
        "h",
        "at"
      ],
      [
        "j",
        "r"
      ],
      [
        "m",
        "ed"
      ],
      [
        "n",
        "ot"
      ],
      [
        "un",
        "k"
      ],
      [
        "bo",
        "b"
      ],
      [
        "ru",
        "les"
      ],
      [
        "w",
        "o"
      ],
      [
        "b",
        "le"
      ],
      [
        "el",
        "le"
      ],
      [
        "j",
        "er"
      ],
      [
        "j",
        "h"
      ],
      [
        "m",
        "l"
      ],
      [
        "p",
        "an"
      ],
      [
        "p",
        "u"
      ],
      [
        "st",
        "a"
      ],
      [
        "al",
        "ph"
      ],
      [
        "b",
        "in"
      ],
      [
        "ch",
        "er"
      ],
      [
        "e",
        "1"
      ],
      [
        "f",
        "ar"
      ],
      [
        "f",
        "d"
      ],
      [
        "g",
        "n"
      ],
      [
        "ill",
        "y"
      ],
      [
        "j",
        "es"
      ],
      [
        "l",
        "an"
      ],
      [
        "q",
        "q"
      ],
      [
        "st",
        "y"
      ],
      [
        "9",
        "11"
      ],
      [
        "b",
        "n"
      ],
      [
        "c",
        "ap"
      ],
      [
        "c",
        "s"
      ],
      [
        "e",
        "z"
      ],
      [
        "j",
        "d"
      ],
      [
        "l",
        "am"
      ],
      [
        "sil",
        "ver"
      ],
      [
        "us",
        "h"
      ],
      [
        "w",
        "r"
      ],
      [
        "b",
        "3"
      ],
      [
        "ma",
        "il"
      ],
      [
        "v",
        "id"
      ],
      [
        "4",
        "me"
      ],
      [
        "L",
        "L"
      ],
      [
        "b",
        "an"
      ],
      [
        "c",
        "er"
      ],
      [
        "f",
        "an"
      ],
      [
        "on",
        "y"
      ],
      [
        "t",
        "en"
      ],
      [
        "199",
        "0"
      ],
      [
        "en",
        "g"
      ],
      [
        "g",
        "ro"
      ],
      [
        "is",
        "e"
      ],
      [
        "ju",
        "st"
      ],
      [
        "m",
        "as"
      ],
      [
        "p",
        "1"
      ],
      [
        "p",
        "c"
      ],
      [
        "p",
        "op"
      ],
      [
        "r",
        "ad"
      ],
      [
        "v",
        "es"
      ],
      [
        "0",
        "11"
      ],
      [
        "d",
        "1"
      ],
      [
        "d",
        "3"
      ],
      [
        "k",
        "1"
      ],
      [
        "l",
        "ad"
      ],
      [
        "mi",
        "ke"
      ],
      [
        "s",
        "r"
      ],
      [
        "un",
        "der"
      ],
      [
        "2",
        "12"
      ],
      [
        "A",
        "n"
      ],
      [
        "and",
        "re"
      ],
      [
        "f",
        "red"
      ],
      [
        "sh",
        "adow"
      ],
      [
        "y",
        "u"
      ],
      [
        "2",
        "13"
      ],
      [
        "S",
        "T"
      ],
      [
        "b",
        "m"
      ],
      [
        "c",
        "v"
      ],
      [
        "d",
        "is"
      ],
      [
        "h",
        "or"
      ],
      [
        "ip",
        "er"
      ],
      [
        "k",
        "al"
      ],
      [
        "n",
        "ik"
      ],
      [
        "p",
        "ut"
      ],
      [
        "w",
        "olf"
      ],
      [
        "z",
        "u"
      ],
      [
        "ch",
        "ris"
      ],
      [
        "g",
        "old"
      ],
      [
        "g",
        "ood"
      ],
      [
        "i",
        "re"
      ],
      [
        "im",
        "e"
      ],
      [
        "m",
        "1"
      ],
      [
        "s",
        "an"
      ],
      [
        "st",
        "o"
      ],
      [
        "0",
        "t"
      ],
      [
        "3",
        "t"
      ],
      [
        "A",
        "M"
      ],
      [
        "ber",
        "t"
      ],
      [
        "ck",
        "y"
      ],
      [
        "j",
        "as"
      ],
      [
        "m",
        "oo"
      ],
      [
        "qwer",
        "ty"
      ],
      [
        "r",
        "en"
      ],
      [
        "A",
        "T"
      ],
      [
        "E",
        "N"
      ],
      [
        "O",
        "R"
      ],
      [
        "b",
        "f"
      ],
      [
        "d",
        "0"
      ],
      [
        "em",
        "an"
      ],
      [
        "f",
        "lo"
      ],
      [
        "f",
        "oo"
      ],
      [
        "in",
        "i"
      ],
      [
        "ing",
        "er"
      ],
      [
        "s",
        "at"
      ],
      [
        "t",
        "ar"
      ],
      [
        "14",
        "3"
      ],
      [
        "f",
        "1"
      ],
      [
        "k",
        "id"
      ],
      [
        "n",
        "n"
      ],
      [
        "n",
        "u"
      ],
      [
        "ni",
        "ck"
      ],
      [
        "on",
        "d"
      ],
      [
        "t",
        "ru"
      ],
      [
        "v",
        "y"
      ],
      [
        "b",
        "et"
      ],
      [
        "c",
        "as"
      ],
      [
        "c",
        "le"
      ],
      [
        "d",
        "om"
      ],
      [
        "e",
        "u"
      ],
      [
        "f",
        "at"
      ],
      [
        "h",
        "ell"
      ],
      [
        "i",
        "ch"
      ],
      [
        "j",
        "s"
      ],
      [
        "lo",
        "g"
      ],
      [
        "t",
        "op"
      ],
      [
        "19",
        "77"
      ],
      [
        "4",
        "e"
      ],
      [
        "al",
        "a"
      ],
      [
        "b",
        "ird"
      ],
      [
        "c",
        "3"
      ],
      [
        "el",
        "o"
      ],
      [
        "er",
        "e"
      ],
      [
        "in",
        "s"
      ],
      [
        "in",
        "ter"
      ],
      [
        "j",
        "l"
      ],
      [
        "p",
        "as"
      ],
      [
        "12",
        "5"
      ],
      [
        "b",
        "s"
      ],
      [
        "g",
        "oo"
      ],
      [
        "i",
        "h"
      ],
      [
        "k",
        "h"
      ],
      [
        "200",
        "7"
      ],
      [
        "A",
        "C"
      ],
      [
        "a",
        "e"
      ],
      [
        "ar",
        "o"
      ],
      [
        "d",
        "ie"
      ],
      [
        "d",
        "m"
      ],
      [
        "n",
        "ow"
      ],
      [
        "p",
        "ep"
      ],
      [
        "r",
        "r"
      ],
      [
        "ri",
        "x"
      ],
      [
        "st",
        "u"
      ],
      [
        "y",
        "l"
      ],
      [
        "at",
        "o"
      ],
      [
        "im",
        "p"
      ],
      [
        "m",
        "3"
      ],
      [
        "re",
        "e"
      ],
      [
        "s",
        "ar"
      ],
      [
        "t",
        "n"
      ],
      [
        "u",
        "st"
      ],
      [
        "z",
        "i"
      ],
      [
        "10",
        "10"
      ],
      [
        "11",
        "11"
      ],
      [
        "b",
        "0"
      ],
      [
        "be",
        "ar"
      ],
      [
        "f",
        "ly"
      ],
      [
        "fre",
        "e"
      ],
      [
        "g",
        "1"
      ],
      [
        "g",
        "s"
      ],
      [
        "li",
        "p"
      ],
      [
        "m",
        "ic"
      ],
      [
        "w",
        "t"
      ],
      [
        "19",
        "75"
      ],
      [
        "d",
        "ad"
      ],
      [
        "j",
        "ay"
      ],
      [
        "j",
        "un"
      ],
      [
        "jam",
        "es"
      ],
      [
        "m",
        "ot"
      ],
      [
        "p",
        "b"
      ],
      [
        "re",
        "al"
      ],
      [
        "s",
        "2"
      ],
      [
        "sh",
        "i"
      ],
      [
        "sh",
        "it"
      ],
      [
        "wor",
        "ld"
      ],
      [
        "c",
        "f"
      ],
      [
        "d",
        "2"
      ],
      [
        "h",
        "om"
      ],
      [
        "in",
        "d"
      ],
      [
        "j",
        "m"
      ],
      [
        "k",
        "an"
      ],
      [
        "mag",
        "ic"
      ],
      [
        "n",
        "ie"
      ],
      [
        "r",
        "0"
      ],
      [
        "ru",
        "le"
      ],
      [
        "w",
        "ater"
      ],
      [
        "z",
        "er"
      ],
      [
        "12",
        "8"
      ],
      [
        "19",
        "69"
      ],
      [
        "A",
        "D"
      ],
      [
        "at",
        "or"
      ],
      [
        "b",
        "as"
      ],
      [
        "ck",
        "s"
      ],
      [
        "hel",
        "lo"
      ],
      [
        "i",
        "ke"
      ],
      [
        "mo",
        "on"
      ],
      [
        "o",
        "v"
      ],
      [
        "ol",
        "i"
      ],
      [
        "p",
        "or"
      ],
      [
        "t",
        "1"
      ],
      [
        "uck",
        "s"
      ],
      [
        "us",
        "er"
      ],
      [
        "88",
        "8"
      ],
      [
        "an",
        "ce"
      ],
      [
        "b",
        "ug"
      ],
      [
        "bo",
        "ard"
      ],
      [
        "f",
        "ri"
      ],
      [
        "f",
        "y"
      ],
      [
        "g",
        "un"
      ],
      [
        "h",
        "ap"
      ],
      [
        "n",
        "1"
      ],
      [
        "n",
        "ess"
      ],
      [
        "qu",
        "e"
      ],
      [
        "s",
        "ur"
      ],
      [
        "u",
        "i"
      ],
      [
        "u",
        "re"
      ],
      [
        "23",
        "3"
      ],
      [
        "a",
        "9"
      ],
      [
        "ac",
        "c"
      ],
      [
        "b",
        "8"
      ],
      [
        "ba",
        "ck"
      ],
      [
        "ha",
        "ck"
      ],
      [
        "ho",
        "use"
      ],
      [
        "k",
        "3"
      ],
      [
        "k",
        "am"
      ],
      [
        "k",
        "el"
      ],
      [
        "l",
        "il"
      ],
      [
        "l",
        "ine"
      ],
      [
        "ma",
        "y"
      ],
      [
        "n",
        "at"
      ],
      [
        "o",
        "c"
      ],
      [
        "p",
        "ie"
      ],
      [
        "st",
        "or"
      ],
      [
        "u",
        "v"
      ],
      [
        "w",
        "er"
      ],
      [
        "x",
        "p"
      ],
      [
        "0",
        "13"
      ],
      [
        "19",
        "76"
      ],
      [
        "199",
        "1"
      ],
      [
        "ad",
        "a"
      ],
      [
        "ap",
        "ple"
      ],
      [
        "co",
        "w"
      ],
      [
        "d",
        "ar"
      ],
      [
        "h",
        "h"
      ],
      [
        "ik",
        "a"
      ],
      [
        "il",
        "la"
      ],
      [
        "is",
        "a"
      ],
      [
        "k",
        "it"
      ],
      [
        "mar",
        "k"
      ],
      [
        "o",
        "ff"
      ],
      [
        "one",
        "y"
      ],
      [
        "p",
        "ort"
      ],
      [
        "ra",
        "y"
      ],
      [
        "t",
        "m"
      ],
      [
        "v",
        "ol"
      ],
      [
        "98",
        "7"
      ],
      [
        "I",
        "C"
      ],
      [
        "P",
        "H"
      ],
      [
        "R",
        "E"
      ],
      [
        "b",
        "2"
      ],
      [
        "b",
        "ud"
      ],
      [
        "be",
        "st"
      ],
      [
        "c",
        "lo"
      ],
      [
        "ch",
        "en"
      ],
      [
        "d",
        "ra"
      ],
      [
        "en",
        "a"
      ],
      [
        "f",
        "m"
      ],
      [
        "k",
        "im"
      ],
      [
        "o",
        "le"
      ],
      [
        "op",
        "en"
      ],
      [
        "q",
        "az"
      ],
      [
        "ri",
        "ck"
      ],
      [
        "u",
        "ra"
      ],
      [
        "33",
        "3"
      ],
      [
        "L",
        "E"
      ],
      [
        "a",
        "5"
      ],
      [
        "as",
        "d"
      ],
      [
        "bo",
        "x"
      ],
      [
        "d",
        "at"
      ],
      [
        "d",
        "oo"
      ],
      [
        "e",
        "ar"
      ],
      [
        "em",
        "e"
      ],
      [
        "en",
        "e"
      ],
      [
        "f",
        "4"
      ],
      [
        "g",
        "t"
      ],
      [
        "h",
        "r"
      ],
      [
        "i",
        "de"
      ],
      [
        "si",
        "de"
      ],
      [
        "tig",
        "er"
      ],
      [
        "v",
        "ic"
      ],
      [
        "w",
        "k"
      ],
      [
        "w",
        "l"
      ],
      [
        "12",
        "1"
      ],
      [
        "3",
        "14"
      ],
      [
        "55",
        "5"
      ],
      [
        "78",
        "6"
      ],
      [
        "a",
        "4"
      ],
      [
        "b",
        "4"
      ],
      [
        "c",
        "m"
      ],
      [
        "kill",
        "er"
      ],
      [
        "o",
        "ver"
      ],
      [
        "ow",
        "n"
      ],
      [
        "um",
        "p"
      ],
      [
        "ab",
        "c"
      ],
      [
        "ad",
        "o"
      ],
      [
        "c",
        "b"
      ],
      [
        "c",
        "in"
      ],
      [
        "es",
        "e"
      ],
      [
        "ne",
        "y"
      ],
      [
        "p",
        "m"
      ],
      [
        "ri",
        "ch"
      ],
      [
        "sk",
        "i"
      ],
      [
        "w",
        "d"
      ],
      [
        "12",
        "0"
      ],
      [
        "19",
        "73"
      ],
      [
        "a",
        "8"
      ],
      [
        "and",
        "er"
      ],
      [
        "b",
        "ol"
      ],
      [
        "dre",
        "am"
      ],
      [
        "f",
        "el"
      ],
      [
        "fre",
        "ak"
      ],
      [
        "g",
        "f"
      ],
      [
        "i",
        "i"
      ],
      [
        "ing",
        "s"
      ],
      [
        "it",
        "s"
      ],
      [
        "l",
        "as"
      ],
      [
        "l",
        "or"
      ],
      [
        "m",
        "is"
      ],
      [
        "m",
        "un"
      ],
      [
        "mat",
        "t"
      ],
      [
        "n",
        "um"
      ],
      [
        "t",
        "an"
      ],
      [
        "w",
        "3"
      ],
      [
        "y",
        "an"
      ],
      [
        "12",
        "4"
      ],
      [
        "19",
        "74"
      ],
      [
        "2",
        "11"
      ],
      [
        "M",
        "E"
      ],
      [
        "T",
        "H"
      ],
      [
        "co",
        "de"
      ],
      [
        "i",
        "es"
      ],
      [
        "j",
        "c"
      ],
      [
        "l",
        "1"
      ],
      [
        "l",
        "ight"
      ],
      [
        "le",
        "e"
      ],
      [
        "p",
        "ark"
      ],
      [
        "p",
        "lay"
      ],
      [
        "r",
        "1"
      ],
      [
        "sk",
        "y"
      ],
      [
        "st",
        "in"
      ],
      [
        "w",
        "1"
      ],
      [
        "y",
        "y"
      ],
      [
        "12",
        "12"
      ],
      [
        "3",
        "10"
      ],
      [
        "b",
        "un"
      ],
      [
        "de",
        "ath"
      ],
      [
        "fo",
        "x"
      ],
      [
        "g",
        "ri"
      ],
      [
        "hel",
        "p"
      ],
      [
        "i",
        "ra"
      ],
      [
        "n",
        "ut"
      ],
      [
        "p",
        "al"
      ],
      [
        "p",
        "ur"
      ],
      [
        "t",
        "am"
      ],
      [
        "th",
        "is"
      ],
      [
        "we",
        "et"
      ],
      [
        "45",
        "5"
      ],
      [
        "6",
        "00"
      ],
      [
        "a",
        "3"
      ],
      [
        "ak",
        "a"
      ],
      [
        "cy",
        "ber"
      ],
      [
        "d",
        "ro"
      ],
      [
        "dan",
        "i"
      ],
      [
        "ff",
        "y"
      ],
      [
        "h",
        "ard"
      ],
      [
        "h",
        "en"
      ],
      [
        "i",
        "b"
      ],
      [
        "in",
        "c"
      ],
      [
        "l",
        "ar"
      ],
      [
        "m",
        "om"
      ],
      [
        "o",
        "e"
      ],
      [
        "ot",
        "o"
      ],
      [
        "p",
        "ri"
      ],
      [
        "r",
        "at"
      ],
      [
        "s",
        "ab"
      ],
      [
        "tim",
        "e"
      ],
      [
        "us",
        "s"
      ],
      [
        "11",
        "3"
      ],
      [
        "a",
        "ir"
      ],
      [
        "b",
        "h"
      ],
      [
        "c",
        "1"
      ],
      [
        "f",
        "in"
      ],
      [
        "f",
        "le"
      ],
      [
        "l",
        "3"
      ],
      [
        "lo",
        "ck"
      ],
      [
        "me",
        "g"
      ],
      [
        "me",
        "in"
      ],
      [
        "n",
        "am"
      ],
      [
        "n",
        "ight"
      ],
      [
        "o",
        "z"
      ],
      [
        "p",
        "4"
      ],
      [
        "p",
        "la"
      ],
      [
        "r",
        "an"
      ],
      [
        "s",
        "3"
      ],
      [
        "t",
        "em"
      ],
      [
        "t",
        "k"
      ],
      [
        "we",
        "st"
      ],
      [
        "x",
        "t"
      ],
      [
        "13",
        "5"
      ],
      [
        "19",
        "99"
      ],
      [
        "2",
        "e"
      ],
      [
        "a",
        "7"
      ],
      [
        "b",
        "ill"
      ],
      [
        "c",
        "n"
      ],
      [
        "du",
        "de"
      ],
      [
        "es",
        "h"
      ],
      [
        "f",
        "al"
      ],
      [
        "ig",
        "n"
      ],
      [
        "jo",
        "sh"
      ],
      [
        "m",
        "ill"
      ],
      [
        "o",
        "b"
      ],
      [
        "om",
        "an"
      ],
      [
        "php",
        "BB"
      ],
      [
        "ro",
        "s"
      ],
      [
        "un",
        "ter"
      ],
      [
        "v",
        "em"
      ],
      [
        "!",
        "!"
      ],
      [
        "23",
        "4"
      ],
      [
        "C",
        "H"
      ],
      [
        "O",
        "L"
      ],
      [
        "am",
        "an"
      ],
      [
        "b",
        "7"
      ],
      [
        "b",
        "t"
      ],
      [
        "c",
        "ent"
      ],
      [
        "c",
        "j"
      ],
      [
        "d",
        "k"
      ],
      [
        "ell",
        "y"
      ],
      [
        "f",
        "j"
      ],
      [
        "f",
        "v"
      ],
      [
        "g",
        "d"
      ],
      [
        "h",
        "3"
      ],
      [
        "i",
        "co"
      ],
      [
        "l",
        "0"
      ],
      [
        "n",
        "t"
      ],
      [
        "p",
        "ot"
      ],
      [
        "q",
        "we"
      ],
      [
        "t",
        "al"
      ],
      [
        "w",
        "y"
      ],
      [
        "wh",
        "at"
      ],
      [
        "199",
        "2"
      ],
      [
        "43",
        "21"
      ],
      [
        "A",
        "L"
      ],
      [
        "E",
        "L"
      ],
      [
        "ath",
        "er"
      ],
      [
        "da",
        "vid"
      ],
      [
        "de",
        "ad"
      ],
      [
        "et",
        "te"
      ],
      [
        "g",
        "ht"
      ],
      [
        "jo",
        "e"
      ],
      [
        "k",
        "on"
      ],
      [
        "l",
        "ong"
      ],
      [
        "n",
        "d"
      ],
      [
        "o",
        "h"
      ],
      [
        "p",
        "0"
      ],
      [
        "u",
        "ch"
      ],
      [
        "S",
        "S"
      ],
      [
        "am",
        "p"
      ],
      [
        "ang",
        "er"
      ],
      [
        "c",
        "4"
      ],
      [
        "f",
        "3"
      ],
      [
        "f",
        "9"
      ],
      [
        "f",
        "ace"
      ],
      [
        "f",
        "en"
      ],
      [
        "f",
        "la"
      ],
      [
        "f",
        "s"
      ],
      [
        "for",
        "d"
      ],
      [
        "hap",
        "py"
      ],
      [
        "i",
        "ve"
      ],
      [
        "i",
        "w"
      ],
      [
        "id",
        "er"
      ],
      [
        "k",
        "4"
      ],
      [
        "k",
        "as"
      ],
      [
        "m",
        "am"
      ],
      [
        "m",
        "ik"
      ],
      [
        "n",
        "3"
      ],
      [
        "r",
        "3"
      ],
      [
        "r",
        "d"
      ],
      [
        "st",
        "on"
      ],
      [
        "t",
        "3"
      ],
      [
        "t",
        "z"
      ],
      [
        "7",
        "e"
      ],
      [
        "I",
        "T"
      ],
      [
        "a",
        "6"
      ],
      [
        "ab",
        "le"
      ],
      [
        "al",
        "o"
      ],
      [
        "c",
        "ia"
      ],
      [
        "c",
        "ut"
      ],
      [
        "ck",
        "en"
      ],
      [
        "d",
        "ir"
      ],
      [
        "e",
        "g"
      ],
      [
        "g",
        "m"
      ],
      [
        "k",
        "m"
      ],
      [
        "l",
        "ol"
      ],
      [
        "l",
        "ord"
      ],
      [
        "op",
        "er"
      ],
      [
        "p",
        "in"
      ],
      [
        "r",
        "h"
      ],
      [
        "sh",
        "a"
      ],
      [
        "t",
        "0"
      ],
      [
        "u",
        "e"
      ],
      [
        "u",
        "th"
      ],
      [
        ".",
        "com"
      ],
      [
        "10",
        "4"
      ],
      [
        "11",
        "0"
      ],
      [
        "24",
        "6"
      ],
      [
        "P",
        "ass"
      ],
      [
        "a",
        "ut"
      ],
      [
        "ag",
        "a"
      ],
      [
        "ak",
        "er"
      ],
      [
        "am",
        "er"
      ],
      [
        "as",
        "df"
      ],
      [
        "d",
        "ing"
      ],
      [
        "f",
        "2"
      ],
      [
        "f",
        "b"
      ],
      [
        "fa",
        "st"
      ],
      [
        "g",
        "w"
      ],
      [
        "i",
        "us"
      ],
      [
        "ir",
        "on"
      ],
      [
        "jes",
        "us"
      ],
      [
        "l",
        "ing"
      ],
      [
        "le",
        "g"
      ],
      [
        "m",
        "0"
      ],
      [
        "or",
        "a"
      ],
      [
        "ph",
        "il"
      ],
      [
        "r",
        "un"
      ],
      [
        "ro",
        "ad"
      ],
      [
        "s",
        "4"
      ],
      [
        "s",
        "qu"
      ],
      [
        "st",
        "re"
      ],
      [
        "t",
        "le"
      ],
      [
        "19",
        "68"
      ],
      [
        "2",
        "23"
      ],
      [
        "25",
        "0"
      ],
      [
        "f",
        "g"
      ],
      [
        "f",
        "x"
      ],
      [
        "g",
        "or"
      ],
      [
        "i",
        "1"
      ],
      [
        "i",
        "en"
      ],
      [
        "j",
        "v"
      ],
      [
        "l",
        "ie"
      ],
      [
        "n",
        "in"
      ],
      [
        "ol",
        "ly"
      ],
      [
        "r",
        "ing"
      ],
      [
        "s",
        "0"
      ],
      [
        "se",
        "x"
      ],
      [
        "u",
        "a"
      ],
      [
        "w",
        "el"
      ],
      [
        "w",
        "ell"
      ],
      [
        "y",
        "d"
      ],
      [
        "10",
        "3"
      ],
      [
        "11",
        "7"
      ],
      [
        "18",
        "7"
      ],
      [
        "20",
        "3"
      ],
      [
        "5",
        "00"
      ],
      [
        "65",
        "4"
      ],
      [
        "S",
        "H"
      ],
      [
        "an",
        "th"
      ],
      [
        "b",
        "9"
      ],
      [
        "b",
        "om"
      ],
      [
        "c",
        "9"
      ],
      [
        "ch",
        "an"
      ],
      [
        "da",
        "ve"
      ],
      [
        "el",
        "a"
      ],
      [
        "fr",
        "an"
      ],
      [
        "h",
        "op"
      ],
      [
        "pa",
        "ul"
      ],
      [
        "ra",
        "in"
      ],
      [
        "spe",
        "ed"
      ],
      [
        "th",
        "om"
      ],
      [
        "v",
        "et"
      ],
      [
        "v",
        "u"
      ],
      [
        "w",
        "at"
      ],
      [
        "w",
        "q"
      ],
      [
        "y",
        "p"
      ],
      [
        "11",
        "4"
      ],
      [
        "13",
        "2"
      ],
      [
        "D",
        "E"
      ],
      [
        "S",
        "U"
      ],
      [
        "ak",
        "i"
      ],
      [
        "am",
        "i"
      ],
      [
        "but",
        "t"
      ],
      [
        "c",
        "la"
      ],
      [
        "c",
        "x"
      ],
      [
        "g",
        "0"
      ],
      [
        "g",
        "le"
      ],
      [
        "ic",
        "s"
      ],
      [
        "it",
        "al"
      ],
      [
        "l",
        "on"
      ],
      [
        "li",
        "am"
      ],
      [
        "met",
        "al"
      ],
      [
        "o",
        "on"
      ],
      [
        "on",
        "t"
      ],
      [
        "r",
        "l"
      ],
      [
        "ra",
        "c"
      ],
      [
        "ry",
        "an"
      ],
      [
        "v",
        "ie"
      ],
      [
        "11",
        "8"
      ],
      [
        "19",
        "71"
      ],
      [
        "6",
        "e"
      ],
      [
        "A",
        "K"
      ],
      [
        "b",
        "5"
      ],
      [
        "b",
        "uck"
      ],
      [
        "b",
        "ul"
      ],
      [
        "c",
        "2"
      ],
      [
        "ch",
        "rist"
      ],
      [
        "d",
        "4"
      ],
      [
        "el",
        "i"
      ],
      [
        "el",
        "la"
      ],
      [
        "f",
        "n"
      ],
      [
        "fi",
        "eld"
      ],
      [
        "g",
        "el"
      ],
      [
        "g",
        "in"
      ],
      [
        "i",
        "j"
      ],
      [
        "j",
        "ed"
      ],
      [
        "l",
        "en"
      ],
      [
        "m",
        "and"
      ],
      [
        "m",
        "em"
      ],
      [
        "m",
        "it"
      ],
      [
        "p",
        "ip"
      ],
      [
        "r",
        "il"
      ],
      [
        "r",
        "t"
      ],
      [
        "s",
        "and"
      ],
      [
        "s",
        "ub"
      ],
      [
        "s",
        "um"
      ],
      [
        "sh",
        "ar"
      ],
      [
        "st",
        "one"
      ],
      [
        "v",
        "ar"
      ],
      [
        "v",
        "ed"
      ],
      [
        "v",
        "iper"
      ],
      [
        "0",
        "15"
      ],
      [
        "17",
        "5"
      ],
      [
        "A",
        "P"
      ],
      [
        "E",
        "T"
      ],
      [
        "I",
        "L"
      ],
      [
        "an",
        "im"
      ],
      [
        "c",
        "5"
      ],
      [
        "cc",
        "er"
      ],
      [
        "d",
        "ge"
      ],
      [
        "d",
        "in"
      ],
      [
        "e",
        "7"
      ],
      [
        "el",
        "lo"
      ],
      [
        "en",
        "ter"
      ],
      [
        "f",
        "5"
      ],
      [
        "h",
        "p"
      ],
      [
        "he",
        "art"
      ],
      [
        "ho",
        "st"
      ],
      [
        "i",
        "er"
      ],
      [
        "i",
        "ro"
      ],
      [
        "k",
        "c"
      ],
      [
        "le",
        "ss"
      ],
      [
        "li",
        "on"
      ],
      [
        "lu",
        "v"
      ],
      [
        "m",
        "2"
      ],
      [
        "m",
        "b"
      ],
      [
        "m",
        "ul"
      ],
      [
        "n",
        "is"
      ],
      [
        "w",
        "ill"
      ],
      [
        "0",
        "14"
      ],
      [
        "0",
        "22"
      ],
      [
        "12",
        "2"
      ],
      [
        "15",
        "5"
      ],
      [
        "19",
        "72"
      ],
      [
        "3",
        "45"
      ],
      [
        "C",
        "O"
      ],
      [
        "M",
        "A"
      ],
      [
        "R",
        "I"
      ],
      [
        "and",
        "a"
      ],
      [
        "ber",
        "g"
      ],
      [
        "ch",
        "at"
      ],
      [
        "d",
        "h"
      ],
      [
        "d",
        "ri"
      ],
      [
        "e",
        "9"
      ],
      [
        "en",
        "s"
      ],
      [
        "et",
        "er"
      ],
      [
        "et",
        "t"
      ],
      [
        "g",
        "3"
      ],
      [
        "j",
        "ak"
      ],
      [
        "k",
        "j"
      ],
      [
        "l",
        "t"
      ],
      [
        "m",
        "4"
      ],
      [
        "mar",
        "t"
      ],
      [
        "ne",
        "ver"
      ],
      [
        "o",
        "1"
      ],
      [
        "s",
        "as"
      ],
      [
        "s",
        "om"
      ],
      [
        "s",
        "weet"
      ],
      [
        "s",
        "x"
      ],
      [
        "so",
        "ft"
      ],
      [
        "z",
        "en"
      ],
      [
        "0r",
        "d"
      ],
      [
        "1",
        "45"
      ],
      [
        "13",
        "3"
      ],
      [
        "19",
        "65"
      ],
      [
        "77",
        "77"
      ],
      [
        "A",
        "A"
      ],
      [
        "C",
        "h"
      ],
      [
        "D",
        "O"
      ],
      [
        "an",
        "na"
      ],
      [
        "b",
        "j"
      ],
      [
        "c",
        "8"
      ],
      [
        "c",
        "ur"
      ],
      [
        "d",
        "or"
      ],
      [
        "d",
        "v"
      ],
      [
        "e",
        "h"
      ],
      [
        "et",
        "a"
      ],
      [
        "ev",
        "il"
      ],
      [
        "f",
        "0"
      ],
      [
        "for",
        "ever"
      ],
      [
        "g",
        "ame"
      ],
      [
        "g",
        "ol"
      ],
      [
        "g",
        "ot"
      ],
      [
        "h",
        "4"
      ],
      [
        "i",
        "9"
      ],
      [
        "j",
        "t"
      ],
      [
        "k",
        "w"
      ],
      [
        "lin",
        "ux"
      ],
      [
        "man",
        "1"
      ],
      [
        "mu",
        "st"
      ],
      [
        "n",
        "an"
      ],
      [
        "n",
        "it"
      ],
      [
        "n",
        "x"
      ],
      [
        "o",
        "y"
      ],
      [
        "p",
        "os"
      ],
      [
        "pet",
        "er"
      ],
      [
        "q",
        "2"
      ],
      [
        "s",
        "in"
      ],
      [
        "s",
        "na"
      ],
      [
        "s",
        "us"
      ],
      [
        "se",
        "cre"
      ],
      [
        "sn",
        "ow"
      ],
      [
        "u",
        "de"
      ],
      [
        "u",
        "ri"
      ],
      [
        "u",
        "y"
      ],
      [
        "u",
        "z"
      ],
      [
        ".",
        "."
      ],
      [
        "0",
        "18"
      ],
      [
        "18",
        "2"
      ],
      [
        "20",
        "5"
      ],
      [
        "a",
        "bb"
      ],
      [
        "a",
        "ck"
      ],
      [
        "ap",
        "p"
      ],
      [
        "b",
        "am"
      ],
      [
        "b",
        "ull"
      ],
      [
        "c",
        "ity"
      ],
      [
        "ca",
        "st"
      ],
      [
        "ck",
        "ey"
      ],
      [
        "co",
        "p"
      ],
      [
        "d",
        "l"
      ],
      [
        "e",
        "ch"
      ],
      [
        "e",
        "w"
      ],
      [
        "f",
        "7"
      ],
      [
        "f",
        "h"
      ],
      [
        "f",
        "il"
      ],
      [
        "f",
        "w"
      ],
      [
        "g",
        "as"
      ],
      [
        "g",
        "p"
      ],
      [
        "g",
        "ur"
      ],
      [
        "h",
        "ill"
      ],
      [
        "i",
        "ma"
      ],
      [
        "ic",
        "al"
      ],
      [
        "it",
        "er"
      ],
      [
        "j",
        "ess"
      ],
      [
        "l",
        "at"
      ],
      [
        "m",
        "oney"
      ],
      [
        "m",
        "t"
      ],
      [
        "n",
        "es"
      ],
      [
        "o",
        "2"
      ],
      [
        "p",
        "n"
      ],
      [
        "rock",
        "s"
      ],
      [
        "sh",
        "e"
      ],
      [
        "ug",
        "h"
      ],
      [
        "w",
        "ing"
      ],
      [
        "win",
        "d"
      ],
      [
        "wor",
        "k"
      ],
      [
        "x",
        "i"
      ],
      [
        "y",
        "123"
      ],
      [
        "1",
        "c"
      ],
      [
        "10",
        "8"
      ],
      [
        "13",
        "13"
      ],
      [
        "15",
        "0"
      ],
      [
        "19",
        "7"
      ],
      [
        "25",
        "5"
      ],
      [
        "E",
        "M"
      ],
      [
        "G",
        "G"
      ],
      [
        "ad",
        "am"
      ],
      [
        "an",
        "ne"
      ],
      [
        "ar",
        "y"
      ],
      [
        "as",
        "a"
      ],
      [
        "b",
        "ed"
      ],
      [
        "b",
        "us"
      ],
      [
        "bu",
        "bb"
      ],
      [
        "d",
        "g"
      ],
      [
        "ed",
        "og"
      ],
      [
        "fro",
        "g"
      ],
      [
        "h",
        "igh"
      ],
      [
        "k",
        "ie"
      ],
      [
        "m",
        "ent"
      ],
      [
        "re",
        "t"
      ],
      [
        "st",
        "em"
      ],
      [
        "t",
        "ot"
      ],
      [
        "t",
        "v"
      ],
      [
        "u",
        "el"
      ],
      [
        "ur",
        "n"
      ],
      [
        "v",
        "as"
      ],
      [
        "z",
        "ero"
      ],
      [
        "00",
        "6"
      ],
      [
        "15",
        "3"
      ],
      [
        "19",
        "3"
      ],
      [
        "19",
        "98"
      ],
      [
        "2",
        "14"
      ],
      [
        "22",
        "2"
      ],
      [
        "25",
        "8"
      ],
      [
        "7",
        "11"
      ],
      [
        "A",
        "B"
      ],
      [
        "A",
        "H"
      ],
      [
        "O",
        "T"
      ],
      [
        "a",
        "0"
      ],
      [
        "ab",
        "lo"
      ],
      [
        "ang",
        "e"
      ],
      [
        "b",
        "it"
      ],
      [
        "b",
        "x"
      ],
      [
        "bla",
        "h"
      ],
      [
        "dani",
        "el"
      ],
      [
        "e",
        "2"
      ],
      [
        "e",
        "8"
      ],
      [
        "f",
        "8"
      ],
      [
        "f",
        "ir"
      ],
      [
        "fr",
        "ank"
      ],
      [
        "g",
        "at"
      ],
      [
        "h",
        "oo"
      ],
      [
        "ik",
        "o"
      ],
      [
        "il",
        "a"
      ],
      [
        "itt",
        "le"
      ],
      [
        "k",
        "t"
      ],
      [
        "lo",
        "t"
      ],
      [
        "m",
        "ine"
      ],
      [
        "m",
        "ore"
      ],
      [
        "p",
        "ad"
      ],
      [
        "r",
        "as"
      ],
      [
        "s",
        "el"
      ],
      [
        "s",
        "la"
      ],
      [
        "s",
        "v"
      ],
      [
        "so",
        "ccer"
      ],
      [
        "th",
        "es"
      ],
      [
        "w",
        "2"
      ],
      [
        "00",
        "4"
      ],
      [
        "09",
        "8"
      ],
      [
        "10",
        "5"
      ],
      [
        "18",
        "9"
      ],
      [
        "2",
        "16"
      ],
      [
        "26",
        "3"
      ],
      [
        "26",
        "4"
      ],
      [
        "3",
        "12"
      ],
      [
        "75",
        "3"
      ],
      [
        "A",
        "l"
      ],
      [
        "A",
        "r"
      ],
      [
        "I",
        "n"
      ],
      [
        "O",
        "K"
      ],
      [
        "PH",
        "P"
      ],
      [
        "acc",
        "ess"
      ],
      [
        "all",
        "y"
      ],
      [
        "alph",
        "a"
      ],
      [
        "at",
        "a"
      ],
      [
        "b",
        "ag"
      ],
      [
        "b",
        "ie"
      ],
      [
        "ch",
        "el"
      ],
      [
        "co",
        "me"
      ],
      [
        "d",
        "8"
      ],
      [
        "e",
        "0"
      ],
      [
        "er",
        "ic"
      ],
      [
        "f",
        "6"
      ],
      [
        "g",
        "ab"
      ],
      [
        "g",
        "ate"
      ],
      [
        "g",
        "b"
      ],
      [
        "g",
        "c"
      ],
      [
        "h",
        "as"
      ],
      [
        "ha",
        "cker"
      ],
      [
        "i",
        "8"
      ],
      [
        "it",
        "ar"
      ],
      [
        "ju",
        "li"
      ],
      [
        "k",
        "ay"
      ],
      [
        "lad",
        "y"
      ],
      [
        "let",
        "mein"
      ],
      [
        "lin",
        "k"
      ],
      [
        "lo",
        "u"
      ],
      [
        "m",
        "d"
      ],
      [
        "m",
        "id"
      ],
      [
        "n",
        "0"
      ],
      [
        "n",
        "ar"
      ],
      [
        "n",
        "on"
      ],
      [
        "p",
        "k"
      ],
      [
        "r",
        "el"
      ],
      [
        "ro",
        "se"
      ],
      [
        "s",
        "7"
      ],
      [
        "s",
        "j"
      ],
      [
        "se",
        "xy"
      ],
      [
        "sh",
        "in"
      ],
      [
        "son",
        "ic"
      ],
      [
        "sp",
        "ace"
      ],
      [
        "u",
        "les"
      ],
      [
        "v",
        "n"
      ],
      [
        "y",
        "el"
      ],
      [
        "z",
        "h"
      ],
      [
        "z",
        "or"
      ],
      [
        "0",
        "28"
      ],
      [
        "00",
        "8"
      ],
      [
        "1",
        "d"
      ],
      [
        "10",
        "9"
      ],
      [
        "21",
        "12"
      ],
      [
        "3",
        "16"
      ],
      [
        "3",
        "23"
      ],
      [
        "4",
        "life"
      ],
      [
        "D",
        "I"
      ],
      [
        "R",
        "O"
      ],
      [
        "am",
        "o"
      ],
      [
        "b",
        "and"
      ],
      [
        "b",
        "ass"
      ],
      [
        "b",
        "ru"
      ],
      [
        "be",
        "er"
      ],
      [
        "br",
        "ad"
      ],
      [
        "che",
        "ese"
      ],
      [
        "d",
        "al"
      ],
      [
        "d",
        "un"
      ],
      [
        "de",
        "v"
      ],
      [
        "de",
        "vil"
      ],
      [
        "h",
        "l"
      ],
      [
        "h",
        "ome"
      ],
      [
        "i",
        "um"
      ],
      [
        "ig",
        "er"
      ],
      [
        "io",
        "us"
      ],
      [
        "is",
        "cool"
      ],
      [
        "j",
        "ag"
      ],
      [
        "k",
        "ir"
      ],
      [
        "le",
        "x"
      ],
      [
        "li",
        "ve"
      ],
      [
        "m",
        "j"
      ],
      [
        "ma",
        "k"
      ],
      [
        "mi",
        "cha"
      ],
      [
        "o",
        "ol"
      ],
      [
        "r",
        "in"
      ],
      [
        "ro",
        "y"
      ],
      [
        "s",
        "mo"
      ],
      [
        "sh",
        "o"
      ],
      [
        "t",
        "5"
      ],
      [
        "th",
        "an"
      ],
      [
        "thom",
        "as"
      ],
      [
        "w",
        "g"
      ],
      [
        "xx",
        "x"
      ],
      [
        "**",
        "**"
      ],
      [
        "0",
        "77"
      ],
      [
        "11",
        "5"
      ],
      [
        "19",
        "5"
      ],
      [
        "19",
        "67"
      ],
      [
        "19",
        "70"
      ],
      [
        "199",
        "7"
      ],
      [
        "2",
        "45"
      ],
      [
        "24",
        "7"
      ],
      [
        "R",
        "o"
      ],
      [
        "a",
        "o"
      ],
      [
        "ad",
        "er"
      ],
      [
        "ar",
        "ch"
      ],
      [
        "b",
        "6"
      ],
      [
        "b",
        "ell"
      ],
      [
        "b",
        "v"
      ],
      [
        "d",
        "w"
      ],
      [
        "f",
        "low"
      ],
      [
        "h",
        "ow"
      ],
      [
        "h",
        "s"
      ],
      [
        "is",
        "k"
      ],
      [
        "k",
        "om"
      ],
      [
        "k",
        "or"
      ],
      [
        "l",
        "is"
      ],
      [
        "l",
        "s"
      ],
      [
        "lo",
        "ver"
      ],
      [
        "ly",
        "n"
      ],
      [
        "mat",
        "rix"
      ],
      [
        "on",
        "1"
      ],
      [
        "q",
        "1"
      ],
      [
        "q",
        "p"
      ],
      [
        "r",
        "ol"
      ],
      [
        "ro",
        "w"
      ],
      [
        "ro",
        "x"
      ],
      [
        "s",
        "f"
      ],
      [
        "st",
        "ic"
      ],
      [
        "st",
        "ri"
      ],
      [
        "v",
        "ir"
      ],
      [
        "v",
        "v"
      ],
      [
        "x",
        "e"
      ],
      [
        "zz",
        "y"
      ],
      [
        "100",
        "0"
      ],
      [
        "18",
        "5"
      ],
      [
        "19",
        "66"
      ],
      [
        "24",
        "8"
      ],
      [
        "3",
        "69"
      ],
      [
        "5",
        "t"
      ],
      [
        "B",
        "U"
      ],
      [
        "S",
        "h"
      ],
      [
        "ac",
        "t"
      ],
      [
        "ag",
        "le"
      ],
      [
        "c",
        "6"
      ],
      [
        "c",
        "7"
      ],
      [
        "c",
        "all"
      ],
      [
        "c",
        "z"
      ],
      [
        "d",
        "7"
      ],
      [
        "di",
        "ck"
      ],
      [
        "e",
        "4"
      ],
      [
        "en",
        "o"
      ],
      [
        "et",
        "s"
      ],
      [
        "fl",
        "ash"
      ],
      [
        "g",
        "em"
      ],
      [
        "h",
        "0"
      ],
      [
        "ik",
        "i"
      ],
      [
        "il",
        "y"
      ],
      [
        "it",
        "z"
      ],
      [
        "k",
        "2"
      ],
      [
        "k",
        "9"
      ],
      [
        "k",
        "op"
      ],
      [
        "l",
        "im"
      ],
      [
        "m",
        "z"
      ],
      [
        "ma",
        "j"
      ],
      [
        "man",
        "n"
      ],
      [
        "mar",
        "tin"
      ],
      [
        "must",
        "ang"
      ],
      [
        "n",
        "ic"
      ],
      [
        "n",
        "om"
      ],
      [
        "on",
        "ly"
      ],
      [
        "p",
        "us"
      ],
      [
        "pl",
        "an"
      ],
      [
        "put",
        "er"
      ],
      [
        "r",
        "oll"
      ],
      [
        "s",
        "9"
      ],
      [
        "s",
        "q"
      ],
      [
        "sn",
        "oo"
      ],
      [
        "t",
        "c"
      ],
      [
        "t",
        "el"
      ],
      [
        "w",
        "as"
      ],
      [
        "z",
        "1"
      ],
      [
        "0",
        "79"
      ],
      [
        "20",
        "4"
      ],
      [
        "3",
        "03"
      ],
      [
        "3",
        "05"
      ],
      [
        "4",
        "15"
      ],
      [
        "66",
        "4"
      ],
      [
        "C",
        "K"
      ],
      [
        "am",
        "ar"
      ],
      [
        "an",
        "1"
      ],
      [
        "an",
        "y"
      ],
      [
        "b",
        "ay"
      ],
      [
        "b",
        "il"
      ],
      [
        "bo",
        "t"
      ],
      [
        "do",
        "wn"
      ],
      [
        "ed",
        "e"
      ],
      [
        "el",
        "s"
      ],
      [
        "f",
        "lu"
      ],
      [
        "foo",
        "t"
      ],
      [
        "g",
        "on"
      ],
      [
        "h",
        "and"
      ],
      [
        "h",
        "um"
      ],
      [
        "i",
        "le"
      ],
      [
        "j",
        "4"
      ],
      [
        "j",
        "p"
      ],
      [
        "j",
        "ul"
      ],
      [
        "je",
        "ff"
      ],
      [
        "k",
        "ia"
      ],
      [
        "k",
        "il"
      ],
      [
        "kit",
        "ty"
      ],
      [
        "l",
        "p"
      ],
      [
        "lo",
        "s"
      ],
      [
        "m",
        "es"
      ],
      [
        "m",
        "f"
      ],
      [
        "m",
        "ig"
      ],
      [
        "m",
        "ur"
      ],
      [
        "ma",
        "ch"
      ],
      [
        "no",
        "v"
      ],
      [
        "o",
        "ve"
      ],
      [
        "r",
        "n"
      ],
      [
        "ra",
        "ven"
      ],
      [
        "secre",
        "t"
      ],
      [
        "so",
        "ul"
      ],
      [
        "st",
        "al"
      ],
      [
        "t",
        "p"
      ],
      [
        "tr",
        "an"
      ],
      [
        "tre",
        "e"
      ],
      [
        "wh",
        "ite"
      ],
      [
        "z",
        "one"
      ],
      [
        "0",
        "23"
      ],
      [
        "0",
        "88"
      ],
      [
        "1",
        "s"
      ],
      [
        "10",
        "2"
      ],
      [
        "14",
        "4"
      ],
      [
        "22",
        "9"
      ],
      [
        "74",
        "7"
      ],
      [
        "A",
        "V"
      ],
      [
        "N",
        "I"
      ],
      [
        "al",
        "la"
      ],
      [
        "as",
        "y"
      ],
      [
        "at",
        "ic"
      ],
      [
        "b",
        "um"
      ],
      [
        "bb",
        "er"
      ],
      [
        "c",
        "ad"
      ],
      [
        "com",
        "p"
      ],
      [
        "cra",
        "zy"
      ],
      [
        "d",
        "5"
      ],
      [
        "e",
        "5"
      ],
      [
        "e",
        "a"
      ],
      [
        "f",
        "ur"
      ],
      [
        "fo",
        "ur"
      ],
      [
        "g",
        "6"
      ],
      [
        "h",
        "unter"
      ],
      [
        "i",
        "al"
      ],
      [
        "il",
        "d"
      ],
      [
        "j",
        "w"
      ],
      [
        "j",
        "y"
      ],
      [
        "l",
        "4"
      ],
      [
        "l",
        "k"
      ],
      [
        "m",
        "h"
      ],
      [
        "m",
        "ing"
      ],
      [
        "m",
        "ir"
      ],
      [
        "mar",
        "y"
      ],
      [
        "o",
        "th"
      ],
      [
        "ol",
        "og"
      ],
      [
        "on",
        "a"
      ],
      [
        "oo",
        "t"
      ],
      [
        "phpbb",
        "2"
      ],
      [
        "pur",
        "ple"
      ],
      [
        "s",
        "em"
      ],
      [
        "s",
        "id"
      ],
      [
        "sm",
        "ith"
      ],
      [
        "stor",
        "m"
      ],
      [
        "sy",
        "stem"
      ],
      [
        "t",
        "un"
      ],
      [
        "th",
        "em"
      ],
      [
        "u",
        "h"
      ],
      [
        "w",
        "all"
      ],
      [
        "w",
        "ho"
      ],
      [
        "w",
        "ol"
      ],
      [
        "w",
        "on"
      ],
      [
        "w",
        "x"
      ],
      [
        "x",
        "1"
      ],
      [
        "1",
        "t"
      ],
      [
        "13",
        "9"
      ],
      [
        "2",
        "15"
      ],
      [
        "2",
        "88"
      ],
      [
        "28",
        "9"
      ],
      [
        "4",
        "68"
      ],
      [
        "45",
        "3"
      ],
      [
        "5",
        "20"
      ],
      [
        "5",
        "23"
      ],
      [
        "E",
        "D"
      ],
      [
        "E",
        "S"
      ],
      [
        "G",
        "U"
      ],
      [
        "N",
        "N"
      ],
      [
        "O",
        "D"
      ],
      [
        "R",
        "U"
      ],
      [
        "a",
        "q"
      ],
      [
        "ath",
        "an"
      ],
      [
        "b",
        "itch"
      ],
      [
        "b",
        "p"
      ],
      [
        "b",
        "z"
      ],
      [
        "bl",
        "ade"
      ],
      [
        "blo",
        "od"
      ],
      [
        "bro",
        "wn"
      ],
      [
        "c",
        "p"
      ],
      [
        "co",
        "le"
      ],
      [
        "d",
        "6"
      ],
      [
        "d",
        "id"
      ],
      [
        "d",
        "n"
      ],
      [
        "d",
        "uck"
      ],
      [
        "do",
        "or"
      ],
      [
        "en",
        "ce"
      ],
      [
        "g",
        "7"
      ],
      [
        "g",
        "ay"
      ],
      [
        "g",
        "ig"
      ],
      [
        "g",
        "k"
      ],
      [
        "h",
        "em"
      ],
      [
        "h",
        "on"
      ],
      [
        "ha",
        "ha"
      ],
      [
        "hor",
        "se"
      ],
      [
        "ig",
        "gy"
      ],
      [
        "j",
        "ac"
      ],
      [
        "j",
        "ar"
      ],
      [
        "m",
        "0n"
      ],
      [
        "micha",
        "el"
      ],
      [
        "mus",
        "ic"
      ],
      [
        "na",
        "h"
      ],
      [
        "p",
        "ac"
      ],
      [
        "p",
        "sy"
      ],
      [
        "p",
        "up"
      ],
      [
        "s",
        "ucks"
      ],
      [
        "st",
        "an"
      ],
      [
        "t",
        "at"
      ],
      [
        "t",
        "it"
      ],
      [
        "t",
        "j"
      ],
      [
        "te",
        "k"
      ],
      [
        "u",
        "le"
      ],
      [
        "u",
        "u"
      ],
      [
        "v",
        "ent"
      ],
      [
        "y",
        "es"
      ],
      [
        "0",
        "w"
      ],
      [
        "00",
        "2"
      ],
      [
        "00",
        "9"
      ],
      [
        "00",
        "d"
      ],
      [
        "10",
        "6"
      ],
      [
        "10",
        "7"
      ],
      [
        "11",
        "6"
      ],
      [
        "12",
        "7"
      ],
      [
        "14",
        "9"
      ],
      [
        "16",
        "8"
      ],
      [
        "19",
        "0"
      ],
      [
        "2",
        "77"
      ],
      [
        "22",
        "5"
      ],
      [
        "24",
        "3"
      ],
      [
        "25",
        "6"
      ],
      [
        "3",
        "65"
      ],
      [
        "43",
        "2"
      ],
      [
        "6",
        "23"
      ],
      [
        "7",
        "65"
      ],
      [
        "78",
        "7"
      ],
      [
        "8",
        "r"
      ],
      [
        "9",
        "63"
      ],
      [
        "99",
        "99"
      ],
      [
        "A",
        "Y"
      ],
      [
        "L",
        "O"
      ],
      [
        "M",
        "I"
      ],
      [
        "a",
        "ke"
      ],
      [
        "a",
        "qu"
      ],
      [
        "b",
        "ak"
      ],
      [
        "c",
        "ab"
      ],
      [
        "d",
        "z"
      ],
      [
        "de",
        "ep"
      ],
      [
        "er",
        "t"
      ],
      [
        "f",
        "ab"
      ],
      [
        "g",
        "host"
      ],
      [
        "jas",
        "on"
      ],
      [
        "k",
        "ak"
      ],
      [
        "k",
        "ap"
      ],
      [
        "k",
        "es"
      ],
      [
        "k",
        "iss"
      ],
      [
        "ke",
        "vin"
      ],
      [
        "li",
        "ck"
      ],
      [
        "m",
        "iss"
      ],
      [
        "m",
        "v"
      ],
      [
        "os",
        "a"
      ],
      [
        "r",
        "k"
      ],
      [
        "s",
        "ig"
      ],
      [
        "t",
        "l"
      ],
      [
        "y",
        "r"
      ],
      [
        "yel",
        "low"
      ],
      [
        "$",
        "$"
      ],
      [
        "0",
        "66"
      ],
      [
        "0",
        "l"
      ],
      [
        "1",
        "a"
      ],
      [
        "12",
        "05"
      ],
      [
        "17",
        "01"
      ],
      [
        "19",
        "6"
      ],
      [
        "199",
        "3"
      ],
      [
        "1n",
        "g"
      ],
      [
        "2",
        "n"
      ],
      [
        "22",
        "7"
      ],
      [
        "35",
        "7"
      ],
      [
        "A",
        "F"
      ],
      [
        "B",
        "e"
      ],
      [
        "D",
        "e"
      ],
      [
        "M",
        "ar"
      ],
      [
        "R",
        "T"
      ],
      [
        "S",
        "L"
      ],
      [
        "ad",
        "ri"
      ],
      [
        "ap",
        "a"
      ],
      [
        "b",
        "illy"
      ],
      [
        "b",
        "lin"
      ],
      [
        "bb",
        "y"
      ],
      [
        "be",
        "at"
      ],
      [
        "br",
        "on"
      ],
      [
        "c",
        "ry"
      ],
      [
        "c",
        "us"
      ],
      [
        "c",
        "w"
      ],
      [
        "co",
        "ok"
      ],
      [
        "co",
        "unt"
      ],
      [
        "d",
        "9"
      ],
      [
        "d",
        "ol"
      ],
      [
        "d",
        "um"
      ],
      [
        "d",
        "x"
      ],
      [
        "et",
        "o"
      ],
      [
        "gre",
        "at"
      ],
      [
        "he",
        "y"
      ],
      [
        "id",
        "o"
      ],
      [
        "j",
        "et"
      ],
      [
        "ja",
        "ke"
      ],
      [
        "jk",
        "l"
      ],
      [
        "jo",
        "se"
      ],
      [
        "k",
        "orn"
      ],
      [
        "kn",
        "ow"
      ],
      [
        "mi",
        "ch"
      ],
      [
        "mic",
        "ro"
      ],
      [
        "n",
        "ak"
      ],
      [
        "n",
        "as"
      ],
      [
        "ome",
        "ga"
      ],
      [
        "on",
        "ic"
      ],
      [
        "po",
        "ol"
      ],
      [
        "r",
        "s"
      ],
      [
        "ra",
        "p"
      ],
      [
        "s",
        "5"
      ],
      [
        "sco",
        "tt"
      ],
      [
        "sw",
        "ord"
      ],
      [
        "th",
        "ing"
      ],
      [
        "u",
        "2"
      ],
      [
        "u",
        "7"
      ],
      [
        "v",
        "3"
      ],
      [
        "vil",
        "le"
      ],
      [
        "w",
        "oo"
      ],
      [
        "war",
        "e"
      ],
      [
        "wh",
        "it"
      ],
      [
        "ws",
        "x"
      ],
      [
        "y",
        "ah"
      ],
      [
        "z",
        "an"
      ],
      [
        "z",
        "ard"
      ],
      [
        "z",
        "n"
      ],
      [
        "0",
        "123"
      ],
      [
        "1",
        "88"
      ],
      [
        "12",
        "09"
      ],
      [
        "14",
        "7"
      ],
      [
        "17",
        "9"
      ],
      [
        "18",
        "0"
      ],
      [
        "19",
        "64"
      ],
      [
        "23",
        "5"
      ],
      [
        "69",
        "69"
      ],
      [
        "75",
        "9"
      ],
      [
        "78",
        "3"
      ],
      [
        "8",
        "12"
      ],
      [
        "M",
        "y"
      ],
      [
        "O",
        "U"
      ],
      [
        "R",
        "a"
      ],
      [
        "a",
        "ug"
      ],
      [
        "ag",
        "er"
      ],
      [
        "al",
        "an"
      ],
      [
        "al",
        "in"
      ],
      [
        "bo",
        "w"
      ],
      [
        "bur",
        "n"
      ],
      [
        "c",
        "es"
      ],
      [
        "ch",
        "in"
      ],
      [
        "ed",
        "o"
      ],
      [
        "f",
        "all"
      ],
      [
        "f",
        "p"
      ],
      [
        "g",
        "4"
      ],
      [
        "g",
        "il"
      ],
      [
        "go",
        "at"
      ],
      [
        "h",
        "1"
      ],
      [
        "h",
        "g"
      ],
      [
        "h",
        "k"
      ],
      [
        "ha",
        "wk"
      ],
      [
        "i",
        "3"
      ],
      [
        "i",
        "u"
      ],
      [
        "il",
        "uv"
      ],
      [
        "j",
        "3"
      ],
      [
        "j",
        "q"
      ],
      [
        "ja",
        "zz"
      ],
      [
        "l",
        "ittle"
      ],
      [
        "m",
        "ort"
      ],
      [
        "mo",
        "use"
      ],
      [
        "n",
        "g"
      ],
      [
        "on",
        "line"
      ],
      [
        "on",
        "s"
      ],
      [
        "p",
        "3"
      ],
      [
        "p",
        "v"
      ],
      [
        "pep",
        "per"
      ],
      [
        "po",
        "ke"
      ],
      [
        "r",
        "and"
      ],
      [
        "r",
        "or"
      ],
      [
        "ra",
        "k"
      ],
      [
        "ri",
        "p"
      ],
      [
        "s",
        "ak"
      ],
      [
        "se",
        "y"
      ],
      [
        "sp",
        "ort"
      ],
      [
        "ste",
        "in"
      ],
      [
        "stu",
        "ff"
      ],
      [
        "t",
        "oo"
      ],
      [
        "te",
        "am"
      ],
      [
        "th",
        "at"
      ],
      [
        "th",
        "ep"
      ],
      [
        "u",
        "la"
      ],
      [
        "up",
        "id"
      ],
      [
        "x",
        "4"
      ],
      [
        "x",
        "9"
      ],
      [
        "x",
        "z"
      ],
      [
        "z",
        "ar"
      ],
      [
        "z",
        "ip"
      ],
      [
        "00",
        "t"
      ],
      [
        "05",
        "0"
      ],
      [
        "05",
        "3"
      ],
      [
        "14",
        "6"
      ],
      [
        "18",
        "4"
      ],
      [
        "2",
        "b"
      ],
      [
        "2",
        "u"
      ],
      [
        "22",
        "0"
      ],
      [
        "22",
        "22"
      ],
      [
        "22",
        "4"
      ],
      [
        "23",
        "2"
      ],
      [
        "24",
        "9"
      ],
      [
        "4",
        "f"
      ],
      [
        "45",
        "9"
      ],
      [
        "6",
        "78"
      ],
      [
        "9",
        "09"
      ],
      [
        "B",
        "la"
      ],
      [
        "C",
        "R"
      ],
      [
        "D",
        "U"
      ],
      [
        "I",
        "S"
      ],
      [
        "M",
        "AN"
      ],
      [
        "T",
        "T"
      ],
      [
        "Z",
        "Z"
      ],
      [
        "a",
        "ster"
      ],
      [
        "am",
        "ber"
      ],
      [
        "andre",
        "w"
      ],
      [
        "ap",
        "e"
      ],
      [
        "br",
        "and"
      ],
      [
        "c",
        "ard"
      ],
      [
        "ch",
        "ip"
      ],
      [
        "chi",
        "cken"
      ],
      [
        "cro",
        "ss"
      ],
      [
        "de",
        "e"
      ],
      [
        "di",
        "o"
      ],
      [
        "dr",
        "um"
      ],
      [
        "em",
        "o"
      ],
      [
        "et",
        "e"
      ],
      [
        "gu",
        "itar"
      ],
      [
        "ham",
        "mer"
      ],
      [
        "i",
        "2"
      ],
      [
        "ia",
        "h"
      ],
      [
        "id",
        "a"
      ],
      [
        "ie",
        "1"
      ],
      [
        "il",
        "le"
      ],
      [
        "j",
        "b"
      ],
      [
        "k",
        "0"
      ],
      [
        "k",
        "ol"
      ],
      [
        "kn",
        "ight"
      ],
      [
        "lu",
        "cky"
      ],
      [
        "ma",
        "ck"
      ],
      [
        "ma",
        "ker"
      ],
      [
        "o",
        "ur"
      ],
      [
        "p",
        "am"
      ],
      [
        "q",
        "y"
      ],
      [
        "r",
        "7"
      ],
      [
        "rule",
        "z"
      ],
      [
        "s",
        "z"
      ],
      [
        "se",
        "an"
      ],
      [
        "se",
        "ven"
      ],
      [
        "ste",
        "el"
      ],
      [
        "w",
        "an"
      ],
      [
        "y",
        "7"
      ],
      [
        "y",
        "t"
      ],
      [
        "yo",
        "ur"
      ],
      [
        "01",
        "6"
      ],
      [
        "10",
        "11"
      ],
      [
        "100",
        "1"
      ],
      [
        "13",
        "1"
      ],
      [
        "2",
        "79"
      ],
      [
        "2",
        "f"
      ],
      [
        "20",
        "9"
      ],
      [
        "4",
        "04"
      ],
      [
        "4",
        "29"
      ],
      [
        "5",
        "12"
      ],
      [
        "68",
        "9"
      ],
      [
        "77",
        "8"
      ],
      [
        "A",
        "G"
      ],
      [
        "B",
        "L"
      ],
      [
        "D",
        "3"
      ],
      [
        "E",
        "X"
      ],
      [
        "F",
        "F"
      ],
      [
        "H",
        "e"
      ],
      [
        "T",
        "he"
      ],
      [
        "a",
        "ver"
      ],
      [
        "aa",
        "aa"
      ],
      [
        "al",
        "s"
      ],
      [
        "b",
        "w"
      ],
      [
        "bra",
        "in"
      ],
      [
        "c",
        "ac"
      ],
      [
        "c",
        "ash"
      ],
      [
        "ch",
        "u"
      ],
      [
        "che",
        "ster"
      ],
      [
        "ct",
        "or"
      ],
      [
        "d",
        "ell"
      ],
      [
        "d",
        "im"
      ],
      [
        "de",
        "mon"
      ],
      [
        "de",
        "x"
      ],
      [
        "f",
        "ant"
      ],
      [
        "f",
        "ed"
      ],
      [
        "fal",
        "con"
      ],
      [
        "g",
        "8"
      ],
      [
        "g",
        "lo"
      ],
      [
        "ge",
        "or"
      ],
      [
        "h",
        "8"
      ],
      [
        "k",
        "v"
      ],
      [
        "l",
        "un"
      ],
      [
        "m",
        "8"
      ],
      [
        "m",
        "k"
      ],
      [
        "m",
        "os"
      ],
      [
        "ma",
        "h"
      ],
      [
        "ma",
        "in"
      ],
      [
        "me",
        "at"
      ],
      [
        "n",
        "ad"
      ],
      [
        "no",
        "kia"
      ],
      [
        "ot",
        "e"
      ],
      [
        "p",
        "il"
      ],
      [
        "p",
        "ing"
      ],
      [
        "p",
        "om"
      ],
      [
        "pl",
        "at"
      ],
      [
        "r",
        "2"
      ],
      [
        "r",
        "m"
      ],
      [
        "r",
        "x"
      ],
      [
        "ro",
        "man"
      ],
      [
        "ro",
        "t"
      ],
      [
        "st",
        "i"
      ],
      [
        "st",
        "ra"
      ],
      [
        "ste",
        "ve"
      ],
      [
        "un",
        "i"
      ],
      [
        "v",
        "1"
      ],
      [
        "v",
        "8"
      ],
      [
        "w",
        "en"
      ],
      [
        "x",
        "u"
      ],
      [
        "z",
        "p"
      ],
      [
        "z",
        "t"
      ],
      [
        "0",
        "25"
      ],
      [
        "0",
        "p"
      ],
      [
        "00",
        "3"
      ],
      [
        "1",
        "F"
      ],
      [
        "13",
        "37"
      ],
      [
        "13",
        "6"
      ],
      [
        "13",
        "7"
      ],
      [
        "15",
        "7"
      ],
      [
        "19",
        "1"
      ],
      [
        "19",
        "62"
      ],
      [
        "20",
        "7"
      ],
      [
        "26",
        "5"
      ],
      [
        "33",
        "7"
      ],
      [
        "4",
        "11"
      ],
      [
        "4",
        "l"
      ],
      [
        "44",
        "3"
      ],
      [
        "44",
        "44"
      ],
      [
        "6",
        "33"
      ],
      [
        "66",
        "9"
      ],
      [
        "A",
        "Z"
      ],
      [
        "H",
        "E"
      ],
      [
        "I",
        "R"
      ],
      [
        "M",
        "X"
      ],
      [
        "N",
        "O"
      ],
      [
        "O",
        "S"
      ],
      [
        "S",
        "K"
      ],
      [
        "S",
        "t"
      ],
      [
        "V",
        "E"
      ],
      [
        "al",
        "1"
      ],
      [
        "am",
        "y"
      ],
      [
        "ang",
        "o"
      ],
      [
        "az",
        "er"
      ],
      [
        "b",
        "ir"
      ],
      [
        "b",
        "is"
      ],
      [
        "be",
        "e"
      ],
      [
        "bo",
        "ss"
      ],
      [
        "c",
        "ed"
      ],
      [
        "c",
        "li"
      ],
      [
        "c",
        "lu"
      ],
      [
        "com",
        "puter"
      ],
      [
        "e",
        "3"
      ],
      [
        "en",
        "do"
      ],
      [
        "f",
        "ac"
      ],
      [
        "g",
        "ie"
      ],
      [
        "h",
        "c"
      ],
      [
        "hol",
        "y"
      ],
      [
        "im",
        "o"
      ],
      [
        "j",
        "1"
      ],
      [
        "j",
        "ane"
      ],
      [
        "j",
        "g"
      ],
      [
        "k",
        "b"
      ],
      [
        "ki",
        "ck"
      ],
      [
        "la",
        "ke"
      ],
      [
        "le",
        "mon"
      ],
      [
        "n",
        "ab"
      ],
      [
        "num",
        "ber"
      ],
      [
        "on",
        "es"
      ],
      [
        "ot",
        "a"
      ],
      [
        "p",
        "d"
      ],
      [
        "p",
        "ed"
      ],
      [
        "p",
        "el"
      ],
      [
        "p",
        "g"
      ],
      [
        "p",
        "ir"
      ],
      [
        "pap",
        "er"
      ],
      [
        "ph",
        "at"
      ],
      [
        "r",
        "f"
      ],
      [
        "r",
        "us"
      ],
      [
        "re",
        "w"
      ],
      [
        "ri",
        "c"
      ],
      [
        "ro",
        "b"
      ],
      [
        "s",
        "8"
      ],
      [
        "s",
        "g"
      ],
      [
        "sh",
        "an"
      ],
      [
        "sh",
        "ip"
      ],
      [
        "so",
        "uth"
      ],
      [
        "st",
        "ick"
      ],
      [
        "t",
        "ip"
      ],
      [
        "t",
        "je"
      ],
      [
        "te",
        "x"
      ],
      [
        "v",
        "it"
      ],
      [
        "w",
        "ard"
      ],
      [
        "wil",
        "d"
      ],
      [
        "z",
        "2"
      ],
      [
        "z",
        "8"
      ],
      [
        "0",
        "29"
      ],
      [
        "0",
        "33"
      ],
      [
        "00",
        "5"
      ],
      [
        "11",
        "00"
      ],
      [
        "12",
        "10"
      ],
      [
        "12",
        "6"
      ],
      [
        "13",
        "8"
      ],
      [
        "18",
        "6"
      ],
      [
        "19",
        "2"
      ],
      [
        "2",
        "66"
      ],
      [
        "2",
        "t"
      ],
      [
        "23",
        "6"
      ],
      [
        "24",
        "2"
      ],
      [
        "26",
        "8"
      ],
      [
        "48",
        "6"
      ],
      [
        "5",
        "14"
      ],
      [
        "5",
        "43"
      ],
      [
        "8",
        "b"
      ],
      [
        "88",
        "9"
      ],
      [
        "B",
        "o"
      ],
      [
        "I",
        "D"
      ],
      [
        "I",
        "I"
      ],
      [
        "J",
        "V"
      ],
      [
        "P",
        "U"
      ],
      [
        "Q",
        "U"
      ],
      [
        "Q",
        "W"
      ],
      [
        "S",
        "E"
      ],
      [
        "ad",
        "i"
      ],
      [
        "ad",
        "y"
      ],
      [
        "ag",
        "u"
      ],
      [
        "al",
        "le"
      ],
      [
        "ant",
        "s"
      ],
      [
        "as",
        "k"
      ],
      [
        "at",
        "i"
      ],
      [
        "b",
        "g"
      ],
      [
        "bi",
        "ke"
      ],
      [
        "boo",
        "k"
      ],
      [
        "bun",
        "ny"
      ],
      [
        "c",
        "orn"
      ],
      [
        "c",
        "ri"
      ],
      [
        "co",
        "co"
      ],
      [
        "ct",
        "ion"
      ],
      [
        "d",
        "ab"
      ],
      [
        "d",
        "ag"
      ],
      [
        "de",
        "m"
      ],
      [
        "ed",
        "a"
      ],
      [
        "en",
        "1"
      ],
      [
        "er",
        "ik"
      ],
      [
        "f",
        "is"
      ],
      [
        "f",
        "ul"
      ],
      [
        "f",
        "us"
      ],
      [
        "for",
        "ce"
      ],
      [
        "g",
        "inger"
      ],
      [
        "h",
        "it"
      ],
      [
        "ha",
        "i"
      ],
      [
        "her",
        "e"
      ],
      [
        "i",
        "or"
      ],
      [
        "in",
        "es"
      ],
      [
        "j",
        "9"
      ],
      [
        "j",
        "ord"
      ],
      [
        "jim",
        "my"
      ],
      [
        "jon",
        "es"
      ],
      [
        "k",
        "lo"
      ],
      [
        "k",
        "rist"
      ],
      [
        "l",
        "ic"
      ],
      [
        "l",
        "it"
      ],
      [
        "lu",
        "cy"
      ],
      [
        "m",
        "5"
      ],
      [
        "ma",
        "z"
      ],
      [
        "mat",
        "the"
      ],
      [
        "min",
        "d"
      ],
      [
        "n",
        "m"
      ],
      [
        "n",
        "os"
      ],
      [
        "on",
        "i"
      ],
      [
        "oo",
        "k"
      ],
      [
        "or",
        "y"
      ],
      [
        "p",
        "ak"
      ],
      [
        "p",
        "ic"
      ],
      [
        "p",
        "it"
      ],
      [
        "p",
        "on"
      ],
      [
        "pi",
        "re"
      ],
      [
        "po",
        "int"
      ],
      [
        "q",
        "9"
      ],
      [
        "qu",
        "est"
      ],
      [
        "qu",
        "i"
      ],
      [
        "r",
        "4"
      ],
      [
        "ri",
        "ver"
      ],
      [
        "s",
        "6"
      ],
      [
        "s",
        "et"
      ],
      [
        "sar",
        "ah"
      ],
      [
        "sh",
        "ot"
      ],
      [
        "sp",
        "ider"
      ],
      [
        "ster",
        "s"
      ],
      [
        "t",
        "ed"
      ],
      [
        "th",
        "or"
      ],
      [
        "to",
        "y"
      ],
      [
        "tur",
        "bo"
      ],
      [
        "u",
        "9"
      ],
      [
        "ug",
        "ar"
      ],
      [
        "ur",
        "t"
      ],
      [
        "ut",
        "e"
      ],
      [
        "v",
        "ik"
      ],
      [
        "vis",
        "ion"
      ],
      [
        "w",
        "0rd"
      ],
      [
        "wil",
        "liam"
      ],
      [
        "x",
        "2"
      ],
      [
        "x",
        "n"
      ],
      [
        "x",
        "s"
      ],
      [
        "zx",
        "cv"
      ],
      [
        "!",
        "@"
      ],
      [
        "0",
        "b"
      ],
      [
        "00",
        "l"
      ],
      [
        "10",
        "20"
      ],
      [
        "12",
        "9"
      ],
      [
        "123456",
        "789"
      ],
      [
        "13",
        "14"
      ],
      [
        "13",
        "4"
      ],
      [
        "14",
        "8"
      ],
      [
        "15",
        "6"
      ],
      [
        "15",
        "8"
      ],
      [
        "17",
        "1"
      ],
      [
        "18",
        "3"
      ],
      [
        "19",
        "4"
      ],
      [
        "19",
        "63"
      ],
      [
        "2",
        "98"
      ],
      [
        "22",
        "8"
      ],
      [
        "27",
        "3"
      ],
      [
        "33",
        "5"
      ],
      [
        "4",
        "you"
      ],
      [
        "55",
        "6"
      ],
      [
        "65",
        "6"
      ],
      [
        "77",
        "4"
      ],
      [
        "88",
        "7"
      ],
      [
        "B",
        "E"
      ],
      [
        "B",
        "J"
      ],
      [
        "D",
        "ragon"
      ],
      [
        "H",
        "Y"
      ],
      [
        "I",
        "G"
      ],
      [
        "J",
        "o"
      ],
      [
        "N",
        "e"
      ],
      [
        "P",
        "P"
      ],
      [
        "R",
        "4"
      ],
      [
        "T",
        "C"
      ],
      [
        "T",
        "E"
      ],
      [
        "T",
        "R"
      ],
      [
        "al",
        "t"
      ],
      [
        "ap",
        "ril"
      ],
      [
        "as",
        "ha"
      ],
      [
        "b",
        "ac"
      ],
      [
        "b",
        "art"
      ],
      [
        "b",
        "es"
      ],
      [
        "ba",
        "st"
      ],
      [
        "bre",
        "ak"
      ],
      [
        "c",
        "ore"
      ],
      [
        "ch",
        "op"
      ],
      [
        "cra",
        "ck"
      ],
      [
        "cra",
        "ft"
      ],
      [
        "d",
        "t"
      ],
      [
        "el",
        "f"
      ],
      [
        "em",
        "y"
      ],
      [
        "f",
        "am"
      ],
      [
        "f",
        "art"
      ],
      [
        "f",
        "z"
      ],
      [
        "fl",
        "or"
      ],
      [
        "h",
        "6"
      ],
      [
        "ho",
        "le"
      ],
      [
        "i",
        "q"
      ],
      [
        "il",
        "i"
      ],
      [
        "j",
        "7"
      ],
      [
        "j",
        "ade"
      ],
      [
        "j",
        "in"
      ],
      [
        "k",
        "8"
      ],
      [
        "k",
        "la"
      ],
      [
        "k",
        "ro"
      ],
      [
        "ke",
        "e"
      ],
      [
        "l",
        "al"
      ],
      [
        "m",
        "9"
      ],
      [
        "mar",
        "i"
      ],
      [
        "mi",
        "le"
      ],
      [
        "o",
        "i"
      ],
      [
        "ol",
        "as"
      ],
      [
        "p",
        "7"
      ],
      [
        "p",
        "ig"
      ],
      [
        "p",
        "ub"
      ],
      [
        "pe",
        "ar"
      ],
      [
        "per",
        "s"
      ],
      [
        "ph",
        "o"
      ],
      [
        "po",
        "st"
      ],
      [
        "pr",
        "in"
      ],
      [
        "pre",
        "ss"
      ],
      [
        "r",
        "ul"
      ],
      [
        "sh",
        "am"
      ],
      [
        "sh",
        "ark"
      ],
      [
        "si",
        "x"
      ],
      [
        "sna",
        "ke"
      ],
      [
        "st",
        "art"
      ],
      [
        "st",
        "upid"
      ],
      [
        "t",
        "g"
      ],
      [
        "th",
        "under"
      ],
      [
        "u",
        "8"
      ],
      [
        "v",
        "r"
      ],
      [
        "w",
        "is"
      ],
      [
        "w",
        "u"
      ],
      [
        "x",
        "3"
      ],
      [
        "y",
        "am"
      ],
      [
        "z",
        "6"
      ],
      [
        "z",
        "k"
      ],
      [
        "z",
        "oo"
      ],
      [
        "-",
        "-"
      ],
      [
        "08",
        "15"
      ],
      [
        "11",
        "12"
      ],
      [
        "123456",
        "78"
      ],
      [
        "15",
        "1"
      ],
      [
        "17",
        "4"
      ],
      [
        "19",
        "03"
      ],
      [
        "199",
        "4"
      ],
      [
        "199",
        "6"
      ],
      [
        "22",
        "6"
      ],
      [
        "28",
        "3"
      ],
      [
        "3",
        "11"
      ],
      [
        "34",
        "6"
      ],
      [
        "4",
        "16"
      ],
      [
        "4",
        "69"
      ],
      [
        "5",
        "05"
      ],
      [
        "55",
        "55"
      ],
      [
        "7",
        "a"
      ],
      [
        "74",
        "1"
      ],
      [
        "75",
        "0"
      ],
      [
        "78",
        "5"
      ],
      [
        "A",
        "I"
      ],
      [
        "A",
        "X"
      ],
      [
        "B",
        "O"
      ],
      [
        "E",
        "n"
      ],
      [
        "I",
        "M"
      ],
      [
        "IN",
        "G"
      ],
      [
        "J",
        "G"
      ],
      [
        "M",
        "e"
      ],
      [
        "Q",
        "9"
      ],
      [
        "S",
        "M"
      ],
      [
        "S",
        "P"
      ],
      [
        "T",
        "h"
      ],
      [
        "W",
        "W"
      ],
      [
        "ab",
        "y"
      ],
      [
        "ak",
        "o"
      ],
      [
        "am",
        "ig"
      ],
      [
        "am",
        "or"
      ],
      [
        "an",
        "te"
      ],
      [
        "ar",
        "is"
      ],
      [
        "b",
        "id"
      ],
      [
        "c",
        "io"
      ],
      [
        "c",
        "q"
      ],
      [
        "c",
        "ru"
      ],
      [
        "cha",
        "os"
      ],
      [
        "cl",
        "an"
      ],
      [
        "cop",
        "per"
      ],
      [
        "d",
        "rag"
      ],
      [
        "d",
        "ur"
      ],
      [
        "del",
        "ta"
      ],
      [
        "di",
        "an"
      ],
      [
        "dig",
        "ital"
      ],
      [
        "es",
        "1"
      ],
      [
        "f",
        "ood"
      ],
      [
        "fuck",
        "er"
      ],
      [
        "h",
        "9"
      ],
      [
        "h",
        "d"
      ],
      [
        "h",
        "il"
      ],
      [
        "h",
        "im"
      ],
      [
        "ho",
        "ckey"
      ],
      [
        "i",
        "fe"
      ],
      [
        "id",
        "i"
      ],
      [
        "ie",
        "123"
      ],
      [
        "is",
        "on"
      ],
      [
        "itt",
        "en"
      ],
      [
        "j",
        "0"
      ],
      [
        "j",
        "6"
      ],
      [
        "j",
        "ab"
      ],
      [
        "jo",
        "jo"
      ],
      [
        "l",
        "v"
      ],
      [
        "la",
        "ur"
      ],
      [
        "lu",
        "e"
      ],
      [
        "n",
        "h"
      ],
      [
        "ne",
        "o"
      ],
      [
        "o",
        "us"
      ],
      [
        "op",
        "e"
      ],
      [
        "p",
        "5"
      ],
      [
        "p",
        "9"
      ],
      [
        "p",
        "art"
      ],
      [
        "p",
        "ik"
      ],
      [
        "pa",
        "ck"
      ],
      [
        "par",
        "ad"
      ],
      [
        "ph",
        "ant"
      ],
      [
        "r",
        "um"
      ],
      [
        "ri",
        "ght"
      ],
      [
        "ro",
        "d"
      ],
      [
        "s",
        "12"
      ],
      [
        "s",
        "ad"
      ],
      [
        "s",
        "ag"
      ],
      [
        "sa",
        "v"
      ],
      [
        "se",
        "a"
      ],
      [
        "sh",
        "er"
      ],
      [
        "sh",
        "ow"
      ],
      [
        "sp",
        "am"
      ],
      [
        "t",
        "ak"
      ],
      [
        "th",
        "el"
      ],
      [
        "ton",
        "y"
      ],
      [
        "tr",
        "on"
      ],
      [
        "ul",
        "t"
      ],
      [
        "ur",
        "f"
      ],
      [
        "v",
        "w"
      ],
      [
        "w",
        "7"
      ],
      [
        "w",
        "ang"
      ],
      [
        "w",
        "ash"
      ],
      [
        "w",
        "m"
      ],
      [
        "wh",
        "y"
      ],
      [
        "x",
        "l"
      ],
      [
        "y",
        "0"
      ],
      [
        "z",
        "ap"
      ],
      [
        "z",
        "g"
      ],
      [
        "0",
        "o"
      ],
      [
        "0",
        "x"
      ],
      [
        "05",
        "5"
      ],
      [
        "1",
        "77"
      ],
      [
        "10",
        "24"
      ],
      [
        "12",
        "24"
      ],
      [
        "12345",
        "67"
      ],
      [
        "13",
        "0"
      ],
      [
        "16",
        "1"
      ],
      [
        "17",
        "2"
      ],
      [
        "2",
        "18"
      ],
      [
        "2",
        "19"
      ],
      [
        "2",
        "75"
      ],
      [
        "20",
        "1"
      ],
      [
        "20",
        "12"
      ],
      [
        "28",
        "4"
      ],
      [
        "3",
        "43"
      ],
      [
        "3",
        "55"
      ],
      [
        "44",
        "4"
      ],
      [
        "45",
        "8"
      ],
      [
        "48",
        "5"
      ],
      [
        "6",
        "c"
      ],
      [
        "66",
        "66"
      ],
      [
        "7",
        "14"
      ],
      [
        "78",
        "4"
      ],
      [
        "8",
        "20"
      ],
      [
        "9",
        "00"
      ],
      [
        "98",
        "9"
      ],
      [
        "AN",
        "D"
      ],
      [
        "F",
        "L"
      ],
      [
        "I",
        "K"
      ],
      [
        "M",
        "Y"
      ],
      [
        "N",
        "C"
      ],
      [
        "N",
        "H"
      ],
      [
        "R",
        "1"
      ],
      [
        "R",
        "Y"
      ],
      [
        "R",
        "e"
      ],
      [
        "S",
        "X"
      ],
      [
        "T",
        "O"
      ],
      [
        "a",
        "123"
      ],
      [
        "a",
        "is"
      ],
      [
        "ac",
        "id"
      ],
      [
        "ant",
        "i"
      ],
      [
        "ap",
        "o"
      ],
      [
        "as",
        "er"
      ],
      [
        "at",
        "s"
      ],
      [
        "at",
        "t"
      ],
      [
        "b",
        "li"
      ],
      [
        "bb",
        "it"
      ],
      [
        "ber",
        "ry"
      ],
      [
        "cat",
        "s"
      ],
      [
        "cl",
        "ass"
      ],
      [
        "cr",
        "ash"
      ],
      [
        "dad",
        "dy"
      ],
      [
        "de",
        "c"
      ],
      [
        "de",
        "f"
      ],
      [
        "di",
        "ablo"
      ],
      [
        "eb",
        "all"
      ],
      [
        "el",
        "ite"
      ],
      [
        "elo",
        "ve"
      ],
      [
        "em",
        "in"
      ],
      [
        "f",
        "ut"
      ],
      [
        "fun",
        "ny"
      ],
      [
        "g",
        "olf"
      ],
      [
        "h",
        "2"
      ],
      [
        "h",
        "v"
      ],
      [
        "ha",
        "w"
      ],
      [
        "han",
        "nah"
      ],
      [
        "har",
        "ry"
      ],
      [
        "he",
        "im"
      ],
      [
        "i",
        "7"
      ],
      [
        "ic",
        "t"
      ],
      [
        "il",
        "ike"
      ],
      [
        "in",
        "1"
      ],
      [
        "j",
        "ad"
      ],
      [
        "j",
        "ump"
      ],
      [
        "ju",
        "an"
      ],
      [
        "k",
        "d"
      ],
      [
        "k",
        "f"
      ],
      [
        "k",
        "g"
      ],
      [
        "k",
        "le"
      ],
      [
        "k",
        "ot"
      ],
      [
        "k",
        "ra"
      ],
      [
        "k",
        "ris"
      ],
      [
        "k",
        "x"
      ],
      [
        "ke",
        "ep"
      ],
      [
        "l",
        "8"
      ],
      [
        "lo",
        "v"
      ],
      [
        "log",
        "in"
      ],
      [
        "m",
        "7"
      ],
      [
        "man",
        "ia"
      ],
      [
        "n",
        "ag"
      ],
      [
        "nor",
        "th"
      ],
      [
        "o",
        "ft"
      ],
      [
        "ol",
        "y"
      ],
      [
        "or",
        "o"
      ],
      [
        "or",
        "p"
      ],
      [
        "p",
        "ink"
      ],
      [
        "p",
        "lo"
      ],
      [
        "p",
        "unk"
      ],
      [
        "pa",
        "q"
      ],
      [
        "r",
        "g"
      ],
      [
        "r",
        "it"
      ],
      [
        "ro",
        "bin"
      ],
      [
        "s",
        "che"
      ],
      [
        "s",
        "ed"
      ],
      [
        "s",
        "es"
      ],
      [
        "sa",
        "i"
      ],
      [
        "sp",
        "ark"
      ],
      [
        "t",
        "b"
      ],
      [
        "th",
        "i"
      ],
      [
        "to",
        "ber"
      ],
      [
        "u",
        "c"
      ],
      [
        "un",
        "a"
      ],
      [
        "un",
        "e"
      ],
      [
        "v",
        "4"
      ],
      [
        "v",
        "or"
      ],
      [
        "vie",
        "w"
      ],
      [
        "w",
        "0"
      ],
      [
        "w",
        "f"
      ],
      [
        "war",
        "s"
      ],
      [
        "win",
        "do"
      ],
      [
        "x",
        "7"
      ],
      [
        "y",
        "or"
      ],
      [
        "0",
        "19"
      ],
      [
        "0",
        "24"
      ],
      [
        "0",
        "78"
      ],
      [
        "00",
        "01"
      ],
      [
        "03",
        "03"
      ],
      [
        "07",
        "4"
      ],
      [
        "08",
        "9"
      ],
      [
        "1",
        "69"
      ],
      [
        "1",
        "k"
      ],
      [
        "1",
        "m"
      ],
      [
        "2",
        "99"
      ],
      [
        "2",
        "K"
      ],
      [
        "20",
        "6"
      ],
      [
        "23",
        "0"
      ],
      [
        "23",
        "8"
      ],
      [
        "23",
        "9"
      ],
      [
        "24",
        "4"
      ],
      [
        "3",
        "06"
      ],
      [
        "3",
        "K"
      ],
      [
        "3",
        "s"
      ],
      [
        "33",
        "8"
      ],
      [
        "36",
        "0"
      ],
      [
        "4",
        "27"
      ],
      [
        "45",
        "4"
      ],
      [
        "45",
        "7"
[...]
