{
  "version": "1.0",
  "truncation": null,
  "padding": null,
  "added_tokens": [],
  "normalizer": null,
  "pre_tokenizer": null,
  "post_processor": null,
  "decoder": null,
  "model": {
    "type": "BPE",
    "dropout": null,
    "unk_token": "<unk>",
    "continuing_subword_prefix": null,
    "end_of_word_suffix": null,
    "fuse_unk": false,
    "byte_fallback": false,
    "ignore_merges": false,
    "vocab": {
      "<pad>": 0,
      "<unk>": 1,
      "<bos>": 2,
      "<eos>": 3,
      "!": 4,
      "!0302": 5,
      "!05": 6,
      "!05!70": 7,
      "!05!70lc": 8,
      "!05!70lcpas": 9,
      "!05!70lcpastor": 10,
      "!70": 11,
      "!753": 12,
      "!75324": 13,
      "!7532486": 14,
      "!7532486190": 15,
      "!@": 16,
      "!@#": 17,
      "!@#$": 18,
      "!@#$%": 19,
      "!@#$%^": 20,
      "!@#$%^&": 21,
      "!@#$%^&*": 22,
      "!@#$%^&*(": 23,
      "!@#$%^&*()": 24,
      "!@)": 25,
      "!@)$": 26,
      "!@)$#": 27,
      "!Q": 28,
      "!QAZ": 29,
      "!jon": 30,
      "!jon!0302": 31,
      "\"": 32,
      "\"\"": 33,
      "\"\"\"\"": 34,
      "\"*": 35,
      "\"*ab": 36,
      "\"*abig": 37,
      "\"*abigail": 38,
      "\"*abigailteam": 39,
      "\"*abigailteam,": 40,
      "\"*abigailteam,o": 41,
      "\"*abigailteam,o*": 42,
      "\"*abigailteam,o*\"": 43,
      "\"13": 44,
      "\"1314": 45,
      "\"1314,": 46,
      "\"1314,de": 47,
      "\"1314,deborn": 48,
      "\"1314,deborn\"": 49,
      "\"14": 50,
      "\"14BAR": 51,
      "\"14BARQU": 52,
      "\"14BARQUIN": 53,
      "\"14BARQUIN-": 54,
      "\"14BARQUIN-.": 55,
      "\"14BARQUIN-.,": 56,
      "\"14BARQUIN-.,\"": 57,
      "\"26": 58,
      "\"26,": 59,
      "\"26,03": 60,
      "\"26,03,": 61,
      "\"26,03,95": 62,
      "\"26,03,95\"": 63,
      "\"56": 64,
      "\"561811": 65,
      "\"561811,": 66,
      "\"561811,15": 67,
      "\"561811,15\"": 68,
      "\"[": 69,
      "\"[,": 70,
      "\"[,v": 71,
      "\"[,v[": 72,
      "\"[,v[_": 73,
      "\"[,v[_,": 74,
      "\"[,v[_,s": 75,
      "\"[,v[_,s,": 76,
      "\"[,v[_,s,t": 77,
      "\"[,v[_,s,t_": 78,
      "\"[,v[_,s,t_1987": 79,
      "\"[,v[_,s,t_1987\"": 80,
      "\"\\\"\"\"\"": 81,
      "\"\\\"\"\"\"$": 82,
      "\"\\\"\"\"\"$almag": 83,
      "\"\\\"\"\"\"$almagemela": 84,
      "\"\\\"\"\"\"$almagemela=3D": 85,
      "\"\\\"\"\"\"$almagemela=3D)": 86,
      "\"\\\"\"\"\"$almagemela=3D)06\"": 87,
      "\"\\\"\"\"\"TE": 88,
      "\"\\\"\"\"\"TEAM": 89,
      "\"\\\"\"\"\"TEAM0": 90,
      "\"\\\"\"\"\"TEAM0\\\"\"\"\"\"": 91,
      "\"\\\"\"\"\"am": 92,
      "\"\\\"\"\"\"amistad": 93,
      "\"\\\"\"\"\"amistad\\\"\"\"\"\"": 94,
      "\"\\\"\"\"\"bitch": 95,
      "\"\\\"\"\"\"bitch\\\"\"\"\"\"": 96,
      "\"\\\"\"\"\"chul": 97,
      "\"\\\"\"\"\"chule15": 98,
      "\"\\\"\"\"\"chule1503": 99,
      "\"\\\"\"\"\"chule1503\\\"\"\"\"\"": 100,
      "\"\\\"\"\"\"per": 101,
      "\"\\\"\"\"\"perla": 102,
      "\"\\\"\"\"\"perla\\\"\"\"\"\"": 103,
      "\"as": 104,
      "\"as,.": 105,
      "\"as,.23": 106,
      "\"as,.23jk": 107,
      "\"as,.23jk\"": 108,
      "\"bla": 109,
      "\"bla,bla,bla": 110,
      "\"bla,bla,bla,bla": 111,
      "\"bla,bla,bla,bla\"": 112,
      "\"cam": 113,
      "\"cam,": 114,
      "\"cam,il": 115,
      "\"cam,ilas": 116,
      "\"cam,ilasata": 117,
      "\"cam,ilasata\"": 118,
      "\"cha": 119,
      "\"chakel": 120,
      "\"chakel,": 121,
      "\"chakel,1993": 122,
      "\"chakel,1993\"": 123,
      "\"d": 124,
      "\"d,": 125,
      "\"d,st": 126,
      "\"d,st1404": 127,
      "\"d,st1404\"": 128,
      "\"iz": 129,
      "\"izabe": 130,
      "\"izabe,": 131,
      "\"izabe,rodri": 132,
      "\"izabe,rodri\"": 133,
      "\"mis": 134,
      "\"misamigos": 135,
      "\"misamigos.": 136,
      "\"misamigos.,.,.": 137,
      "\"misamigos.,.,.,.": 138,
      "\"misamigos.,.,.,.\"": 139,
      "\"missa": 140,
      "\"missael": 141,
      "\"missael,": 142,
      "\"missael,gat": 143,
      "\"missael,gato": 144,
      "\"missael,gato06\"": 145,
      "\"no": 146,
      "\"no,": 147,
      "\"no,enti": 148,
      "\"no,entien": 149,
      "\"no,entiendo": 150,
      "\"no,entiendo,": 151,
      "\"no,entiendo,no": 152,
      "\"no,entiendo,no\"": 153,
      "\"sep": 154,
      "\"sep,": 155,
      "\"sep,24": 156,
      "\"sep,24,": 157,
      "\"sep,24,88": 158,
      "\"sep,24,88\"": 159,
      "\"te": 160,
      "\"texy": 161,
      "\"texy14": 162,
      "\"texy14,.": 163,
      "\"texy14,.-": 164,
      "\"texy14,.-\"": 165,
      "\"tier": 166,
      "\"tierra": 167,
      "\"tierra,": 168,
      "\"tierra,ra": 169,
      "\"tierra,raiz": 170,
      "\"tierra,raiz,": 171,
      "\"tierra,raiz,arbol": 172,
      "\"tierra,raiz,arbol\"": 173,
      "\"vivaesp": 174,
      "\"vivaespag": 175,
      "\"vivaespag,": 176,
      "\"vivaespag,a": 177,
      "\"vivaespag,a\"": 178,
      "#": 179,
      "#$": 180,
      "#1": 181,
      "#12": 182,
      "#12#": 183,
      "#87": 184,
      "#87ta": 185,
      "#P": 186,
      "#P18": 187,
      "#P18#12#": 188,
      "$": 189,
      "$$": 190,
      "$$asma": 191,
      "$$asma$%": 192,
      "$%": 193,
      "$07": 194,
      "$1": 195,
      "$10": 196,
      "$1_": 197,
      "$1_aitor": 198,
      "$1_aitor_4": 199,
      "$1_aitor_4$_": 200,
      "$1_aitor_4$_alcatraz": 201,
      "$753": 202,
      "$_": 203,
      "$_A": 204,
      "$ally": 205,
      "$allymy": 206,
      "$allymywi": 207,
      "$allymywife": 208,
      "$jos": 209,
      "$josail": 210,
      "$josailor": 211,
      "$josailorv": 212,
      "$josailorv$": 213,
      "%": 214,
      "%100": 215,
      "&": 216,
      "&1980": 217,
      "&1980$": 218,
      "&1980&": 219,
      "&45": 220,
      "&45&1980&": 221,
      "&5799": 222,
      "&579909": 223,
      "&5799097": 224,
      "&=C3=A7": 225,
      "&=C3=A7-": 226,
      "&ANDREA": 227,
      "&ANDREA)": 228,
      "&_": 229,
      "&_G": 230,
      "&_GH": 231,
      "&_GHT": 232,
      "&_GHT=C3=A0": 233,
      "&_GHT=C3=A0=C3=A9": 234,
      "&an": 235,
      "&anna": 236,
      "&annaer": 237,
      "&annaerb": 238,
      "&ik": 239,
      "&iker": 240,
      "&iker2000": 241,
      "&lili": 242,
      "&love": 243,
      "&th": 244,
      "&thomas": 245,
      "&y": 246,
      "'": 247,
      "(": 248,
      "(1": 249,
      "(1)": 250,
      "(AR": 251,
      "(ARIAN": 252,
      "(ARIANNA": 253,
      "(ARIANNA&ANDREA)": 254,
      "(B": 255,
      "(BAB": 256,
      "(BABIL": 257,
      "(BABILU": 258,
      "(BABILUX": 259,
      "(BABILUX)": 260,
      "(octubre": 261,
      "(octubre)": 262,
      "(octubre)15": 263,
      "(octubre)151976": 264,
      ")": 265,
      ")123": 266,
      ")s": 267,
      ")sg": 268,
      "*": 269,
      "**": 270,
      "***": 271,
      "****": 272,
      "**/": 273,
      "**89": 274,
      "**89310": 275,
      "**8931075": 276,
      "**89310751": 277,
      "**89310751**": 278,
      "**bid": 279,
      "**biddy": 280,
      "**biddy7": 281,
      "*/": 282,
      "*/*": 283,
      "*//": 284,
      "*//35": 285,
      "*//35be": 286,
      "*//35be16": 287,
      "*//35be16go": 288,
      "*//35be16go23": 289,
      "*//35be16go23//": 290,
      "*//35be16go23//*": 291,
      "*003": 292,
      "*18": 293,
      "*1811": 294,
      "*18796": 295,
      "*18796005": 296,
      "*1879600505": 297,
      "*18796005056": 298,
      "*1879600505602": 299,
      "*1879600505602*": 300,
      "*1980": 301,
      "*1980&": 302,
      "*2": 303,
      "*26": 304,
      "*26103": 305,
      "*28": 306,
      "*4": 307,
      "*45": 308,
      "*45*1980&": 309,
      "*98": 310,
      "*98s": 311,
      "*98say": 312,
      "*98sayut": 313,
      "*98sayutani": 314,
      "*98sayutani89*": 315,
      "*98sayutani89*+": 316,
      "*a": 317,
      "*ari": 318,
      "*be": 319,
      "*begu": 320,
      "*beguito": 321,
      "*beguito4": 322,
      "*beguito4*": 323,
      "*ben": 324,
      "*benti": 325,
      "*bentik": 326,
      "*bentikus": 327,
      "*bentikus*": 328,
      "*bero": 329,
      "*beroba": 330,
      "*beroba*": 331,
      "*bl": 332,
      "*bl5": 333,
      "*cleopatra": 334,
      "*cleopatra*26103": 335,
      "*fabi": 336,
      "*fabiola": 337,
      "*fabiola*": 338,
      "*kat": 339,
      "*katri": 340,
      "*katrijn": 341,
      "*katrijn*": 342,
      "*min": 343,
      "*minina": 344,
      "*minina*": 345,
      "*pap": 346,
      "*papaya": 347,
      "*papaya*": 348,
      "*z": 349,
      "*zalena": 350,
      "+": 351,
      "++": 352,
      "+++": 353,
      "+-": 354,
      ",": 355,
      ",.": 356,
      ",.,.": 357,
      ",bla": 358,
      ",bla,bla": 359,
      "-": 360,
      "--": 361,
      "-12": 362,
      "-123": 363,
      "-2": 364,
      "-21": 365,
      "-7": 366,
      "-F": 367,
      "-Feb": 368,
      "-Feb-": 369,
      "-J": 370,
      "-N": 371,
      "-Nov": 372,
      "-Nov-": 373,
      "-z": 374,
      ".": 375,
      "..": 376,
      "...": 377,
      ".0": 378,
      ".03": 379,
      ".06": 380,
      ".16": 381,
      ".2008": 382,
      ".O": 383,
      ".com": 384,
      ".madrid": 385,
      ".o.": 386,
      ".z": 387,
      "/": 388,
      "/*": 389,
      "//": 390,
      "//54": 391,
      "//54//": 392,
      "/04": 393,
      "/05/": 394,
      "/08": 395,
      "/09": 396,
      "/15": 397,
      "/15/": 398,
      "/84": 399,
      "0": 400,
      "0.": 401,
      "00": 402,
      "000": 403,
      "0000": 404,
      "0000ru": 405,
      "0000rub": 406,
      "0007": 407,
      "001": 408,
      "0011": 409,
      "002": 410,
      "003": 411,
      "004": 412,
      "005": 413,
      "006": 414,
      "007": 415,
      "01": 416,
      "010": 417,
      "0102": 418,
      "01022005": 419,
      "0106": 420,
      "0111": 421,
      "0123": 422,
      "012369": 423,
      "01236987": 424,
      "0123698745": 425,
      "0123698745angel": 426,
      "0124": 427,
      "015": 428,
      "017": 429,
      "0179": 430,
      "018": 431,
      "02": 432,
      "0205": 433,
      "0213": 434,
      "0219": 435,
      "021955": 436,
      "022": 437,
      "023": 438,
      "0283": 439,
      "029": 440,
      "03": 441,
      "03..": 442,
      "0302": 443,
      "0306": 444,
      "0312": 445,
      "0313": 446,
      "032": 447,
      "0323": 448,
      "033": 449,
      "0364": 450,
      "038": 451,
      "0392": 452,
      "0392b": 453,
      "0392b8": 454,
      "04": 455,
      "0404": 456,
      "0408": 457,
      "0417": 458,
      "0420": 459,
      "0429": 460,
      "0435": 461,
      "045": 462,
      "048": 463,
      "0490": 464,
      "05": 465,
      "05-": 466,
      "05/": 467,
      "0502": 468,
      "0505": 469,
      "0511": 470,
      "051970": 471,
      "053": 472,
      "0585": 473,
      "059": 474,
      "06": 475,
      "06\"": 476,
      "06.": 477,
      "0609": 478,
      "0610": 479,
      "062": 480,
      "062001": 481,
      "065": 482,
      "0667": 483,
      "067": 484,
      "07": 485,
      "0706": 486,
      "0707": 487,
      "070788": 488,
      "07078811": 489,
      "07078811amac": 490,
      "0774": 491,
      "0780": 492,
      "0793": 493,
      "0794": 494,
      "08": 495,
      "08-": 496,
      "08.": 497,
      "0803": 498,
      "0804": 499,
      "0806": 500,
      "0811": 501,
      "0812": 502,
      "0829": 503,
      "083": 504,
      "0877": 505,
      "09": 506,
      "0987654321": 507,
      "0988": 508,
      "0990": 509,
      "0iv": 510,
      "0ivir": 511,
      "0n": 512,
      "1": 513,
      "1.": 514,
      "1.44": 515,
      "1.44563": 516,
      "10": 517,
      "10.03": 518,
      "100": 519,
      "1001": 520,
      "1002": 521,
      "1004": 522,
      "1005": 523,
      "1008": 524,
      "101": 525,
      "1015": 526,
      "1016": 527,
      "1018": 528,
      "102": 529,
      "1020": 530,
      "1025": 531,
      "103": 532,
      "104": 533,
      "105": 534,
      "106": 535,
      "107": 536,
      "108": 537,
      "1084": 538,
      "109": 539,
      "1097": 540,
      "11": 541,
      "110": 542,
      "1102": 543,
      "1103": 544,
      "1104": 545,
      "110473": 546,
      "1105": 547,
      "1108": 548,
      "1109": 549,
      "111": 550,
      "11111": 551,
      "1112": 552,
      "112": 553,
      "1127": 554,
      "115": 555,
      "116": 556,
      "1163": 557,
      "1165": 558,
      "117": 559,
      "1185": 560,
      "119": 561,
      "1193": 562,
      "12": 563,
      "12-": 564,
      "120": 565,
      "1201": 566,
      "1202": 567,
      "1203": 568,
      "1204": 569,
      "1205": 570,
      "1209": 571,
      "1212": 572,
      "1213": 573,
      "1215": 574,
      "1222": 575,
      "123": 576,
      "1231": 577,
      "1234": 578,
      "12345": 579,
      "123456": 580,
      "123456789": 581,
      "124": 582,
      "1246": 583,
      "125": 584,
      "1260": 585,
      "1289": 586,
      "129": 587,
      "13": 588,
      "130": 589,
      "1302": 590,
      "1305": 591,
      "1306": 592,
      "1308": 593,
      "1310": 594,
      "1312": 595,
      "1313": 596,
      "1325": 597,
      "134": 598,
      "1348": 599,
      "135": 600,
      "136": 601,
      "1377": 602,
      "137713": 603,
      "13ni": 604,
      "13niche": 605,
      "13niche13": 606,
      "14": 607,
      "140": 608,
      "1402": 609,
      "1403": 610,
      "1404": 611,
      "1414": 612,
      "1415": 613,
      "144": 614,
      "145": 615,
      "147": 616,
      "149": 617,
      "14jer": 618,
      "15": 619,
      "1500": 620,
      "1504": 621,
      "1508": 622,
      "1510": 623,
      "1512": 624,
      "1518": 625,
      "152": 626,
      "1520": 627,
      "1528": 628,
      "155": 629,
      "1565": 630,
      "157": 631,
      "158": 632,
      "159": 633,
      "1593": 634,
      "15ami": 635,
      "15ami1": 636,
      "16": 637,
      "1601": 638,
      "1606": 639,
      "1612": 640,
      "162": 641,
      "163": 642,
      "164": 643,
      "1678": 644,
      "17": 645,
      "1702": 646,
      "1704": 647,
      "1707": 648,
      "1711": 649,
      "1715": 650,
      "1722": 651,
      "173": 652,
      "173173": 653,
      "176": 654,
      "177": 655,
      "1788": 656,
      "1789": 657,
      "18": 658,
      "1803": 659,
      "1807": 660,
      "1808": 661,
      "1809": 662,
      "1810": 663,
      "1811": 664,
      "1818": 665,
      "182": 666,
      "183": 667,
      "18469": 668,
      "186": 669,
      "187": 670,
      "189": 671,
      "19": 672,
      "190": 673,
      "1902": 674,
      "1904": 675,
      "1905": 676,
      "1909": 677,
      "1925": 678,
      "1929": 679,
      "193": 680,
      "1934": 681,
      "1939": 682,
      "194": 683,
      "1940": 684,
      "1945": 685,
      "195": 686,
      "1950": 687,
      "1953": 688,
      "1955": 689,
      "1956": 690,
      "1957": 691,
      "1959": 692,
      "196": 693,
      "1960": 694,
      "1961": 695,
      "1962": 696,
      "1963": 697,
      "1964": 698,
      "1965": 699,
      "1966": 700,
      "1967": 701,
      "1968": 702,
      "1969": 703,
      "197": 704,
      "1970": 705,
      "1971": 706,
      "1972": 707,
      "1973": 708,
      "1974": 709,
      "1975": 710,
      "1976": 711,
      "1977": 712,
      "1978": 713,
      "1979": 714,
      "198": 715,
      "1980": 716,
      "1981": 717,
      "1982": 718,
      "1983": 719,
      "1984": 720,
      "198419": 721,
      "1985": 722,
      "1986": 723,
      "1987": 724,
      "1988": 725,
      "1989": 726,
      "199": 727,
      "1990": 728,
      "1991": 729,
      "1992": 730,
      "1993": 731,
      "1994": 732,
      "1995": 733,
      "1996": 734,
      "1997": 735,
      "1998": 736,
      "1999": 737,
      "19999": 738,
      "1a": 739,
      "1d": 740,
      "1r": 741,
      "2": 742,
      "2.": 743,
      "2.64": 744,
      "2.7": 745,
      "2.71983": 746,
      "2.rob": 747,
      "2.roble": 748,
      "20": 749,
      "200": 750,
      "2000": 751,
      "2001": 752,
      "2002": 753,
      "2003": 754,
      "2004": 755,
      "2005": 756,
      "2006": 757,
      "200607": 758,
      "2007": 759,
      "2008": 760,
      "2009": 761,
      "2010": 762,
      "2012": 763,
      "202": 764,
      "2022": 765,
      "203": 766,
      "205": 767,
      "206": 768,
      "207": 769,
      "208": 770,
      "209": 771,
      "21": 772,
      "210": 773,
      "2104": 774,
      "2105": 775,
      "2106": 776,
      "211": 777,
      "2112": 778,
      "212": 779,
      "216": 780,
      "217": 781,
      "21E+11": 782,
      "22": 783,
      "2202": 784,
      "22021955": 785,
      "2204": 786,
      "2205": 787,
      "2211": 788,
      "2212": 789,
      "222": 790,
      "2222": 791,
      "223": 792,
      "225": 793,
      "2273": 794,
      "23": 795,
      "230": 796,
      "2303": 797,
      "2308": 798,
      "2309": 799,
      "2310": 800,
      "23112": 801,
      "2313": 802,
      "2325": 803,
      "233": 804,
      "234": 805,
      "2344": 806,
      "2345": 807,
      "236": 808,
      "2369": 809,
      "2387": 810,
      "23E+14": 811,
      "23b": 812,
      "24": 813,
      "2402": 814,
      "2403": 815,
      "2404": 816,
      "241": 817,
      "2410": 818,
      "2412": 819,
      "242": 820,
      "244": 821,
      "2456": 822,
      "246": 823,
      "2469": 824,
      "248": 825,
      "24878": 826,
      "2493": 827,
      "24@": 828,
      "25": 829,
      "2502": 830,
      "2507": 831,
      "2510": 832,
      "2511": 833,
      "254": 834,
      "256": 835,
      "2579": 836,
      "258": 837,
      "2583": 838,
      "26": 839,
      "2601": 840,
      "2606": 841,
      "2607": 842,
      "2612": 843,
      "2626": 844,
      "2627": 845,
      "2628": 846,
      "263": 847,
      "265": 848,
      "266": 849,
      "26de": 850,
      "26deoctubre": 851,
      "27": 852,
      "2702": 853,
      "2705": 854,
      "2710": 855,
      "2712": 856,
      "2720": 857,
      "2723": 858,
      "273": 859,
      "274": 860,
      "2749": 861,
      "275": 862,
      "277": 863,
      "2786": 864,
      "2793": 865,
      "28": 866,
      "280": 867,
      "2810": 868,
      "2812": 869,
      "283": 870,
      "284": 871,
      "285": 872,
      "287": 873,
      "288": 874,
      "289": 875,
      "29": 876,
      "2902": 877,
      "2903": 878,
      "2905": 879,
      "2907": 880,
      "2908": 881,
      "2909": 882,
      "290987": 883,
      "2910": 884,
      "2912": 885,
      "293": 886,
      "29364": 887,
      "2E+11": 888,
      "2i": 889,
      "2l": 890,
      "2s": 891,
      "3": 892,
      "3.": 893,
      "30": 894,
      "300": 895,
      "3000": 896,
      "3005": 897,
      "3009": 898,
      "3012": 899,
      "302": 900,
      "303": 901,
      "304": 902,
      "308": 903,
      "309": 904,
      "31": 905,
      "310": 906,
      "3112": 907,
      "312": 908,
      "313": 909,
      "314": 910,
      "3148": 911,
      "318": 912,
      "32": 913,
      "321": 914,
      "325": 915,
      "3259": 916,
      "328": 917,
      "33": 918,
      "332": 919,
      "333": 920,
      "334": 921,
      "337": 922,
      "338": 923,
      "34": 924,
      "344": 925,
      "349": 926,
      "35": 927,
      "350": 928,
      "3529": 929,
      "353": 930,
      "354": 931,
      "355": 932,
      "357": 933,
      "3589": 934,
      "36": 935,
      "3627": 936,
      "366": 937,
      "369": 938,
      "37": 939,
      "379": 940,
      "38": 941,
      "380": 942,
      "3853": 943,
      "39": 944,
      "3=": 945,
      "3D": 946,
      "3d": 947,
      "3d4": 948,
      "3de": 949,
      "3e": 950,
      "3e4r": 951,
      "3l": 952,
      "3mar": 953,
      "3n": 954,
      "3s": 955,
      "4": 956,
      "40": 957,
      "402": 958,
      "404": 959,
      "407": 960,
      "407078811amac": 961,
      "41": 962,
      "412": 963,
      "413": 964,
      "414": 965,
      "42": 966,
      "426": 967,
      "427": 968,
      "43": 969,
      "44": 970,
      "444": 971,
      "4455": 972,
      "4464": 973,
      "449": 974,
      "449107": 975,
      "45": 976,
      "456": 977,
      "46": 978,
      "464": 979,
      "469": 980,
      "47": 981,
      "474": 982,
      "48": 983,
      "4800": 984,
      "486": 985,
      "486r": 986,
      "489": 987,
      "49": 988,
      "4_": 989,
      "4e": 990,
      "4ever": 991,
      "4mi": 992,
      "4r": 993,
      "5": 994,
      "5.": 995,
      "50": 996,
      "5000": 997,
      "505": 998,
      "51": 999,
      "518": 1000,
      "52": 1001,
      "520": 1002,
      "521": 1003,
      "524": 1004,
      "529": 1005,
      "53": 1006,
      "535": 1007,
      "5370": 1008,
      "54": 1009,
      "5426": 1010,
      "54ndr": 1011,
      "54ndr486r": 1012,
      "55": 1013,
      "5513": 1014,
      "555": 1015,
      "556": 1016,
      "559": 1017,
      "55983": 1018,
      "56": 1019,
      "562": 1020,
      "563": 1021,
      "564": 1022,
      "5674": 1023,
      "5682": 1024,
      "5694": 1025,
      "57": 1026,
      "5704": 1027,
      "574": 1028,
      "576": 1029,
      "5799": 1030,
      "58": 1031,
      "5806": 1032,
      "59": 1033,
      "5983": 1034,
      "598399": 1035,
      "5up": 1036,
      "5up$": 1037,
      "6": 1038,
      "6.": 1039,
      "60": 1040,
      "6013": 1041,
      "605": 1042,
      "609": 1043,
      "61": 1044,
      "612": 1045,
      "616": 1046,
      "617": 1047,
      "619": 1048,
      "62": 1049,
      "622": 1050,
      "626": 1051,
      "629": 1052,
      "63": 1053,
      "630": 1054,
      "6325": 1055,
      "6369": 1056,
      "639": 1057,
      "64": 1058,
      "642": 1059,
      "65": 1060,
      "6512": 1061,
      "654": 1062,
      "655": 1063,
      "656": 1064,
      "66": 1065,
      "663": 1066,
      "664": 1067,
      "666": 1068,
      "6666": 1069,
      "667": 1070,
      "6684": 1071,
      "67": 1072,
      "674": 1073,
      "675": 1074,
      "678": 1075,
      "6789": 1076,
      "678922": 1077,
      "68": 1078,
      "6816": 1079,
      "686": 1080,
      "69": 1081,
      "693": 1082,
      "696": 1083,
      "6969": 1084,
      "6pu": 1085,
      "6pu3": 1086,
      "7": 1087,
      "7.": 1088,
      "70": 1089,
      "708": 1090,
      "709": 1091,
      "71": 1092,
      "712": 1093,
      "717": 1094,
      "72": 1095,
      "721": 1096,
      "7213": 1097,
      "726": 1098,
      "73": 1099,
      "731": 1100,
      "74": 1101,
      "740": 1102,
      "7415ami1": 1103,
      "75": 1104,
      "753": 1105,
      "76": 1106,
      "761": 1107,
      "767": 1108,
      "77": 1109,
      "774": 1110,
      "775": 1111,
      "777": 1112,
      "7777": 1113,
      "7780": 1114,
      "7786": 1115,
      "779": 1116,
      "78": 1117,
      "786": 1118,
      "789": 1119,
      "79": 1120,
      "7913": 1121,
      "796": 1122,
      "797": 1123,
      "799": 1124,
      "7bi": 1125,
      "7bi4mi": 1126,
      "8": 1127,
      "8.": 1128,
      "80": 1129,
      "805": 1130,
      "809": 1131,
      "81": 1132,
      "812": 1133,
      "813": 1134,
      "814": 1135,
      "82": 1136,
      "827": 1137,
      "83": 1138,
      "8322": 1139,
      "835": 1140,
      "839": 1141,
      "84": 1142,
      "8444": 1143,
      "845": 1144,
      "847": 1145,
      "8484": 1146,
      "8485": 1147,
      "849": 1148,
      "84y": 1149,
      "85": 1150,
      "859": 1151,
      "86": 1152,
      "87": 1153,
      "87654": 1154,
      "87654321": 1155,
      "878": 1156,
      "88": 1157,
      "884": 1158,
      "8847": 1159,
      "888": 1160,
      "8888": 1161,
      "88888888": 1162,
      "89": 1163,
      "89*": 1164,
      "890": 1165,
      "8913": 1166,
      "8925": 1167,
      "898": 1168,
      "8E+11": 1169,
      "8d": 1170,
      "9": 1171,
      "9.": 1172,
      "90": 1173,
      "900": 1174,
      "905": 1175,
      "909": 1176,
      "91": 1177,
      "911": 1178,
      "917": 1179,
      "91726": 1180,
      "918": 1181,
      "92": 1182,
      "9214": 1183,
      "93": 1184,
      "94": 1185,
      "945up$": 1186,
      "946": 1187,
      "95": 1188,
      "952": 1189,
      "957": 1190,
      "9570794": 1191,
      "96": 1192,
      "9609": 1193,
      "963": 1194,
      "964": 1195,
      "965": 1196,
      "97": 1197,
      "975": 1198,
      "977": 1199,
      "9778913": 1200,
      "98": 1201,
      "987": 1202,
      "99": 1203,
      "990": 1204,
      "993": 1205,
      "994": 1206,
      "999": 1207,
      "9999": 1208,
      "9d": 1209,
      "9d9d": 1210,
      "9e": 1211,
      "9ja": 1212,
      "9ja6pu3": 1213,
      "<": 1214,
      "=": 1215,
      "=3D": 1216,
      "=C": 1217,
      "=C3=": 1218,
      "=C3=A": 1219,
      "=C3=A0": 1220,
      "=C3=A7": 1221,
      "=C3=A9": 1222,
      "=C3=B": 1223,
      ">": 1224,
      "?": 1225,
      "@": 1226,
      "@@": 1227,
      "@@@@": 1228,
      "@_": 1229,
      "@_32": 1230,
      "@hotmail.com": 1231,
      "@l": 1232,
      "@m": 1233,
      "@no": 1234,
      "@nochi": 1235,
      "@nochipa": 1236,
      "@tag": 1237,
      "A": 1238,
      "AB": 1239,
      "AC": 1240,
      "ACH": 1241,
      "ACU": 1242,
      "AD": 1243,
      "AI": 1244,
      "AJ": 1245,
      "AL": 1246,
      "AL0": 1247,
      "ALEX": 1248,
      "ALF": 1249,
      "ALFUH": 1250,
      "ALFUHR": 1251,
      "ALFUHRER": 1252,
      "ALIN": 1253,
      "AM": 1254,
      "AMO": 1255,
      "AMOR": 1256,
      "AN": 1257,
      "AND": 1258,
      "ANDRE": 1259,
      "ANDREA": 1260,
      "ANG": 1261,
      "ANGELI": 1262,
      "ANI": 1263,
      "ANTO": 1264,
      "ANTONIO": 1265,
      "AP": 1266,
      "AR": 1267,
      "ARG": 1268,
      "ARIO": 1269,
      "ARLOS": 1270,
      "ARMIN": 1271,
      "AS": 1272,
      "AS2006": 1273,
      "AT": 1274,
      "ATO": 1275,
      "AU": 1276,
      "AV": 1277,
      "AVI": 1278,
      "AVIER": 1279,
      "AY": 1280,
      "AZ": 1281,
      "Ab": 1282,
      "Acu": 1283,
      "Acuario": 1284,
      "Am": 1285,
      "Ar": 1286,
      "At": 1287,
      "B": 1288,
      "BAR": 1289,
      "BAS": 1290,
      "BB": 1291,
      "BE": 1292,
      "BE26": 1293,
      "BEL": 1294,
      "BEME": 1295,
      "BER": 1296,
      "BES": 1297,
      "BET": 1298,
      "BETO": 1299,
      "BI": 1300,
      "BIEN": 1301,
      "BRE": 1302,
      "Be": 1303,
      "Bet": 1304,
      "Beto": 1305,
      "C": 1306,
      "CA": 1307,
      "CARLOS": 1308,
      "CAS": 1309,
      "CE": 1310,
      "CES": 1311,
      "CH": 1312,
      "CHAR": 1313,
      "CHIL": 1314,
      "CHILO": 1315,
      "CHO": 1316,
      "CI": 1317,
      "CIA": 1318,
      "CIL": 1319,
      "CIO": 1320,
      "CO": 1321,
      "CO@_32": 1322,
      "COM": 1323,
      "COR": 1324,
      "COS": 1325,
      "COY": 1326,
      "Ch": 1327,
      "D": 1328,
      "DA": 1329,
      "DAALFUHRER": 1330,
      "DAD": 1331,
      "DANI": 1332,
      "DANIEL": 1333,
      "DE": 1334,
      "DEDE": 1335,
      "DEN": 1336,
      "DENOV": 1337,
      "DF": 1338,
      "DI": 1339,
      "DO": 1340,
      "DOR": 1341,
      "DR": 1342,
      "DU": 1343,
      "De": 1344,
      "Dream": 1345,
      "Dreamfal": 1346,
      "Dreamfal1": 1347,
      "Dul": 1348,
      "Dules": 1349,
      "E": 1350,
      "E+": 1351,
      "E+11": 1352,
      "E+12": 1353,
      "E+13": 1354,
      "E+14": 1355,
      "E+15": 1356,
      "EL": 1357,
      "ELI": 1358,
      "ELIN": 1359,
      "ELO": 1360,
      "EN": 1361,
      "ENCIA": 1362,
      "ENI": 1363,
      "ER": 1364,
      "ERN": 1365,
      "ERNO": 1366,
      "ERO": 1367,
      "ES": 1368,
      "ESC": 1369,
      "ESTA": 1370,
      "ESTAM": 1371,
      "ESTAMBIEN": 1372,
      "ESU": 1373,
      "ET": 1374,
      "EX": 1375,
      "Efron": 1376,
      "El": 1377,
      "F": 1378,
      "FELI": 1379,
      "FL": 1380,
      "FLIA": 1381,
      "FLIA7415ami1": 1382,
      "FLO": 1383,
      "FO": 1384,
      "FR": 1385,
      "Fla": 1386,
      "G": 1387,
      "GA": 1388,
      "GAS": 1389,
      "GAY": 1390,
      "GE": 1391,
      "GI": 1392,
      "GIRL": 1393,
      "GO": 1394,
      "GU": 1395,
      "H": 1396,
      "HAZ": 1397,
      "HAZEL": 1398,
      "HER": 1399,
      "HU": 1400,
      "Hammar": 1401,
      "Hammarby": 1402,
      "I": 1403,
      "IA": 1404,
      "IA2008": 1405,
      "IAN": 1406,
      "IE": 1407,
      "IEM": 1408,
      "IEMBRE": 1409,
      "II": 1410,
      "IL": 1411,
      "ILL": 1412,
      "ILLO": 1413,
      "IN": 1414,
      "IO": 1415,
      "IS": 1416,
      "ISTO": 1417,
      "IT": 1418,
      "ITA": 1419,
      "ITAR": 1420,
      "J": 1421,
      "JA": 1422,
      "JAVIER": 1423,
      "JE": 1424,
      "JESU": 1425,
      "JESUS": 1426,
      "JO": 1427,
      "JU": 1428,
      "K": 1429,
      "KE": 1430,
      "KI": 1431,
      "Ka": 1432,
      "L": 1433,
      "LA": 1434,
      "LAL0": 1435,
      "LARG": 1436,
      "LE": 1437,
      "LEO": 1438,
      "LI": 1439,
      "LO": 1440,
      "LOS": 1441,
      "LU": 1442,
      "LUCIA": 1443,
      "M": 1444,
      "MA": 1445,
      "MA16": 1446,
      "MA16RO26": 1447,
      "MAR": 1448,
      "MAti": 1449,
      "MAtiCO@_32": 1450,
      "ME": 1451,
      "MF": 1452,
      "MI": 1453,
      "MIEN": 1454,
      "MIN": 1455,
      "MIS": 1456,
      "MO": 1457,
      "MON": 1458,
      "MONT": 1459,
      "MONTRE": 1460,
      "MU": 1461,
      "Ma": 1462,
      "Mar": 1463,
      "Mel": 1464,
      "Mv": 1465,
      "N": 1466,
      "NA": 1467,
      "NAM": 1468,
      "NC": 1469,
      "NE": 1470,
      "NES": 1471,
      "NI": 1472,
      "NIO": 1473,
      "NRL": 1474,
      "NRL290987": 1475,
      "O": 1476,
      "OL": 1477,
      "OU": 1478,
      "OV": 1479,
      "P": 1480,
      "PAL": 1481,
      "PALENCIA": 1482,
      "PE": 1483,
      "PI": 1484,
      "PO": 1485,
      "PP": 1486,
      "PR": 1487,
      "PRIN": 1488,
      "PRINCES": 1489,
      "PRINCESA": 1490,
      "PU": 1491,
      "Q": 1492,
      "QMF": 1493,
      "QU": 1494,
      "QUE": 1495,
      "QUI": 1496,
      "QUIERO": 1497,
      "R": 1498,
      "RA": 1499,
      "RAN": 1500,
      "RE": 1501,
      "REN": 1502,
      "RI": 1503,
      "RL": 1504,
      "RO": 1505,
      "RO26": 1506,
      "Ro": 1507,
      "S": 1508,
      "SA": 1509,
      "SAN": 1510,
      "SE": 1511,
      "SI": 1512,
      "SIL": 1513,
      "SO": 1514,
      "SOY": 1515,
      "ST": 1516,
      "SU": 1517,
      "T": 1518,
      "TA": 1519,
      "TE": 1520,
      "TEQUIERO": 1521,
      "TER": 1522,
      "TI": 1523,
      "TIA": 1524,
      "TO": 1525,
      "TY": 1526,
      "Ti": 1527,
      "U": 1528,
      "UH": 1529,
      "UL": 1530,
      "URI": 1531,
      "V": 1532,
      "VAL": 1533,
      "VER": 1534,
      "VIL": 1535,
      "Vale": 1536,
      "W": 1537,
      "X": 1538,
      "Y": 1539,
      "YT": 1540,
      "Z": 1541,
      "ZA": 1542,
      "ZZ": 1543,
      "Zac": 1544,
      "ZacEfron": 1545,
      "[": 1546,
      "\\": 1547,
      "\\\"\"\"\"": 1548,
      "\\\"\"\"\"\"": 1549,
      "\\'": 1550,
      "\\'\\'": 1551,
      "\\'\\'\\'": 1552,
      "]": 1553,
      "^": 1554,
      "_": 1555,
      "_08": 1556,
      "_1": 1557,
      "_12": 1558,
      "_14": 1559,
      "_4": 1560,
      "_7": 1561,
      "_eiser": 1562,
      "_sal": 1563,
      "_y_": 1564,
      "_y_nanc": 1565,
      "_y_nancy_": 1566,
      "_y_nancy_102": 1567,
      "`": 1568,
      "a": 1569,
      "a.": 1570,
      "a0": 1571,
      "a1": 1572,
      "a123": 1573,
      "a18": 1574,
      "a2007": 1575,
      "a23": 1576,
      "a37": 1577,
      "a6": 1578,
      "aa": 1579,
      "aar": 1580,
      "aat": 1581,
      "ab": 1582,
      "aba": 1583,
      "abb": 1584,
      "abc": 1585,
      "abcd": 1586,
      "abd": 1587,
      "abe": 1588,
      "abea": 1589,
      "abeach": 1590,
      "abel": 1591,
      "abeth": 1592,
      "abi": 1593,
      "abil": 1594,
      "abilidad": 1595,
      "abl": 1596,
      "ablan": 1597,
      "ablanca": 1598,
      "able": 1599,
      "ablitas": 1600,
      "abog": 1601,
      "abon": 1602,
      "abor": 1603,
      "abr": 1604,
      "abu": 1605,
      "abuco": 1606,
      "abuco1956": 1607,
      "ac": 1608,
      "aca": 1609,
      "acap": 1610,
      "acar": 1611,
      "acat": 1612,
      "ace": 1613,
      "aci": 1614,
      "acion": 1615,
      "aciones": 1616,
      "acita": 1617,
      "acito": 1618,
      "ack": 1619,
      "aco": 1620,
      "acola": 1621,
      "act": 1622,
      "acu": 1623,
      "ad": 1624,
      "ada": 1625,
      "adalu": 1626,
      "adalupe": 1627,
      "ade": 1628,
      "adec": 1629,
      "adel": 1630,
      "adem": 1631,
      "adey": 1632,
      "adi": 1633,
      "adiator": 1634,
      "adie": 1635,
      "adios": 1636,
      "admin": 1637,
      "administracion": 1638,
      "ado": 1639,
      "adol": 1640,
      "adona": 1641,
      "ador": 1642,
      "adora": 1643,
      "ados": 1644,
      "adr": 1645,
      "adra": 1646,
      "adre": 1647,
      "adri": 1648,
      "adrian": 1649,
      "adrid": 1650,
      "adu": 1651,
      "ady": 1652,
      "ae": 1653,
      "aer": 1654,
      "af": 1655,
      "ag": 1656,
      "agar": 1657,
      "agarcia": 1658,
      "agat": 1659,
      "agay": 1660,
      "agayor": 1661,
      "agna": 1662,
      "ago": 1663,
      "agro": 1664,
      "agu": 1665,
      "aguas": 1666,
      "ah": 1667,
      "ahara": 1668,
      "ahid": 1669,
      "ahr": 1670,
      "ahran": 1671,
      "ail": 1672,
      "aina": 1673,
      "aitor": 1674,
      "aj": 1675,
      "aja": 1676,
      "ajes": 1677,
      "aji": 1678,
      "ajo": 1679,
      "ak": 1680,
      "al": 1681,
      "ala": 1682,
      "alab": 1683,
      "alam": 1684,
      "alan": 1685,
      "albe": 1686,
      "albert": 1687,
      "albertito": 1688,
      "alberto": 1689,
      "alc": 1690,
      "alcant": 1691,
      "alcatra": 1692,
      "alcatraz": 1693,
      "ald": 1694,
      "alder": 1695,
      "alderia": 1696,
      "aldiv": 1697,
      "aldo": 1698,
      "aldon": 1699,
      "aldu": 1700,
      "ale": 1701,
      "alej": 1702,
      "alejand": 1703,
      "alejandra": 1704,
      "alejandro": 1705,
      "alem": 1706,
      "alen": 1707,
      "alena": 1708,
      "alenbe": 1709,
      "aleon": 1710,
      "ales": 1711,
      "alest": 1712,
      "alex": 1713,
      "alexand": 1714,
      "aley": 1715,
      "alez": 1716,
      "alfon": 1717,
      "alfre": 1718,
      "ali": 1719,
      "alia": 1720,
      "alic": 1721,
      "alil": 1722,
      "alina": 1723,
      "alinda": 1724,
      "alis": 1725,
      "aliz": 1726,
      "alki": 1727,
      "all": 1728,
      "allah": 1729,
      "alle": 1730,
      "allero": 1731,
      "alli": 1732,
      "allica": 1733,
      "ally": 1734,
      "alma": 1735,
      "almag": 1736,
      "alo": 1737,
      "aloka": 1738,
      "alon": 1739,
      "alonga": 1740,
      "alonso": 1741,
      "alp": 1742,
      "alto": 1743,
      "alu": 1744,
      "alucia": 1745,
      "aluk": 1746,
      "aluk2": 1747,
      "alv": 1748,
      "alys": 1749,
      "am": 1750,
      "ama": 1751,
      "amac": 1752,
      "amada": 1753,
      "amadre": 1754,
      "amam": 1755,
      "aman": 1756,
      "amar": 1757,
      "amaria": 1758,
      "amarina": 1759,
      "amaya": 1760,
      "amb": 1761,
      "ame": 1762,
      "amed": 1763,
      "amejor": 1764,
      "amel": 1765,
      "amelo": 1766,
      "amer": 1767,
      "amer88": 1768,
      "americ": 1769,
      "america": 1770,
      "ami": 1771,
      "amig": 1772,
      "amigos": 1773,
      "amil": 1774,
      "amily": 1775,
      "amino": 1776,
      "amire": 1777,
      "amirez": 1778,
      "ammar": 1779,
      "amo": 1780,
      "amon": 1781,
      "amor": 1782,
      "amores": 1783,
      "amoreter": 1784,
      "amoreterno": 1785,
      "amoz": 1786,
      "ams": 1787,
      "amster": 1788,
      "amsterdam": 1789,
      "amsung": 1790,
      "an": 1791,
      "ana": 1792,
      "anab": 1793,
      "anada": 1794,
      "anazer": 1795,
      "anazerim": 1796,
      "anazerimar": 1797,
      "anc": 1798,
      "and": 1799,
      "anda": 1800,
      "andalo": 1801,
      "ande": 1802,
      "andesa": 1803,
      "andez": 1804,
      "andia": 1805,
      "ando": 1806,
      "andr": 1807,
      "andre": 1808,
      "andrea": 1809,
      "andres": 1810,
      "andy": 1811,
      "ane": 1812,
      "ang": 1813,
      "anga": 1814,
      "angab": 1815,
      "angel": 1816,
      "angelo": 1817,
      "angels": 1818,
      "ani": 1819,
      "ani22": 1820,
      "ania": 1821,
      "anic": 1822,
      "anie": 1823,
      "aniel": 1824,
      "anim": 1825,
      "anita": 1826,
      "anj": 1827,
      "anni": 1828,
      "ano": 1829,
      "anon": 1830,
      "anos": 1831,
      "ans": 1832,
      "ant": 1833,
      "ante": 1834,
      "antel": 1835,
      "anter": 1836,
      "anti": 1837,
      "antin": 1838,
      "anto": 1839,
      "anton": 1840,
      "antonio": 1841,
      "antos": 1842,
      "anueva": 1843,
      "any": 1844,
      "anz": 1845,
      "anza": 1846,
      "ap": 1847,
      "apa": 1848,
      "apat": 1849,
      "ape": 1850,
      "apo": 1851,
      "apol": 1852,
      "appy": 1853,
      "apr": 1854,
      "ar": 1855,
      "ara": 1856,
      "aran": 1857,
      "arbol": 1858,
      "arboleda": 1859,
      "arch": 1860,
      "arco": 1861,
      "arcoiris": 1862,
      "ard": 1863,
      "ardin": 1864,
      "ardinero": 1865,
      "ardo": 1866,
      "are": 1867,
      "arealonga": 1868,
      "arely": 1869,
      "aren": 1870,
      "ares": 1871,
      "aret": 1872,
      "arg": 1873,
      "ari": 1874,
      "aria": 1875,
      "arian": 1876,
      "arianne": 1877,
      "ariel": 1878,
      "ario": 1879,
      "arita": 1880,
      "ark": 1881,
      "arl": 1882,
      "arlie": 1883,
      "arlin": 1884,
      "arm": 1885,
      "armand": 1886,
      "armando": 1887,
      "aro": 1888,
      "aroa": 1889,
      "aron": 1890,
      "arot": 1891,
      "arquit": 1892,
      "arquitec": 1893,
      "arquitect": 1894,
      "arr": 1895,
      "arra": 1896,
      "arre": 1897,
      "arri": 1898,
      "arro": 1899,
      "arry": 1900,
      "arrypot": 1901,
      "ars": 1902,
      "art": 1903,
      "arte": 1904,
      "arth": 1905,
      "arthur": 1906,
      "artur": 1907,
      "arturito": 1908,
      "arturo": 1909,
      "ary": 1910,
      "as": 1911,
      "as16": 1912,
      "asa": 1913,
      "asanueva": 1914,
      "asdf": 1915,
      "asdfasdf": 1916,
      "ase": 1917,
      "aseg": 1918,
      "asegura": 1919,
      "ash": 1920,
      "ashion": 1921,
      "ashley": 1922,
      "asi": 1923,
      "asito": 1924,
      "asm": 1925,
      "asma": 1926,
      "aso": 1927,
      "ason": 1928,
      "asr": 1929,
      "ass": 1930,
      "assw": 1931,
      "assword": 1932,
      "ast": 1933,
      "aste": 1934,
      "asti": 1935,
      "astique": 1936,
      "astr": 1937,
      "astur": 1938,
      "asu": 1939,
      "asy": 1940,
      "asyyo": 1941,
      "at": 1942,
      "at.madrid": 1943,
      "ata": 1944,
      "ate": 1945,
      "ateamo": 1946,
      "athan": 1947,
      "ati": 1948,
      "ation": 1949,
      "aton": 1950,
      "ator": 1951,
      "atra": 1952,
      "att": 1953,
      "au": 1954,
      "aud": 1955,
      "audi": 1956,
      "audrey": 1957,
      "audrey26": 1958,
      "aur": 1959,
      "aurel": 1960,
      "aurelio": 1961,
      "aust": 1962,
      "austin": 1963,
      "av": 1964,
      "avad": 1965,
      "avanz": 1966,
      "ave": 1967,
      "avefenix": 1968,
      "aven": 1969,
      "aver": 1970,
      "avez": 1971,
      "avida": 1972,
      "avil": 1973,
      "avito": 1974,
      "avo": 1975,
      "avr": 1976,
      "ax": 1977,
      "axel": 1978,
      "axl": 1979,
      "ay": 1980,
      "aya": 1981,
      "ayariel": 1982,
      "ayel": 1983,
      "aygar": 1984,
      "aygaru": 1985,
      "ayle": 1986,
      "ayleenl": 1987,
      "ayleenloy": 1988,
      "aylin": 1989,
      "ayo": 1990,
      "aypap": 1991,
      "ayu": 1992,
      "az": 1993,
      "aza": 1994,
      "azar": 1995,
      "azer": 1996,
      "azerty": 1997,
      "azmin": 1998,
      "azo": 1999,
      "azon": 2000,
      "azorel": 2001,
      "azqu": 2002,
      "azquez": 2003,
      "azu": 2004,
      "azul": 2005,
      "azz": 2006,
      "b": 2007,
      "b-": 2008,
      "b3": 2009,
      "b82": 2010,
      "ba": 2011,
      "bab": 2012,
      "baba123": 2013,
      "baby": 2014,
      "bac": 2015,
      "bad": 2016,
      "bail": 2017,
      "baj": 2018,
      "bal": 2019,
      "ball": 2020,
      "balon": 2021,
      "balonces": 2022,
      "baloncesto": 2023,
      "bam": 2024,
      "ban": 2025,
      "bao": 2026,
      "bar": 2027,
      "barbac": 2028,
      "barby": 2029,
      "barcel": 2030,
      "barcelona": 2031,
      "barr": 2032,
      "baru": 2033,
      "bas": 2034,
      "bash": 2035,
      "bast": 2036,
      "bastian": 2037,
      "bat": 2038,
      "bax": 2039,
      "bb": 2040,
      "bbbb": 2041,
      "bbbbbbbb": 2042,
      "bc": 2043,
      "bd": 2044,
      "be": 2045,
      "bea": 2046,
      "bear": 2047,
      "beat": 2048,
      "beatriz": 2049,
      "bebe": 2050,
      "bebo": 2051,
      "beca": 2052,
      "becer": 2053,
      "beck": 2054,
      "becor": 2055,
      "bed": 2056,
      "bego": 2057,
      "bek": 2058,
      "bel": 2059,
      "beld": 2060,
      "belen": 2061,
      "bell": 2062,
      "bella": 2063,
      "bem": 2064,
      "ben": 2065,
      "bened": 2066,
      "benedetti": 2067,
      "beni": 2068,
      "benito": 2069,
      "ber": 2070,
      "bere": 2071,
      "beren": 2072,
      "berenice": 2073,
      "bern": 2074,
      "bernie": 2075,
      "bero": 2076,
      "berry": 2077,
      "bert": 2078,
      "berto": 2079,
      "berton": 2080,
      "bertonet": 2081,
      "bertonetur": 2082,
      "bertoneturbo": 2083,
      "bes": 2084,
      "bess": 2085,
      "best": 2086,
      "bet": 2087,
      "beto": 2088,
      "betor": 2089,
      "betty": 2090,
      "bety": 2091,
      "bg": 2092,
      "bi": 2093,
      "bian": 2094,
      "bianca": 2095,
      "bibek": 2096,
      "bibian": 2097,
      "bicho": 2098,
      "bid": 2099,
      "bil": 2100,
      "bilal": 2101,
      "bill": 2102,
      "bin": 2103,
      "binod": 2104,
      "bip": 2105,
      "bit": 2106,
      "bitch": 2107,
      "biza": 2108,
      "bj": 2109,
      "bl": 2110,
      "bla": 2111,
      "black": 2112,
      "blan": 2113,
      "blanc": 2114,
      "blancanie": 2115,
      "bless": 2116,
      "bling": 2117,
      "blink": 2118,
      "blink182": 2119,
      "blu": 2120,
      "bm": 2121,
      "bn": 2122,
      "bo": 2123,
      "bob": 2124,
      "bobb": 2125,
      "bol": 2126,
      "bom": 2127,
      "bombon": 2128,
      "bon": 2129,
      "bona": 2130,
      "bond": 2131,
      "bonita": 2132,
      "bor": 2133,
      "born": 2134,
      "bos": 2135,
      "bot": 2136,
      "bou": 2137,
      "boy": 2138,
      "br": 2139,
      "bra": 2140,
      "brail": 2141,
      "brav": 2142,
      "bravo": 2143,
      "braz": 2144,
      "brazil": 2145,
      "brazilian": 2146,
      "brazilianflow": 2147,
      "bre": 2148,
      "brend": 2149,
      "brero": 2150,
      "bri": 2151,
      "brian": 2152,
      "brig": 2153,
      "bril": 2154,
      "brito": 2155,
      "bro": 2156,
      "bros": 2157,
      "bru": 2158,
      "bs": 2159,
      "bu": 2160,
      "buena": 2161,
      "bur": 2162,
      "burbu": 2163,
      "by": 2164,
      "c": 2165,
      "ca": 2166,
      "ca-": 2167,
      "cab": 2168,
      "cach": 2169,
      "cacho": 2170,
      "cachor": 2171,
      "cachorr": 2172,
      "cador": 2173,
      "cal": 2174,
      "cali": 2175,
      "cam": 2176,
      "camaron": 2177,
      "camil": 2178,
      "camilita": 2179,
      "camp": 2180,
      "campeon": 2181,
      "can": 2182,
      "canc": 2183,
      "cand": 2184,
      "candelita": 2185,
      "canto": 2186,
      "cap": 2187,
      "capric": 2188,
      "capricornio": 2189,
      "car": 2190,
      "carac": 2191,
      "carit": 2192,
      "carl": 2193,
      "carla": 2194,
      "carlitos": 2195,
      "carlos": 2196,
      "carmel": 2197,
      "carmen": 2198,
      "carolina": 2199,
      "carped": 2200,
      "carpediem": 2201,
      "carrera": 2202,
      "carrera380": 2203,
      "cas": 2204,
      "casa": 2205,
      "casan": 2206,
      "cast": 2207,
      "cat": 2208,
      "catalina": 2209,
      "cate": 2210,
      "cay": 2211,
      "cc": 2212,
      "ccaygaru": 2213,
      "ce": 2214,
      "cec": 2215,
      "ced": 2216,
      "cedes": 2217,
      "cel": 2218,
      "cen": 2219,
      "cena": 2220,
      "cent": 2221,
      "cep": 2222,
      "cer": 2223,
      "ces": 2224,
      "cesar": 2225,
      "cess": 2226,
      "ch": 2227,
      "cha": 2228,
      "chach": 2229,
      "chal": 2230,
      "chap": 2231,
      "chard": 2232,
      "charlie": 2233,
      "charm": 2234,
      "chas": 2235,
      "chat": 2236,
      "che": 2237,
      "ched": 2238,
      "chel": 2239,
      "chelito": 2240,
      "chen": 2241,
      "chez": 2242,
      "chi": 2243,
      "chic": 2244,
      "chick": 2245,
      "chil": 2246,
      "chim": 2247,
      "chin": 2248,
      "ching": 2249,
      "chiqu": 2250,
      "chiquita": 2251,
      "chis": 2252,
      "chito": 2253,
      "chiv": 2254,
      "chivas": 2255,
      "cho": 2256,
      "choc": 2257,
      "chocol": 2258,
      "chocolate": 2259,
      "chos": 2260,
      "chris": 2261,
      "christ": 2262,
      "chu": 2263,
      "chucha": 2264,
      "chuel": 2265,
      "chul": 2266,
      "chulo": 2267,
      "chum": 2268,
      "chund": 2269,
      "chus": 2270,
      "ci": 2271,
      "cia": 2272,
      "cielo": 2273,
      "cielo04": 2274,
      "ciento": 2275,
      "cillo": 2276,
      "cion": 2277,
      "cito": 2278,
      "cj": 2279,
      "ck": 2280,
      "cky": 2281,
      "cl": 2282,
      "cleop": 2283,
      "cleopatra": 2284,
      "cli": 2285,
      "co": 2286,
      "coc": 2287,
      "cocacola": 2288,
      "coco": 2289,
      "cocol": 2290,
      "col": 2291,
      "cold": 2292,
      "com": 2293,
      "compar": 2294,
      "compart": 2295,
      "compu": 2296,
      "comput": 2297,
      "con": 2298,
      "cond": 2299,
      "cone": 2300,
      "conej": 2301,
      "conejito": 2302,
      "conlo": 2303,
      "conloquet": 2304,
      "conloqueted": 2305,
      "conqu": 2306,
      "conquista": 2307,
      "cons": 2308,
      "cont": 2309,
      "contras": 2310,
      "conver": 2311,
      "converse": 2312,
      "cop": 2313,
      "copia": 2314,
      "cor": 2315,
      "corazon": 2316,
      "corp": 2317,
      "corpion": 2318,
      "corre": 2319,
      "cot": 2320,
      "cou": 2321,
      "coucou": 2322,
      "cr": 2323,
      "cre": 2324,
      "cris": 2325,
      "crist": 2326,
      "cristian": 2327,
      "cristo": 2328,
      "cro": 2329,
      "cron": 2330,
      "ct": 2331,
      "ctvs": 2332,
      "ctvsctvs": 2333,
      "cu": 2334,
      "cualki": 2335,
      "cul": 2336,
      "cum": 2337,
      "cur": 2338,
      "cute": 2339,
      "cv": 2340,
      "cx": 2341,
      "cy": 2342,
      "d": 2343,
      "da": 2344,
      "dak": 2345,
      "dakota": 2346,
      "dam": 2347,
      "damian": 2348,
      "dan": 2349,
      "daniel": 2350,
      "dany": 2351,
      "dar": 2352,
      "dares": 2353,
      "daresdar": 2354,
      "das": 2355,
      "dasdas": 2356,
      "dash": 2357,
      "dav": 2358,
      "david": 2359,
      "de": 2360,
      "dead": 2361,
      "dec": 2362,
      "deg": 2363,
      "dejulio": 2364,
      "dejunio": 2365,
      "del": 2366,
      "dele": 2367,
      "delfin": 2368,
      "dell": 2369,
      "delpi": 2370,
      "delpiero": 2371,
      "dem": 2372,
      "demon": 2373,
      "der": 2374,
      "dere": 2375,
      "des": 2376,
      "dez": 2377,
      "df": 2378,
      "dg": 2379,
      "dh": 2380,
      "di": 2381,
      "dia": 2382,
      "dic": 2383,
      "diciembre": 2384,
      "did": 2385,
      "diddl": 2386,
      "die": 2387,
      "diego": 2388,
      "difer": 2389,
      "dion": 2390,
      "div": 2391,
      "divino": 2392,
      "dj": 2393,
      "dl": 2394,
      "do": 2395,
      "dog": 2396,
      "dol": 2397,
      "dom": 2398,
      "domin": 2399,
      "don": 2400,
      "dos": 2401,
      "doteamo": 2402,
      "dou": 2403,
      "doudou": 2404,
      "dow": 2405,
      "dra": 2406,
      "dragon": 2407,
      "dre": 2408,
      "dres": 2409,
      "dri": 2410,
      "du": 2411,
      "duel": 2412,
      "duele": 2413,
      "dul": 2414,
      "dulce": 2415,
      "dun": 2416,
      "dur": 2417,
      "dy": 2418,
      "dylan": 2419,
      "e": 2420,
      "e.": 2421,
      "e15": 2422,
      "e2": 2423,
      "e3": 2424,
      "e_": 2425,
      "eb": 2426,
      "ec": 2427,
      "eca": 2428,
      "ecas": 2429,
      "ech": 2430,
      "ecita": 2431,
      "eco": 2432,
      "ecor": 2433,
      "ecos": 2434,
      "ecostom": 2435,
      "ecostomus": 2436,
      "ecostomusgu": 2437,
      "ecostomusgupy": 2438,
      "ect": 2439,
      "ector": 2440,
      "ed": 2441,
      "eda": 2442,
      "edacito": 2443,
      "edad": 2444,
      "eder": 2445,
      "edia": 2446,
      "edu": 2447,
      "eer": 2448,
      "ef": 2449,
      "efante": 2450,
      "efen": 2451,
      "efenix": 2452,
      "eg": 2453,
      "ega": 2454,
      "egra": 2455,
      "egro": 2456,
      "ei": 2457,
      "ein": 2458,
      "eis": 2459,
      "eiser": 2460,
      "eiser_eiser": 2461,
      "el": 2462,
      "ela": 2463,
      "elamor": 2464,
      "elap": 2465,
      "elas": 2466,
      "elda": 2467,
      "ele": 2468,
      "elefante": 2469,
      "elem": 2470,
      "eleon": 2471,
      "elfi": 2472,
      "eli": 2473,
      "eliDAD": 2474,
      "elia": 2475,
      "eling": 2476,
      "elis": 2477,
      "elita": 2478,
      "eliz": 2479,
      "elizabeth": 2480,
      "ell": 2481,
      "ella": 2482,
      "ellano": 2483,
      "eller": 2484,
      "elly": 2485,
      "elmas": 2486,
      "elmejor": 2487,
      "elmo": 2488,
      "elo": 2489,
      "elos": 2490,
      "els": 2491,
      "ely": 2492,
      "em": 2493,
      "eman": 2494,
      "emaria": 2495,
      "embre": 2496,
      "eme": 2497,
      "emela": 2498,
      "emente": 2499,
      "emer": 2500,
      "emil": 2501,
      "emilio": 2502,
      "emin": 2503,
      "eminis": 2504,
      "emmanuel": 2505,
      "emon": 2506,
      "en": 2507,
      "ena": 2508,
      "ena73": 2509,
      "enamor": 2510,
      "enamorada": 2511,
      "enamorado": 2512,
      "enay": 2513,
      "enc": 2514,
      "encia": 2515,
      "end": 2516,
      "endi": 2517,
      "enero": 2518,
      "enez": 2519,
      "enfer": 2520,
      "eng": 2521,
      "enger": 2522,
      "engo": 2523,
      "enita": 2524,
      "enjamin": 2525,
      "enl": 2526,
      "eno": 2527,
      "enov": 2528,
      "enoviembre": 2529,
      "ense": 2530,
      "ent": 2531,
      "enta": 2532,
      "ente": 2533,
      "entes": 2534,
      "enti": 2535,
      "ento": 2536,
      "entos": 2537,
      "entosrar": 2538,
      "entosraros": 2539,
      "ep": 2540,
      "er": 2541,
      "era": 2542,
      "erah": 2543,
      "eras": 2544,
      "ere": 2545,
      "eres": 2546,
      "eri": 2547,
      "eric": 2548,
      "erj": 2549,
      "ero": 2550,
      "err": 2551,
      "errero": 2552,
      "ers": 2553,
      "erte": 2554,
      "erva": 2555,
      "es": 2556,
      "esa": 2557,
      "esauri": 2558,
      "escar": 2559,
      "escorpion": 2560,
      "esen": 2561,
      "eses": 2562,
      "esita": 2563,
      "esme": 2564,
      "eso": 2565,
      "esol": 2566,
      "esp": 2567,
      "ess": 2568,
      "essenger": 2569,
      "est": 2570,
      "este": 2571,
      "estef": 2572,
      "estic": 2573,
      "esto": 2574,
      "estr": 2575,
      "estre": 2576,
      "estrell": 2577,
      "estrella": 2578,
      "estrellita": 2579,
      "estu": 2580,
      "estud": 2581,
      "et": 2582,
      "eta": 2583,
      "etam": 2584,
      "ete": 2585,
      "eteamo": 2586,
      "eter": 2587,
      "eth": 2588,
      "eti": 2589,
      "etit": 2590,
      "eton": 2591,
      "etro": 2592,
      "ette": 2593,
      "etti": 2594,
      "ev": 2595,
      "eva": 2596,
      "ever": 2597,
      "ex": 2598,
      "exter": 2599,
      "ey": 2600,
      "eyor": 2601,
      "ez": 2602,
      "f": 2603,
      "fa": 2604,
      "fab": 2605,
      "fabi": 2606,
      "fac": 2607,
      "fad": 2608,
      "fal": 2609,
      "family": 2610,
      "fan": 2611,
      "fant": 2612,
      "far": 2613,
      "fas": 2614,
      "fashion": 2615,
      "fat": 2616,
      "fb82": 2617,
      "fe": 2618,
      "fea": 2619,
      "feb": 2620,
      "febrero": 2621,
      "feder": 2622,
      "fel": 2623,
      "feli": 2624,
      "felicidad": 2625,
      "felipe": 2626,
      "feliz": 2627,
      "fen": 2628,
      "fer": 2629,
      "fern": 2630,
      "fernanda": 2631,
      "ff": 2632,
      "ffh": 2633,
      "fg": 2634,
      "fi": 2635,
      "fid": 2636,
      "fidel": 2637,
      "fideliDAD": 2638,
      "fideliDAD03": 2639,
      "fideliDAD031008": 2640,
      "fiel": 2641,
      "field": 2642,
      "fin": 2643,
      "fir": 2644,
      "firu": 2645,
      "fito": 2646,
      "fj": 2647,
      "fl": 2648,
      "fla": 2649,
      "flaco": 2650,
      "flor": 2651,
      "flores": 2652,
      "flow": 2653,
      "fo": 2654,
      "foc": 2655,
      "focus": 2656,
      "fon": 2657,
      "fonsec": 2658,
      "fonseca": 2659,
      "foot": 2660,
      "football": 2661,
      "for": 2662,
      "ford": 2663,
      "fordfi": 2664,
      "forever": 2665,
      "formal": 2666,
      "fot": 2667,
      "fox": 2668,
      "foz": 2669,
      "fr": 2670,
      "fra": 2671,
      "fran": 2672,
      "franc": 2673,
      "francis": 2674,
      "franco": 2675,
      "fre": 2676,
      "fres": 2677,
      "fri": 2678,
      "friend": 2679,
      "friends": 2680,
      "fron": 2681,
      "fu": 2682,
      "fuentes": 2683,
      "ful": 2684,
      "fut": 2685,
      "fv": 2686,
      "g": 2687,
      "g5": 2688,
      "ga": 2689,
      "gab": 2690,
      "gabri": 2691,
      "gaby": 2692,
      "gado": 2693,
      "gal": 2694,
      "gall": 2695,
      "gan": 2696,
      "gar": 2697,
      "garcia": 2698,
      "garita": 2699,
      "garybar": 2700,
      "garybarlow": 2701,
      "gat": 2702,
      "gb": 2703,
      "ge": 2704,
      "geminis": 2705,
      "gen": 2706,
      "genitor": 2707,
      "geov": 2708,
      "geovanni": 2709,
      "ger": 2710,
      "gerard": 2711,
      "gerardo": 2712,
      "gg": 2713,
      "gh": 2714,
      "ghg": 2715,
      "gi": 2716,
      "gian": 2717,
      "gim": 2718,
      "ginger": 2719,
      "gio": 2720,
      "giov": 2721,
      "girl": 2722,
      "gis": 2723,
      "giv": 2724,
      "gk": 2725,
      "gl": 2726,
      "gladiator": 2727,
      "glor": 2728,
      "gm": 2729,
      "go": 2730,
      "gol": 2731,
      "gon": 2732,
      "gonz": 2733,
      "gonzalez": 2734,
      "gor": 2735,
      "gord": 2736,
      "goso": 2737,
      "got": 2738,
      "gr": 2739,
      "grac": 2740,
      "granada": 2741,
      "gre": 2742,
      "green": 2743,
      "gris": 2744,
      "gros": 2745,
      "grum": 2746,
      "gs": 2747,
      "gt": 2748,
      "gu": 2749,
      "guadalupe": 2750,
      "guapo": 2751,
      "gue": 2752,
      "guera": 2753,
      "guerrero": 2754,
      "guez": 2755,
      "guim": 2756,
      "guimos": 2757,
      "guimosavanz": 2758,
      "guita": 2759,
      "gur": 2760,
      "gurl": 2761,
      "gus": 2762,
      "gust": 2763,
      "gustavo": 2764,
      "gy": 2765,
      "h": 2766,
      "h2": 2767,
      "ha": 2768,
      "hal": 2769,
      "ham": 2770,
      "han": 2771,
      "happy": 2772,
      "harrypot": 2773,
      "has": 2774,
      "hat": 2775,
      "hd": 2776,
      "hdf": 2777,
      "he": 2778,
      "head": 2779,
      "heart": 2780,
      "hel": 2781,
      "hell": 2782,
      "hen": 2783,
      "henry": 2784,
      "her": 2785,
      "herine": 2786,
      "herm": 2787,
      "herman": 2788,
      "hermosa": 2789,
      "hg": 2790,
      "hi": 2791,
      "hia": 2792,
      "hio": 2793,
      "hip": 2794,
      "his": 2795,
      "hj": 2796,
      "ho": 2797,
      "hoc": 2798,
      "hol": 2799,
      "hola": 2800,
      "hom": 2801,
      "homero": 2802,
      "hop": 2803,
      "hor": 2804,
      "hormig": 2805,
      "horse": 2806,
      "hot": 2807,
      "hotmail": 2808,
      "hotmail.com": 2809,
      "house": 2810,
      "hu": 2811,
      "huev": 2812,
      "hugo": 2813,
      "hur": 2814,
      "hy": 2815,
      "i": 2816,
      "i-": 2817,
      "i10": 2818,
      "ia": 2819,
      "ia10": 2820,
      "ia13": 2821,
      "ia2": 2822,
      "ial": 2823,
      "iam": 2824,
      "ian": 2825,
      "iana": 2826,
      "iano": 2827,
      "iany": 2828,
      "ianza": 2829,
      "ias": 2830,
      "ib": 2831,
      "ic": 2832,
      "ic23": 2833,
      "ica": 2834,
      "icam": 2835,
      "icas": 2836,
      "ice": 2837,
      "icente": 2838,
      "ich": 2839,
      "icia": 2840,
      "icidad": 2841,
      "icil": 2842,
      "icio": 2843,
      "icion": 2844,
      "icl": 2845,
      "icles": 2846,
      "ico": 2847,
      "icos": 2848,
      "ics": 2849,
      "id": 2850,
      "ida": 2851,
      "idad": 2852,
      "idane": 2853,
      "idane2006": 2854,
      "idas": 2855,
      "ide": 2856,
      "ider": 2857,
      "ides": 2858,
      "idia": 2859,
      "ido": 2860,
      "idos": 2861,
      "ie": 2862,
      "iel": 2863,
      "ielo": 2864,
      "iem": 2865,
      "iembre": 2866,
      "iempre": 2867,
      "ien": 2868,
      "ier": 2869,
      "ierou": 2870,
      "ierou_sal": 2871,
      "ifac": 2872,
      "ig": 2873,
      "igh": 2874,
      "igital": 2875,
      "ign": 2876,
      "igo": 2877,
      "igu": 2878,
      "ii": 2879,
      "ik": 2880,
      "ika": 2881,
      "il": 2882,
      "ila": 2883,
      "ild": 2884,
      "ile": 2885,
      "ilega": 2886,
      "ill": 2887,
      "illa": 2888,
      "illana": 2889,
      "illas": 2890,
      "ille": 2891,
      "illo": 2892,
      "illon": 2893,
      "illos": 2894,
      "illus": 2895,
      "ilov": 2896,
      "ilove": 2897,
      "ilove(": 2898,
      "iloved": 2899,
      "iloveu": 2900,
      "iloveu4ever": 2901,
      "iloveyou": 2902,
      "ilsa": 2903,
      "ilu": 2904,
      "im": 2905,
      "ima": 2906,
      "imaf": 2907,
      "ime": 2908,
      "imi": 2909,
      "imir": 2910,
      "immig": 2911,
      "immigrand": 2912,
      "immigrands": 2913,
      "imo": 2914,
      "impl": 2915,
      "implemente": 2916,
      "in": 2917,
      "in92": 2918,
      "ina": 2919,
      "inad": 2920,
      "ind": 2921,
      "inda": 2922,
      "indie": 2923,
      "ine": 2924,
      "ines": 2925,
      "ing": 2926,
      "inger": 2927,
      "ingo": 2928,
      "inha": 2929,
      "ini": 2930,
      "ink": 2931,
      "ino": 2932,
      "int": 2933,
      "inter": 2934,
      "inv": 2935,
      "io": 2936,
      "ion": 2937,
      "iop": 2938,
      "ior": 2939,
      "ios": 2940,
      "iota": 2941,
      "iouf": 2942,
      "iouf2": 2943,
      "ip": 2944,
      "ipo": 2945,
      "ique": 2946,
      "ir": 2947,
      "ira": 2948,
      "irchen": 2949,
      "iria": 2950,
      "iris": 2951,
      "irl": 2952,
      "iro": 2953,
      "iron": 2954,
      "iros": 2955,
      "iros2007": 2956,
      "is": 2957,
      "isa": 2958,
      "isabel": 2959,
      "isc": 2960,
      "isd": 2961,
      "ise": 2962,
      "ises": 2963,
      "ish": 2964,
      "isima": 2965,
      "isis": 2966,
      "isma": 2967,
      "ismo": 2968,
      "ismy": 2969,
      "iso": 2970,
      "ison": 2971,
      "isra": 2972,
      "israel": 2973,
      "issa": 2974,
      "ist": 2975,
      "ista": 2976,
      "istad": 2977,
      "istan": 2978,
      "iste": 2979,
      "ister": 2980,
      "istol": 2981,
      "istols": 2982,
      "istr": 2983,
      "istracion": 2984,
      "isy": 2985,
      "it": 2986,
      "ita": 2987,
      "ita1": 2988,
      "ita10": 2989,
      "ita27": 2990,
      "itaa": 2991,
      "itacion": 2992,
      "ital": 2993,
      "italinda": 2994,
      "itar": 2995,
      "itario": 2996,
      "itas": 2997,
      "ite": 2998,
      "ith": 2999,
      "itha": 3000,
      "ito": 3001,
      "itor": 3002,
      "itor18": 3003,
      "itos": 3004,
      "itp": 3005,
      "itu": 3006,
      "ity": 3007,
      "itz": 3008,
      "iu": 3009,
      "ius": 3010,
      "iv": 3011,
      "iva": 3012,
      "ivan": 3013,
      "ive": 3014,
      "iver": 3015,
      "ivida": 3016,
      "ivonne": 3017,
      "ivoy": 3018,
      "ivoyconloqueted": 3019,
      "ix": 3020,
      "iy": 3021,
      "iz": 3022,
      "izu": 3023,
      "izz": 3024,
      "j": 3025,
      "ja": 3026,
      "jack": 3027,
      "jagayor": 3028,
      "jaime": 3029,
      "jam": 3030,
      "james": 3031,
      "jamin": 3032,
      "jan": 3033,
      "jav": 3034,
      "javier": 3035,
      "jaz": 3036,
      "je": 3037,
      "jer": 3038,
      "jes": 3039,
      "jesus": 3040,
      "jf": 3041,
      "ji": 3042,
      "jim": 3043,
      "jimenez": 3044,
      "jk": 3045,
      "jn": 3046,
      "jo": 3047,
      "jo11": 3048,
      "joan": 3049,
      "jod": 3050,
      "joh": 3051,
      "john": 3052,
      "joma": 3053,
      "jon": 3054,
      "jor": 3055,
      "jord": 3056,
      "jorge": 3057,
      "jos": 3058,
      "jose": 3059,
      "josel": 3060,
      "joseluis": 3061,
      "jr": 3062,
      "jt": 3063,
      "jtm": 3064,
      "jtm6": 3065,
      "ju": 3066,
      "juan": 3067,
      "juana": 3068,
      "juanc": 3069,
      "juancarlos": 3070,
      "jud": 3071,
      "jul": 3072,
      "julia": 3073,
      "julio": 3074,
      "jun": 3075,
      "junio": 3076,
      "juntos": 3077,
      "jur": 3078,
      "just": 3079,
      "k": 3080,
      "k.": 3081,
      "k@": 3082,
      "k_": 3083,
      "ka": 3084,
      "ka_": 3085,
      "kab": 3086,
      "kar": 3087,
      "karazorel": 3088,
      "karen": 3089,
      "karina": 3090,
      "karl": 3091,
      "karlos": 3092,
      "karol": 3093,
      "karr": 3094,
      "kat": 3095,
      "kater": 3096,
      "katherine": 3097,
      "kaul": 3098,
      "kaulitz": 3099,
      "kay": 3100,
      "ke": 3101,
      "kel": 3102,
      "ken": 3103,
      "ker": 3104,
      "kero": 3105,
      "kes": 3106,
      "kh": 3107,
      "khady": 3108,
      "khkh": 3109,
      "ki": 3110,
      "kiero": 3111,
      "kik": 3112,
      "kiki": 3113,
      "kim": 3114,
      "kin": 3115,
      "king": 3116,
      "kio": 3117,
      "kis": 3118,
      "kiss": 3119,
      "kit": 3120,
      "kita": 3121,
      "kitt": 3122,
      "kittkarr": 3123,
      "kn": 3124,
      "knot": 3125,
      "kon": 3126,
      "kr": 3127,
      "kris": 3128,
      "ktor": 3129,
      "ku": 3130,
      "kur": 3131,
      "ky": 3132,
      "l": 3133,
      "la": 3134,
      "lac": 3135,
      "lach": 3136,
      "lad": 3137,
      "lady": 3138,
      "lag": 3139,
      "laguera": 3140,
      "lah": 3141,
      "lal": 3142,
      "lam": 3143,
      "lamas": 3144,
      "lamejor": 3145,
      "lamisma": 3146,
      "lan": 3147,
      "land": 3148,
      "lar": 3149,
      "las": 3150,
      "lau": 3151,
      "laun": 3152,
      "laur": 3153,
      "lav": 3154,
      "lay": 3155,
      "laz": 3156,
      "lc": 3157,
      "ld": 3158,
      "le": 3159,
      "led": 3160,
      "leinad": 3161,
      "len": 3162,
      "lene": 3163,
      "leo": 3164,
      "leon": 3165,
      "leonardo": 3166,
      "leop": 3167,
      "lest": 3168,
      "let": 3169,
      "lev": 3170,
      "ley": 3171,
      "li": 3172,
      "libert": 3173,
      "libertad": 3174,
      "libre": 3175,
      "lidia": 3176,
      "life": 3177,
      "lig": 3178,
      "lil": 3179,
      "lili": 3180,
      "lim": 3181,
      "lin": 3182,
      "lind": 3183,
      "linda": 3184,
      "lio": 3185,
      "lip": 3186,
      "lipknot": 3187,
      "lips": 3188,
      "lis": 3189,
      "lita": 3190,
      "litu": 3191,
      "liver": 3192,
      "ll": 3193,
      "lo": 3194,
      "lobos": 3195,
      "loc": 3196,
      "location": 3197,
      "loch": 3198,
      "loco": 3199,
      "loka": 3200,
      "lol": 3201,
      "lola": 3202,
      "lor": 3203,
      "lorenay": 3204,
      "los": 3205,
      "lou": 3206,
      "loul": 3207,
      "loulou": 3208,
      "lov": 3209,
      "love": 3210,
      "lover": 3211,
      "loves": 3212,
      "low": 3213,
      "lp": 3214,
      "lpma": 3215,
      "lpma2204": 3216,
      "lr": 3217,
      "lu": 3218,
      "lucas": 3219,
      "luci": 3220,
      "luis": 3221,
      "lun": 3222,
      "lup": 3223,
      "lupita": 3224,
      "luz": 3225,
      "ly": 3226,
      "lz": 3227,
      "m": 3228,
      "m55": 3229,
      "ma": 3230,
      "mabel": 3231,
      "mac": 3232,
      "mad": 3233,
      "madrid": 3234,
      "mag": 3235,
      "maid": 3236,
      "maiden": 3237,
      "mail": 3238,
      "major": 3239,
      "mak": 3240,
      "mal": 3241,
      "maldon": 3242,
      "malen": 3243,
      "malindie": 3244,
      "mall": 3245,
      "mallor": 3246,
      "mallorca": 3247,
      "mam": 3248,
      "mama": 3249,
      "mami": 3250,
      "mamo": 3251,
      "man": 3252,
      "mand": 3253,
      "mandy": 3254,
      "mania": 3255,
      "manuel": 3256,
      "manuel_y_nancy_102": 3257,
      "maqu": 3258,
      "mar": 3259,
      "marc": 3260,
      "marcela": 3261,
      "mari": 3262,
      "maria": 3263,
      "marian": 3264,
      "mariana": 3265,
      "mario": 3266,
      "marip": 3267,
      "maripos": 3268,
      "maris": 3269,
      "maro": 3270,
      "mars": 3271,
      "martin": 3272,
      "mary": 3273,
      "mas": 3274,
      "mat": 3275,
      "mate": 3276,
      "maur": 3277,
      "mauricio": 3278,
      "max": 3279,
      "may": 3280,
      "mayo": 3281,
      "mb": 3282,
      "mc": 3283,
      "me": 3284,
      "med": 3285,
      "medic": 3286,
      "mejor": 3287,
      "mel": 3288,
      "mem": 3289,
      "memys": 3290,
      "memyselfi": 3291,
      "men": 3292,
      "mer": 3293,
      "mercedes": 3294,
      "messenger": 3295,
      "met": 3296,
      "metal": 3297,
      "metalica": 3298,
      "metallica": 3299,
      "mex": 3300,
      "mh": 3301,
      "mi": 3302,
      "miamor": 3303,
      "mibebe": 3304,
      "mic": 3305,
      "micamino": 3306,
      "michel": 3307,
      "michil": 3308,
      "mico": 3309,
      "micor": 3310,
      "mig": 3311,
      "miguel": 3312,
      "mih": 3313,
      "mil": 3314,
      "milag": 3315,
      "milagros": 3316,
      "mim": 3317,
      "min": 3318,
      "mio": 3319,
      "mis": 3320,
      "misa": 3321,
      "misamores": 3322,
      "misterio": 3323,
      "mivida": 3324,
      "mm": 3325,
      "mn": 3326,
      "mng5": 3327,
      "mo": 3328,
      "moh": 3329,
      "mol": 3330,
      "molin": 3331,
      "mom": 3332,
      "mon": 3333,
      "monse": 3334,
      "mont": 3335,
      "mor": 3336,
      "moren": 3337,
      "morenita": 3338,
      "moron": 3339,
      "mos": 3340,
      "motor": 3341,
      "mou": 3342,
      "mr": 3343,
      "ms": 3344,
      "mt": 3345,
      "mu": 3346,
      "muki": 3347,
      "mun": 3348,
      "mus": 3349,
      "must": 3350,
      "mv": 3351,
      "my": 3352,
      "myfamily": 3353,
      "n": 3354,
      "n1": 3355,
      "na": 3356,
      "nabuco1956": 3357,
      "naj": 3358,
      "nal": 3359,
      "nalb": 3360,
      "nam": 3361,
      "namid": 3362,
      "nan": 3363,
      "nana": 3364,
      "nanc": 3365,
      "nancy": 3366,
      "nar": 3367,
      "naru": 3368,
      "naruto": 3369,
      "nas": 3370,
      "nat": 3371,
      "natalia": 3372,
      "nav": 3373,
      "nd": 3374,
      "ndr": 3375,
      "ne": 3376,
      "nell": 3377,
      "nen": 3378,
      "ner": 3379,
      "nes": 3380,
      "neska": 3381,
      "ness": 3382,
      "neur": 3383,
      "new": 3384,
      "ney": 3385,
      "ni": 3386,
      "nic": 3387,
      "nice": 3388,
      "nick": 3389,
      "nickel": 3390,
      "nicole": 3391,
      "nina": 3392,
      "nis": 3393,
      "nj": 3394,
      "no": 3395,
      "nom": 3396,
      "nor": 3397,
      "nos": 3398,
      "not": 3399,
      "notengo": 3400,
      "nov": 3401,
      "novembre": 3402,
      "noviembre": 3403,
      "now": 3404,
      "num": 3405,
      "nun": 3406,
      "nur": 3407,
      "nurita": 3408,
      "ny": 3409,
      "nz": 3410,
      "o": 3411,
      "o.": 3412,
      "o2007": 3413,
      "o22": 3414,
      "ob": 3415,
      "oc": 3416,
      "oca": 3417,
      "ocam": 3418,
      "oce": 3419,
      "ock": 3420,
      "oco": 3421,
      "ocon": 3422,
      "oct": 3423,
      "octav": 3424,
      "octavio": 3425,
      "octo": 3426,
      "octu": 3427,
      "octubre": 3428,
      "od": 3429,
      "ode": 3430,
      "odel": 3431,
      "odio": 3432,
      "odont": 3433,
      "odontologa": 3434,
      "ody": 3435,
      "og": 3436,
      "oglio": 3437,
      "oh": 3438,
      "oj": 3439,
      "ojitos": 3440,
      "ok": 3441,
      "oki": 3442,
      "ol": 3443,
      "ola": 3444,
      "olas": 3445,
      "old": 3446,
      "ole": 3447,
      "olin": 3448,
      "olina": 3449,
      "olita": 3450,
      "olo": 3451,
      "olo26": 3452,
      "ologa": 3453,
      "olop": 3454,
      "olor": 3455,
      "olove": 3456,
      "olv": 3457,
      "om": 3458,
      "oma": 3459,
      "oman": 3460,
      "omar": 3461,
      "omas": 3462,
      "ome": 3463,
      "omer": 3464,
      "omo": 3465,
      "omor": 3466,
      "omosal": 3467,
      "omu": 3468,
      "omuxo": 3469,
      "on": 3470,
      "ona": 3471,
      "onder": 3472,
      "one": 3473,
      "oness": 3474,
      "oni": 3475,
      "onica": 3476,
      "onimo": 3477,
      "only": 3478,
      "onn": 3479,
      "onne": 3480,
      "ono": 3481,
      "ont": 3482,
      "oo": 3483,
      "op": 3484,
      "opar": 3485,
      "oparati": 3486,
      "opr": 3487,
      "or": 3488,
      "ora": 3489,
      "ord": 3490,
      "ordin": 3491,
      "ords": 3492,
      "orel": 3493,
      "orion": 3494,
      "orld": 3495,
      "orn": 3496,
      "ornio": 3497,
      "oro": 3498,
      "orr": 3499,
      "os": 3500,
      "os05": 3501,
      "osa": 3502,
      "osal": 3503,
      "oscar": 3504,
      "osito": 3505,
      "osm": 3506,
      "osmio": 3507,
      "oso": 3508,
      "oss": 3509,
      "ost": 3510,
      "ot": 3511,
      "ota": 3512,
      "oth": 3513,
      "oto": 3514,
      "otor": 3515,
      "otu": 3516,
      "oty": 3517,
      "ou": 3518,
      "ov": 3519,
      "ova": 3520,
      "ove": 3521,
      "ovi": 3522,
      "oy": 3523,
      "oyyo": 3524,
      "oz": 3525,
      "p": 3526,
      "pa": 3527,
      "pad": 3528,
      "pag": 3529,
      "pak": 3530,
      "pako": 3531,
      "pal": 3532,
      "pall": 3533,
      "pan": 3534,
      "pand": 3535,
      "pandol": 3536,
      "pandolfa": 3537,
      "pap": 3538,
      "papillon": 3539,
      "par": 3540,
      "para": 3541,
      "paris": 3542,
      "pas": 3543,
      "password": 3544,
      "pat": 3545,
      "patito": 3546,
      "patric": 3547,
      "patricia": 3548,
      "patroc": 3549,
      "paul": 3550,
      "pay": 3551,
      "paz": 3552,
      "pb": 3553,
      "pe": 3554,
      "ped": 3555,
      "pedor": 3556,
      "pel": 3557,
      "pelotu": 3558,
      "pelu": 3559,
      "peluch": 3560,
      "pen": 3561,
      "pende": 3562,
      "pendejo": 3563,
      "peon": 3564,
      "pep": 3565,
      "pepe": 3566,
      "peque": 3567,
      "per": 3568,
      "peranza": 3569,
      "perez": 3570,
      "pericles": 3571,
      "perr": 3572,
      "perra": 3573,
      "perro": 3574,
      "pers": 3575,
      "pes": 3576,
      "pet": 3577,
      "peter": 3578,
      "ph": 3579,
      "phan": 3580,
      "pi": 3581,
      "pi9ja6pu3": 3582,
      "pic": 3583,
      "pid": 3584,
      "pie": 3585,
      "piel": 3586,
      "pil": 3587,
      "pilar": 3588,
      "pin": 3589,
      "pink": 3590,
      "piolin": 3591,
      "pir": 3592,
      "pistols": 3593,
      "pit": 3594,
      "pl": 3595,
      "plat": 3596,
      "platin": 3597,
      "play": 3598,
      "ple": 3599,
      "plecostomusgupy": 3600,
      "pm": 3601,
      "po": 3602,
      "pod": 3603,
      "pol": 3604,
      "pom": 3605,
      "pool": 3606,
      "pop": 3607,
      "por": 3608,
      "pot": 3609,
      "potes": 3610,
      "pou": 3611,
      "pouet": 3612,
      "power": 3613,
      "ppy": 3614,
      "pr": 3615,
      "prad": 3616,
      "pradhan": 3617,
      "prat": 3618,
      "pre": 3619,
      "preci": 3620,
      "preciosa": 3621,
      "pres": 3622,
      "press": 3623,
      "prim": 3624,
      "prin": 3625,
      "princes": 3626,
      "princesa": 3627,
      "princess": 3628,
      "prisma": 3629,
      "pro": 3630,
      "ps": 3631,
      "pu": 3632,
      "publ": 3633,
      "puccaygaru": 3634,
      "puer": 3635,
      "puerto": 3636,
      "pul": 3637,
      "pulgar": 3638,
      "pumuki": 3639,
      "puppy": 3640,
      "put": 3641,
      "puta": 3642,
      "putamadre": 3643,
      "py": 3644,
      "q": 3645,
      "qat": 3646,
      "qfb82": 3647,
      "qm": 3648,
      "qp": 3649,
      "qpz": 3650,
      "qpzm": 3651,
      "qu": 3652,
      "que": 3653,
      "queen": 3654,
      "quer": 3655,
      "quet": 3656,
      "quette": 3657,
      "qui": 3658,
      "quier": 3659,
      "quiero": 3660,
      "quim": 3661,
      "quin": 3662,
      "quit": 3663,
      "quita": 3664,
      "quito": 3665,
      "qwer": 3666,
      "qwerty": 3667,
      "qwertyu": 3668,
      "qwertyuiop": 3669,
      "r": 3670,
      "r.": 3671,
      "ra": 3672,
      "ra14": 3673,
      "ra2005": 3674,
      "ra7bi4mi": 3675,
      "rab": 3676,
      "rac": 3677,
      "rad": 3678,
      "raf": 3679,
      "rafi": 3680,
      "rah": 3681,
      "raj": 3682,
      "ram": 3683,
      "rand": 3684,
      "rar": 3685,
      "ras": 3686,
      "rasan": 3687,
      "rasta": 3688,
      "raul": 3689,
      "raw": 3690,
      "rawberry": 3691,
      "raz": 3692,
      "re": 3693,
      "re_": 3694,
      "rea": 3695,
      "real": 3696,
      "ream": 3697,
      "rebe": 3698,
      "rebeka": 3699,
      "rec": 3700,
      "ree": 3701,
      "reg": 3702,
      "reinad": 3703,
      "rera": 3704,
      "res": 3705,
      "resse": 3706,
      "ret": 3707,
      "reto": 3708,
      "rev": 3709,
      "rever": 3710,
      "reverte": 3711,
      "rey": 3712,
      "reyes": 3713,
      "ri": 3714,
      "ria": 3715,
      "ric": 3716,
      "ricard": 3717,
      "richard": 3718,
      "rico": 3719,
      "rin": 3720,
      "rina": 3721,
      "rios": 3722,
      "ris": 3723,
      "riz": 3724,
      "ro": 3725,
      "rob": 3726,
      "robert": 3727,
      "roc": 3728,
      "rocio": 3729,
      "rock": 3730,
      "rodri": 3731,
      "roj": 3732,
      "rol": 3733,
      "rom": 3734,
      "romant": 3735,
      "ron": 3736,
      "roo": 3737,
      "room": 3738,
      "ros": 3739,
      "rosa": 3740,
      "rot": 3741,
      "rou": 3742,
      "rr": 3743,
      "ru": 3744,
      "rudy": 3745,
      "ruiz": 3746,
      "rul": 3747,
      "rum": 3748,
      "ruz": 3749,
      "ry": 3750,
      "s": 3751,
      "sa": 3752,
      "sab": 3753,
      "sac": 3754,
      "sad": 3755,
      "sag": 3756,
      "sagitario": 3757,
      "sakur": 3758,
      "sal": 3759,
      "salcharm": 3760,
      "sam": 3761,
      "samsung": 3762,
      "san": 3763,
      "sanad": 3764,
      "sand": 3765,
      "sando": 3766,
      "sant": 3767,
      "santos": 3768,
      "sar": 3769,
      "sara": 3770,
      "sarah": 3771,
      "sas": 3772,
      "sat": 3773,
      "sdf": 3774,
      "se": 3775,
      "sebastian": 3776,
      "sec": 3777,
      "secret": 3778,
      "seguimosavanz": 3779,
      "sem": 3780,
      "sep": 3781,
      "septi": 3782,
      "septiembre": 3783,
      "ser": 3784,
      "sev": 3785,
      "sex": 3786,
      "sexo": 3787,
      "sexpistols": 3788,
      "sh": 3789,
      "si": 3790,
      "sie": 3791,
      "siem": 3792,
      "siempre": 3793,
      "sil": 3794,
      "silver": 3795,
      "simplemente": 3796,
      "sin": 3797,
      "sir": 3798,
      "sister": 3799,
      "sit": 3800,
      "sivoyconloqueted": 3801,
      "sk": 3802,
      "skater": 3803,
      "sl": 3804,
      "slipknot": 3805,
      "so": 3806,
      "so0ivir": 3807,
      "soc": 3808,
      "soccer": 3809,
      "sofi": 3810,
      "sol": 3811,
      "soledad": 3812,
      "soloparati": 3813,
      "son": 3814,
      "sop": 3815,
      "sor": 3816,
      "sou": 3817,
      "soul": 3818,
      "souljagayor": 3819,
      "soy": 3820,
      "soyelmejor": 3821,
      "soyun": 3822,
      "sp": 3823,
      "spe": 3824,
      "spider": 3825,
      "st": 3826,
      "ste": 3827,
      "stephan": 3828,
      "stor": 3829,
      "stormng5": 3830,
      "str": 3831,
      "strawberry": 3832,
      "stu": 3833,
      "su": 3834,
      "sub": 3835,
      "succ": 3836,
      "sudivino": 3837,
      "super": 3838,
      "superman": 3839,
      "swe": 3840,
      "sweet": 3841,
      "sy": 3842,
      "t": 3843,
      "ta": 3844,
      "tablitas": 3845,
      "tad": 3846,
      "tadela": 3847,
      "tag": 3848,
      "tam": 3849,
      "tamar": 3850,
      "tamer88": 3851,
      "tania": 3852,
      "tap": 3853,
      "tar": 3854,
      "tas": 3855,
      "taur": 3856,
      "taz": 3857,
      "te": 3858,
      "te_": 3859,
      "team": 3860,
      "teamo": 3861,
      "teamol": 3862,
      "teamom": 3863,
      "teamomi": 3864,
      "teamomil": 3865,
      "tec": 3866,
      "tech": 3867,
      "tekiero": 3868,
      "tel": 3869,
      "telef": 3870,
      "telefono": 3871,
      "tem": 3872,
      "ten": 3873,
      "teodio": 3874,
      "tequiero": 3875,
      "ter": 3876,
      "terap": 3877,
      "terio": 3878,
      "tes": 3879,
      "th": 3880,
      "the": 3881,
      "theb": 3882,
      "thebest": 3883,
      "thed": 3884,
      "them": 3885,
      "ti": 3886,
      "tiem": 3887,
      "tier": 3888,
      "tig": 3889,
      "tim": 3890,
      "tin": 3891,
      "tina": 3892,
      "tis": 3893,
      "tit": 3894,
      "tito": 3895,
      "tiv": 3896,
      "tivoglio": 3897,
      "tk": 3898,
      "tkiero": 3899,
      "tkm": 3900,
      "tli": 3901,
      "to": 3902,
      "toe": 3903,
      "tol": 3904,
      "tom": 3905,
      "ton": 3906,
      "tonto": 3907,
      "top": 3908,
      "tor": 3909,
      "tord": 3910,
      "torre": 3911,
      "tos": 3912,
      "tqm": 3913,
      "tr": 3914,
      "tra": 3915,
      "tras": 3916,
      "travi": 3917,
      "tres": 3918,
      "tri": 3919,
      "tribecor": 3920,
      "tru": 3921,
      "ts": 3922,
      "tu": 3923,
      "tul": 3924,
      "tum": 3925,
      "tur": 3926,
      "tw": 3927,
      "tx": 3928,
      "txi": 3929,
      "ty": 3930,
      "tz": 3931,
      "u": 3932,
      "u.": 3933,
      "ual": 3934,
      "uch": 3935,
      "ud": 3936,
      "uel": 3937,
      "ueva": 3938,
      "uf": 3939,
      "uis": 3940,
      "uita": 3941,
      "uka": 3942,
      "ul": 3943,
      "ula": 3944,
      "ulanazerimar": 3945,
      "ulce": 3946,
      "ulense": 3947,
      "ulo": 3948,
      "ult": 3949,
      "ultim": 3950,
      "uly": 3951,
      "um": 3952,
      "ume": 3953,
      "umum": 3954,
      "un": 3955,
      "una": 3956,
      "und": 3957,
      "under": 3958,
      "ung": 3959,
      "unga": 3960,
      "univer": 3961,
      "universalcharm": 3962,
      "unk": 3963,
      "unkirchen": 3964,
      "uno": 3965,
      "up": 3966,
      "ur": 3967,
      "ura": 3968,
      "uri": 3969,
      "uriria": 3970,
      "urn": 3971,
      "urr": 3972,
      "urro": 3973,
      "us": 3974,
      "usa": 3975,
      "use": 3976,
      "ush": 3977,
      "usic": 3978,
      "ust": 3979,
      "ut": 3980,
      "uta": 3981,
      "ution": 3982,
      "uv": 3983,
      "ux": 3984,
      "uz": 3985,
      "v": 3986,
      "va": 3987,
      "vac": 3988,
      "val": 3989,
      "vale": 3990,
      "valent": 3991,
      "valver": 3992,
      "vd": 3993,
      "ve": 3994,
      "veg": 3995,
      "vel": 3996,
      "ven": 3997,
      "ver": 3998,
      "vero": 3999,
      "veronica": 4000,
      "vf": 4001,
      "vi": 4002,
      "via": 4003,
      "vic": 4004,
      "vid": 4005,
      "villa": 4006,
      "ville": 4007,
      "vin": 4008,
      "vir": 4009,
      "vitor18": 4010,
      "viv": 4011,
      "viva": 4012,
      "vivaesp": 4013,
      "vivel": 4014,
      "vlad": 4015,
      "vos": 4016,
      "vs": 4017,
      "vv": 4018,
      "w": 4019,
      "wa": 4020,
      "wahran": 4021,
      "wal": 4022,
      "wat": 4023,
      "we": 4024,
      "wel": 4025,
      "welcom": 4026,
      "wer": 4027,
      "wi": 4028,
      "wil": 4029,
      "will": 4030,
      "willi": 4031,
      "win": 4032,
      "wn": 4033,
      "wo": 4034,
      "woman": 4035,
      "wonder": 4036,
      "wood": 4037,
      "world": 4038,
      "wox": 4039,
      "woxn": 4040,
      "wr": 4041,
      "wron": 4042,
      "ww": 4043,
      "www": 4044,
      "www.": 4045,
      "x": 4046,
      "xan": 4047,
      "xe": 4048,
      "xer": 4049,
      "xh": 4050,
      "xo": 4051,
      "xx": 4052,
      "xxx": 4053,
      "xxx_": 4054,
      "xxx_xxx_": 4055,
      "xy": 4056,
      "y": 4057,
      "y3": 4058,
      "y_": 4059,
      "ya": 4060,
      "yah": 4061,
      "yal": 4062,
      "yam": 4063,
      "yan": 4064,
      "yara": 4065,
      "yazmin": 4066,
      "ybar": 4067,
      "ye": 4068,
      "yet": 4069,
      "yfeliz": 4070,
      "yh": 4071,
      "yhector": 4072,
      "yl": 4073,
      "ym": 4074,
      "ymar": 4075,
      "yo": 4076,
      "yor": 4077,
      "yos": 4078,
      "yosoy": 4079,
      "you": 4080,
      "you-": 4081,
      "young": 4082,
      "ys": 4083,
      "yu": 4084,
      "yul": 4085,
      "z": 4086,
      "za": 4087,
      "zar": 4088,
      "zco": 4089,
      "zidane2006": 4090,
      "zo": 4091,
      "zul": 4092,
      "zy": 4093,
      "{": 4094,
      "}": 4095
    },
    "merges": [
      [
        "a",
        "n"
      ],
      [
        "a",
        "r"
      ],
      [
        "e",
        "r"
      ],
      [
        "1",
        "9"
      ],
      [
        "e",
        "l"
      ],
      [
        "a",
        "l"
      ],
      [
        "a",
        "m"
      ],
      [
        "o",
        "n"
      ],
      [
        "i",
        "n"
      ],
      [
        "0",
        "0"
      ],
      [
        "o",
        "r"
      ],
      [
        "i",
        "t"
      ],
      [
        "1",
        "2"
      ],
      [
        "e",
        "n"
      ],
      [
        "e",
        "s"
      ],
      [
        "a",
        "s"
      ],
      [
        "o",
        "s"
      ],
      [
        "i",
        "s"
      ],
      [
        "c",
        "h"
      ],
      [
        "1",
        "0"
      ],
      [
        "a",
        "d"
      ],
      [
        "i",
        "l"
      ],
      [
        "a",
        "t"
      ],
      [
        "o",
        "l"
      ],
      [
        "i",
        "c"
      ],
      [
        "e",
        "t"
      ],
      [
        "t",
        "e"
      ],
      [
        "o",
        "m"
      ],
      [
        "1",
        "1"
      ],
      [
        "r",
        "e"
      ],
      [
        "2",
        "00"
      ],
      [
        "19",
        "8"
      ],
      [
        "1",
        "3"
      ],
      [
        "a",
        "b"
      ],
      [
        "a",
        "c"
      ],
      [
        "0",
        "5"
      ],
      [
        "i",
        "a"
      ],
      [
        "1",
        "5"
      ],
      [
        "1",
        "4"
      ],
      [
        "2",
        "2"
      ],
      [
        "u",
        "l"
      ],
      [
        "i",
        "o"
      ],
      [
        "u",
        "r"
      ],
      [
        "it",
        "a"
      ],
      [
        "1",
        "8"
      ],
      [
        "0",
        "2"
      ],
      [
        "0",
        "4"
      ],
      [
        "o",
        "c"
      ],
      [
        "7",
        "7"
      ],
      [
        "2",
        "3"
      ],
      [
        "an",
        "d"
      ],
      [
        "i",
        "d"
      ],
      [
        "i",
        "m"
      ],
      [
        "l",
        "a"
      ],
      [
        "r",
        "a"
      ],
      [
        "0",
        "3"
      ],
      [
        "e",
        "m"
      ],
      [
        "12",
        "3"
      ],
      [
        "u",
        "n"
      ],
      [
        "it",
        "o"
      ],
      [
        "1",
        "7"
      ],
      [
        "0",
        "7"
      ],
      [
        "e",
        "d"
      ],
      [
        "u",
        "s"
      ],
      [
        "0",
        "8"
      ],
      [
        "2",
        "6"
      ],
      [
        "q",
        "u"
      ],
      [
        "o",
        "t"
      ],
      [
        "0",
        "6"
      ],
      [
        "0",
        "9"
      ],
      [
        "2",
        "8"
      ],
      [
        "b",
        "e"
      ],
      [
        "5",
        "6"
      ],
      [
        "a",
        "y"
      ],
      [
        "r",
        "o"
      ],
      [
        "1",
        "6"
      ],
      [
        "19",
        "7"
      ],
      [
        "m",
        "ar"
      ],
      [
        "8",
        "8"
      ],
      [
        "o",
        "v"
      ],
      [
        "19",
        "9"
      ],
      [
        "2",
        "7"
      ],
      [
        "2",
        "9"
      ],
      [
        "2",
        "4"
      ],
      [
        "2",
        "5"
      ],
      [
        "a",
        "g"
      ],
      [
        "t",
        "o"
      ],
      [
        "i",
        "v"
      ],
      [
        "a",
        "p"
      ],
      [
        "6",
        "9"
      ],
      [
        "r",
        "i"
      ],
      [
        "e",
        "c"
      ],
      [
        "8",
        "9"
      ],
      [
        "b",
        "er"
      ],
      [
        "a",
        "z"
      ],
      [
        "a",
        "v"
      ],
      [
        "9",
        "9"
      ],
      [
        "i",
        "r"
      ],
      [
        "am",
        "o"
      ],
      [
        "c",
        "ar"
      ],
      [
        "l",
        "e"
      ],
      [
        "m",
        "a"
      ],
      [
        "i",
        "g"
      ],
      [
        "6",
        "6"
      ],
      [
        "in",
        "a"
      ],
      [
        "5",
        "5"
      ],
      [
        "d",
        "e"
      ],
      [
        "o",
        "u"
      ],
      [
        "8",
        "4"
      ],
      [
        "o",
        "y"
      ],
      [
        "3",
        "3"
      ],
      [
        "8",
        "7"
      ],
      [
        "i",
        "an"
      ],
      [
        "2",
        "0"
      ],
      [
        "p",
        "er"
      ],
      [
        "6",
        "4"
      ],
      [
        "s",
        "e"
      ],
      [
        "E",
        "+"
      ],
      [
        "o",
        "p"
      ],
      [
        "t",
        "a"
      ],
      [
        "an",
        "g"
      ],
      [
        "l",
        "u"
      ],
      [
        "t",
        "r"
      ],
      [
        "2",
        "1"
      ],
      [
        "7",
        "4"
      ],
      [
        "er",
        "o"
      ],
      [
        "i",
        "on"
      ],
      [
        "5",
        "3"
      ],
      [
        "5",
        "4"
      ],
      [
        "8",
        "6"
      ],
      [
        "am",
        "or"
      ],
      [
        "al",
        "e"
      ],
      [
        "c",
        "on"
      ],
      [
        "l",
        "o"
      ],
      [
        "m",
        "i"
      ],
      [
        "b",
        "el"
      ],
      [
        "d",
        "o"
      ],
      [
        "0",
        "1"
      ],
      [
        "an",
        "t"
      ],
      [
        "c",
        "a"
      ],
      [
        "k",
        "i"
      ],
      [
        "6",
        "3"
      ],
      [
        "8",
        "3"
      ],
      [
        "p",
        "e"
      ],
      [
        "4",
        "4"
      ],
      [
        "5",
        "7"
      ],
      [
        "A",
        "N"
      ],
      [
        "g",
        "u"
      ],
      [
        "i",
        "el"
      ],
      [
        "m",
        "an"
      ],
      [
        "b",
        "et"
      ],
      [
        "i",
        "e"
      ],
      [
        "\"",
        "\""
      ],
      [
        "o",
        "d"
      ],
      [
        "t",
        "er"
      ],
      [
        "123",
        "4"
      ],
      [
        "8",
        "5"
      ],
      [
        "9",
        "4"
      ],
      [
        "b",
        "ar"
      ],
      [
        "k",
        "a"
      ],
      [
        "p",
        "r"
      ],
      [
        "A",
        "R"
      ],
      [
        "es",
        "t"
      ],
      [
        "p",
        "u"
      ],
      [
        "t",
        "i"
      ],
      [
        "7",
        "9"
      ],
      [
        "b",
        "i"
      ],
      [
        "e",
        "z"
      ],
      [
        "l",
        "i"
      ],
      [
        "s",
        "u"
      ],
      [
        "t",
        "h"
      ],
      [
        "v",
        "er"
      ],
      [
        "6",
        "7"
      ],
      [
        "1",
        "10"
      ],
      [
        "9",
        "3"
      ],
      [
        "1",
        "00"
      ],
      [
        "200",
        "8"
      ],
      [
        "a",
        "h"
      ],
      [
        "an",
        "a"
      ],
      [
        "ov",
        "e"
      ],
      [
        "te",
        "amo"
      ],
      [
        "7",
        "3"
      ],
      [
        "9",
        "5"
      ],
      [
        "E",
        "L"
      ],
      [
        "c",
        "am"
      ],
      [
        "ic",
        "a"
      ],
      [
        "in",
        "g"
      ],
      [
        "6",
        "5"
      ],
      [
        "E",
        "R"
      ],
      [
        "m",
        "on"
      ],
      [
        "p",
        "o"
      ],
      [
        "u",
        "m"
      ],
      [
        "A",
        "L"
      ],
      [
        "E",
        "S"
      ],
      [
        "a",
        "j"
      ],
      [
        "ang",
        "el"
      ],
      [
        "b",
        "l"
      ],
      [
        "b",
        "r"
      ],
      [
        "l",
        "os"
      ],
      [
        "n",
        "e"
      ],
      [
        "al",
        "l"
      ],
      [
        "an",
        "c"
      ],
      [
        "as",
        "h"
      ],
      [
        "el",
        "l"
      ],
      [
        "i",
        "z"
      ],
      [
        "s",
        "a"
      ],
      [
        "b",
        "a"
      ],
      [
        "j",
        "u"
      ],
      [
        "k",
        "ar"
      ],
      [
        "a",
        "u"
      ],
      [
        "ar",
        "a"
      ],
      [
        "at",
        "e"
      ],
      [
        "b",
        "re"
      ],
      [
        "c",
        "u"
      ],
      [
        "g",
        "o"
      ],
      [
        "or",
        "d"
      ],
      [
        "p",
        "a"
      ],
      [
        "r",
        "is"
      ],
      [
        "7",
        "5"
      ],
      [
        "9",
        "2"
      ],
      [
        "E",
        "N"
      ],
      [
        "en",
        "a"
      ],
      [
        "f",
        "e"
      ],
      [
        "m",
        "e"
      ],
      [
        "8",
        "0"
      ],
      [
        "8",
        "2"
      ],
      [
        "A",
        "S"
      ],
      [
        "I",
        "N"
      ],
      [
        "b",
        "en"
      ],
      [
        "c",
        "om"
      ],
      [
        "d",
        "a"
      ],
      [
        "er",
        "a"
      ],
      [
        "f",
        "er"
      ],
      [
        "f",
        "r"
      ],
      [
        "i",
        "em"
      ],
      [
        "il",
        "l"
      ],
      [
        "j",
        "o"
      ],
      [
        "p",
        "at"
      ],
      [
        "1234",
        "56"
      ],
      [
        "198",
        "3"
      ],
      [
        "3",
        "0"
      ],
      [
        "9",
        "0"
      ],
      [
        "E+",
        "11"
      ],
      [
        "b",
        "b"
      ],
      [
        "c",
        "o"
      ],
      [
        "ch",
        "i"
      ],
      [
        "en",
        "t"
      ],
      [
        "j",
        "os"
      ],
      [
        "s",
        "o"
      ],
      [
        "u",
        "el"
      ],
      [
        "2",
        "10"
      ],
      [
        "3",
        "2"
      ],
      [
        "T",
        "O"
      ],
      [
        "am",
        "a"
      ],
      [
        "ar",
        "d"
      ],
      [
        "h",
        "er"
      ],
      [
        "in",
        "o"
      ],
      [
        "l",
        "or"
      ],
      [
        "m",
        "o"
      ],
      [
        "m",
        "y"
      ],
      [
        "n",
        "o"
      ],
      [
        "ol",
        "a"
      ],
      [
        "p",
        "i"
      ],
      [
        "s",
        "an"
      ],
      [
        "200",
        "5"
      ],
      [
        "200",
        "6"
      ],
      [
        "200",
        "7"
      ],
      [
        "7",
        "6"
      ],
      [
        "9",
        "6"
      ],
      [
        "I",
        "L"
      ],
      [
        "c",
        "i"
      ],
      [
        "c",
        "or"
      ],
      [
        "e",
        "g"
      ],
      [
        "e",
        "y"
      ],
      [
        "es",
        "s"
      ],
      [
        "h",
        "a"
      ],
      [
        "os",
        "a"
      ],
      [
        "su",
        "per"
      ],
      [
        "t",
        "y"
      ],
      [
        "z",
        "a"
      ],
      [
        "2",
        "."
      ],
      [
        "4",
        "5"
      ],
      [
        "5",
        "8"
      ],
      [
        "b",
        "u"
      ],
      [
        "c",
        "as"
      ],
      [
        "c",
        "e"
      ],
      [
        "ch",
        "a"
      ],
      [
        "g",
        "ar"
      ],
      [
        "n",
        "a"
      ],
      [
        "qu",
        "e"
      ],
      [
        "r",
        "u"
      ],
      [
        "t",
        "or"
      ],
      [
        "t",
        "u"
      ],
      [
        "3",
        "4"
      ],
      [
        "7",
        "0"
      ],
      [
        "an",
        "o"
      ],
      [
        "d",
        "i"
      ],
      [
        "el",
        "a"
      ],
      [
        "il",
        "la"
      ],
      [
        "l",
        "in"
      ],
      [
        "m",
        "is"
      ],
      [
        "on",
        "a"
      ],
      [
        "s",
        "h"
      ],
      [
        "s",
        "oy"
      ],
      [
        ".",
        "."
      ],
      [
        "3",
        "00"
      ],
      [
        "3",
        "7"
      ],
      [
        "9",
        "8"
      ],
      [
        "M",
        "A"
      ],
      [
        "ad",
        "o"
      ],
      [
        "al",
        "d"
      ],
      [
        "am",
        "ar"
      ],
      [
        "b",
        "o"
      ],
      [
        "c",
        "ia"
      ],
      [
        "d",
        "an"
      ],
      [
        "ic",
        "o"
      ],
      [
        "j",
        "a"
      ],
      [
        "j",
        "es"
      ],
      [
        "j",
        "or"
      ],
      [
        "us",
        "t"
      ],
      [
        "197",
        "9"
      ],
      [
        "198",
        "0"
      ],
      [
        "5",
        "0"
      ],
      [
        "6",
        "8"
      ],
      [
        "7",
        "8"
      ],
      [
        "9",
        "7"
      ],
      [
        "C",
        "O"
      ],
      [
        "M",
        "O"
      ],
      [
        "ad",
        "a"
      ],
      [
        "d",
        "el"
      ],
      [
        "en",
        "d"
      ],
      [
        "m",
        "or"
      ],
      [
        "r",
        "on"
      ],
      [
        "x",
        "x"
      ],
      [
        "1",
        "12"
      ],
      [
        "5",
        "9"
      ],
      [
        "I",
        "A"
      ],
      [
        "R",
        "E"
      ],
      [
        "am",
        "i"
      ],
      [
        "ar",
        "i"
      ],
      [
        "b",
        "ab"
      ],
      [
        "et",
        "a"
      ],
      [
        "f",
        "or"
      ],
      [
        "g",
        "a"
      ],
      [
        "h",
        "o"
      ],
      [
        "i",
        "er"
      ],
      [
        "it",
        "os"
      ],
      [
        "m",
        "ig"
      ],
      [
        "p",
        "ar"
      ],
      [
        "r",
        "es"
      ],
      [
        "r",
        "os"
      ],
      [
        "y",
        "o"
      ],
      [
        "y",
        "s"
      ],
      [
        "1",
        "."
      ],
      [
        "19",
        "77"
      ],
      [
        "198",
        "4"
      ],
      [
        "198",
        "5"
      ],
      [
        "3",
        "8"
      ],
      [
        "3",
        "D"
      ],
      [
        "7",
        "89"
      ],
      [
        "=",
        "3D"
      ],
      [
        "a",
        "x"
      ],
      [
        "ag",
        "u"
      ],
      [
        "ar",
        "m"
      ],
      [
        "c",
        "es"
      ],
      [
        "f",
        "i"
      ],
      [
        "f",
        "o"
      ],
      [
        "h",
        "e"
      ],
      [
        "in",
        "e"
      ],
      [
        "k",
        "e"
      ],
      [
        "m",
        "al"
      ],
      [
        "n",
        "i"
      ],
      [
        "p",
        "ap"
      ],
      [
        "s",
        "t"
      ],
      [
        "t",
        "on"
      ],
      [
        "u",
        "t"
      ],
      [
        "x",
        "o"
      ],
      [
        "00",
        "0"
      ],
      [
        "198",
        "7"
      ],
      [
        "6",
        "2"
      ],
      [
        "7",
        "2"
      ],
      [
        "I",
        "S"
      ],
      [
        "al",
        "o"
      ],
      [
        "and",
        "o"
      ],
      [
        "d",
        "f"
      ],
      [
        "el",
        "la"
      ],
      [
        "h",
        "i"
      ],
      [
        "i",
        "as"
      ],
      [
        "id",
        "a"
      ],
      [
        "ir",
        "l"
      ],
      [
        "j",
        "ul"
      ],
      [
        "ju",
        "an"
      ],
      [
        "p",
        "re"
      ],
      [
        "p",
        "y"
      ],
      [
        "r",
        "y"
      ],
      [
        "s",
        "ol"
      ],
      [
        "te",
        "am"
      ],
      [
        "v",
        "a"
      ],
      [
        "12",
        "4"
      ],
      [
        "198",
        "1"
      ],
      [
        "6",
        "0"
      ],
      [
        "B",
        "E"
      ],
      [
        "C",
        "H"
      ],
      [
        "L",
        "O"
      ],
      [
        "T",
        "E"
      ],
      [
        "ac",
        "ion"
      ],
      [
        "ad",
        "or"
      ],
      [
        "ale",
        "x"
      ],
      [
        "b",
        "al"
      ],
      [
        "ber",
        "to"
      ],
      [
        "c",
        "ris"
      ],
      [
        "car",
        "los"
      ],
      [
        "ch",
        "o"
      ],
      [
        "d",
        "y"
      ],
      [
        "e",
        "f"
      ],
      [
        "f",
        "el"
      ],
      [
        "g",
        "er"
      ],
      [
        "il",
        "lo"
      ],
      [
        "im",
        "o"
      ],
      [
        "in",
        "k"
      ],
      [
        "l",
        "ove"
      ],
      [
        "m",
        "er"
      ],
      [
        "m",
        "in"
      ],
      [
        "n",
        "ic"
      ],
      [
        "*",
        "*"
      ],
      [
        "0",
        "10"
      ],
      [
        "197",
        "6"
      ],
      [
        "198",
        "8"
      ],
      [
        "3",
        "5"
      ],
      [
        "I",
        "O"
      ],
      [
        "L",
        "A"
      ],
      [
        "R",
        "A"
      ],
      [
        "am",
        "e"
      ],
      [
        "ar",
        "o"
      ],
      [
        "ar",
        "t"
      ],
      [
        "as",
        "t"
      ],
      [
        "b",
        "on"
      ],
      [
        "c",
        "al"
      ],
      [
        "c",
        "ol"
      ],
      [
        "f",
        "a"
      ],
      [
        "g",
        "irl"
      ],
      [
        "is",
        "t"
      ],
      [
        "is",
        "ta"
      ],
      [
        "k",
        "at"
      ],
      [
        "lu",
        "is"
      ],
      [
        "oc",
        "k"
      ],
      [
        "or",
        "o"
      ],
      [
        "p",
        "l"
      ],
      [
        "qu",
        "i"
      ],
      [
        "v",
        "iv"
      ],
      [
        "\"\"",
        "\"\""
      ],
      [
        "197",
        "8"
      ],
      [
        "198",
        "6"
      ],
      [
        "2",
        "12"
      ],
      [
        "3",
        "1"
      ],
      [
        "3",
        "9"
      ],
      [
        "9",
        "1"
      ],
      [
        "O",
        "L"
      ],
      [
        "\\",
        "\"\"\"\""
      ],
      [
        "ac",
        "k"
      ],
      [
        "an",
        "i"
      ],
      [
        "b",
        "at"
      ],
      [
        "b",
        "ol"
      ],
      [
        "b",
        "y"
      ],
      [
        "ch",
        "e"
      ],
      [
        "d",
        "ar"
      ],
      [
        "dan",
        "iel"
      ],
      [
        "e",
        "p"
      ],
      [
        "e",
        "ver"
      ],
      [
        "es",
        "a"
      ],
      [
        "et",
        "er"
      ],
      [
        "g",
        "on"
      ],
      [
        "g",
        "r"
      ],
      [
        "h",
        "u"
      ],
      [
        "i",
        "p"
      ],
      [
        "iem",
        "bre"
      ],
      [
        "is",
        "a"
      ],
      [
        "k",
        "y"
      ],
      [
        "m",
        "am"
      ],
      [
        "m",
        "u"
      ],
      [
        "ol",
        "o"
      ],
      [
        "p",
        "el"
      ],
      [
        "pr",
        "in"
      ],
      [
        "r",
        "et"
      ],
      [
        "r",
        "ic"
      ],
      [
        "t",
        "om"
      ],
      [
        "ur",
        "a"
      ],
      [
        "00",
        "7"
      ],
      [
        "198",
        "9"
      ],
      [
        "199",
        "0"
      ],
      [
        "199",
        "3"
      ],
      [
        "200",
        "3"
      ],
      [
        "4",
        "0"
      ],
      [
        "4",
        "7"
      ],
      [
        "4",
        "8"
      ],
      [
        "M",
        "I"
      ],
      [
        "Q",
        "U"
      ],
      [
        "T",
        "A"
      ],
      [
        "\\",
        "'"
      ],
      [
        "ab",
        "e"
      ],
      [
        "al",
        "u"
      ],
      [
        "am",
        "er"
      ],
      [
        "an",
        "te"
      ],
      [
        "ar",
        "iel"
      ],
      [
        "as",
        "s"
      ],
      [
        "bab",
        "y"
      ],
      [
        "be",
        "at"
      ],
      [
        "bet",
        "o"
      ],
      [
        "c",
        "an"
      ],
      [
        "c",
        "el"
      ],
      [
        "c",
        "oc"
      ],
      [
        "e",
        "b"
      ],
      [
        "en",
        "te"
      ],
      [
        "es",
        "tr"
      ],
      [
        "f",
        "lor"
      ],
      [
        "f",
        "on"
      ],
      [
        "f",
        "u"
      ],
      [
        "g",
        "h"
      ],
      [
        "it",
        "as"
      ],
      [
        "jes",
        "us"
      ],
      [
        "o",
        "o"
      ],
      [
        "om",
        "ar"
      ],
      [
        "s",
        "al"
      ],
      [
        "s",
        "ec"
      ],
      [
        "un",
        "d"
      ],
      [
        "10",
        "8"
      ],
      [
        "198",
        "2"
      ],
      [
        "199",
        "1"
      ],
      [
        "199",
        "5"
      ],
      [
        "199",
        "6"
      ],
      [
        "200",
        "1"
      ],
      [
        "200",
        "4"
      ],
      [
        "3",
        "6"
      ],
      [
        "3",
        "="
      ],
      [
        "6",
        "1"
      ],
      [
        "=",
        "C"
      ],
      [
        "=C",
        "3="
      ],
      [
        "D",
        "A"
      ],
      [
        "D",
        "E"
      ],
      [
        "D",
        "O"
      ],
      [
        "N",
        "A"
      ],
      [
        "R",
        "I"
      ],
      [
        "ad",
        "r"
      ],
      [
        "al",
        "on"
      ],
      [
        "am",
        "ig"
      ],
      [
        "an",
        "e"
      ],
      [
        "and",
        "y"
      ],
      [
        "ar",
        "do"
      ],
      [
        "ar",
        "io"
      ],
      [
        "at",
        "i"
      ],
      [
        "b",
        "ra"
      ],
      [
        "be",
        "a"
      ],
      [
        "ber",
        "t"
      ],
      [
        "d",
        "es"
      ],
      [
        "d",
        "ie"
      ],
      [
        "d",
        "u"
      ],
      [
        "et",
        "te"
      ],
      [
        "f",
        "in"
      ],
      [
        "g",
        "ab"
      ],
      [
        "g",
        "e"
      ],
      [
        "id",
        "ad"
      ],
      [
        "il",
        "ove"
      ],
      [
        "iv",
        "er"
      ],
      [
        "j",
        "am"
      ],
      [
        "k",
        "h"
      ],
      [
        "l",
        "an"
      ],
      [
        "m",
        "ic"
      ],
      [
        "n",
        "en"
      ],
      [
        "n",
        "ov"
      ],
      [
        "or",
        "r"
      ],
      [
        "p",
        "ed"
      ],
      [
        "p",
        "en"
      ],
      [
        "p",
        "il"
      ],
      [
        "p",
        "ol"
      ],
      [
        "r",
        "om"
      ],
      [
        "re",
        "y"
      ],
      [
        "s",
        "ant"
      ],
      [
        "s",
        "i"
      ],
      [
        "s",
        "on"
      ],
      [
        "s",
        "p"
      ],
      [
        "t",
        "in"
      ],
      [
        "ur",
        "i"
      ],
      [
        "w",
        "er"
      ],
      [
        "00",
        "5"
      ],
      [
        "00",
        "6"
      ],
      [
        "19",
        "64"
      ],
      [
        "197",
        "3"
      ],
      [
        "197",
        "4"
      ],
      [
        "200",
        "0"
      ],
      [
        "3",
        "21"
      ],
      [
        "4",
        "9"
      ],
      [
        "5",
        "1"
      ],
      [
        "5",
        "2"
      ],
      [
        "66",
        "6"
      ],
      [
        "77",
        "7"
      ],
      [
        "A",
        "Z"
      ],
      [
        "E+",
        "15"
      ],
      [
        "R",
        "O"
      ],
      [
        "ac",
        "o"
      ],
      [
        "ad",
        "i"
      ],
      [
        "al",
        "berto"
      ],
      [
        "am",
        "an"
      ],
      [
        "ant",
        "on"
      ],
      [
        "ar",
        "e"
      ],
      [
        "ay",
        "a"
      ],
      [
        "ay",
        "o"
      ],
      [
        "b",
        "all"
      ],
      [
        "b",
        "ian"
      ],
      [
        "ber",
        "n"
      ],
      [
        "bet",
        "ty"
      ],
      [
        "c",
        "c"
      ],
      [
        "c",
        "er"
      ],
      [
        "c",
        "k"
      ],
      [
        "ch",
        "il"
      ],
      [
        "ch",
        "ito"
      ],
      [
        "ch",
        "iv"
      ],
      [
        "ch",
        "ul"
      ],
      [
        "chi",
        "qu"
      ],
      [
        "e",
        "x"
      ],
      [
        "ec",
        "t"
      ],
      [
        "el",
        "i"
      ],
      [
        "en",
        "ita"
      ],
      [
        "en",
        "to"
      ],
      [
        "f",
        "re"
      ],
      [
        "f",
        "ri"
      ],
      [
        "fer",
        "n"
      ],
      [
        "fri",
        "end"
      ],
      [
        "g",
        "al"
      ],
      [
        "h",
        "an"
      ],
      [
        "iem",
        "pre"
      ],
      [
        "im",
        "a"
      ],
      [
        "it",
        "al"
      ],
      [
        "it",
        "or"
      ],
      [
        "jul",
        "io"
      ],
      [
        "l",
        "as"
      ],
      [
        "l",
        "en"
      ],
      [
        "l",
        "oc"
      ],
      [
        "l",
        "ov"
      ],
      [
        "m",
        "ag"
      ],
      [
        "m",
        "el"
      ],
      [
        "m",
        "et"
      ],
      [
        "m",
        "il"
      ],
      [
        "man",
        "uel"
      ],
      [
        "n",
        "d"
      ],
      [
        "o",
        "g"
      ],
      [
        "o",
        "k"
      ],
      [
        "on",
        "t"
      ],
      [
        "or",
        "n"
      ],
      [
        "os",
        "o"
      ],
      [
        "p",
        "and"
      ],
      [
        "qui",
        "ero"
      ],
      [
        "r",
        "as"
      ],
      [
        "ri",
        "z"
      ],
      [
        "s",
        "ar"
      ],
      [
        "s",
        "er"
      ],
      [
        "t",
        "it"
      ],
      [
        "un",
        "a"
      ],
      [
        "y",
        "ou"
      ],
      [
        "+",
        "+"
      ],
      [
        "-",
        "-"
      ],
      [
        "1",
        "19"
      ],
      [
        "1",
        "d"
      ],
      [
        "10",
        "2"
      ],
      [
        "10",
        "4"
      ],
      [
        "123456",
        "789"
      ],
      [
        "15",
        "9"
      ],
      [
        "197",
        "2"
      ],
      [
        "197",
        "5"
      ],
      [
        "199",
        "4"
      ],
      [
        "200",
        "2"
      ],
      [
        "29",
        "3"
      ],
      [
        "3",
        "."
      ],
      [
        "3",
        "10"
      ],
      [
        "3",
        "69"
      ],
      [
        "4",
        "3"
      ],
      [
        "4",
        "56"
      ],
      [
        "4",
        "6"
      ],
      [
        "5",
        "."
      ],
      [
        "6",
        "54"
      ],
      [
        "88",
        "88"
      ],
      [
        "9",
        "05"
      ],
      [
        "@",
        "@"
      ],
      [
        "A",
        "B"
      ],
      [
        "A",
        "V"
      ],
      [
        "E+",
        "12"
      ],
      [
        "I",
        "E"
      ],
      [
        "L",
        "E"
      ],
      [
        "a",
        "ur"
      ],
      [
        "ab",
        "i"
      ],
      [
        "ad",
        "ri"
      ],
      [
        "ad",
        "y"
      ],
      [
        "al",
        "i"
      ],
      [
        "ale",
        "j"
      ],
      [
        "alej",
        "and"
      ],
      [
        "am",
        "s"
      ],
      [
        "an",
        "ia"
      ],
      [
        "as",
        "df"
      ],
      [
        "ate",
        "amo"
      ],
      [
        "az",
        "on"
      ],
      [
        "b",
        "j"
      ],
      [
        "b",
        "ur"
      ],
      [
        "be",
        "be"
      ],
      [
        "bel",
        "en"
      ],
      [
        "bel",
        "la"
      ],
      [
        "c",
        "ito"
      ],
      [
        "c",
        "l"
      ],
      [
        "ch",
        "el"
      ],
      [
        "ch",
        "u"
      ],
      [
        "d",
        "em"
      ],
      [
        "d",
        "er"
      ],
      [
        "e",
        "_"
      ],
      [
        "e",
        "v"
      ],
      [
        "et",
        "e"
      ],
      [
        "f",
        "id"
      ],
      [
        "fr",
        "anc"
      ],
      [
        "g",
        "g"
      ],
      [
        "g",
        "ord"
      ],
      [
        "g",
        "re"
      ],
      [
        "h",
        "el"
      ],
      [
        "h",
        "or"
      ],
      [
        "h",
        "ot"
      ],
      [
        "i",
        "k"
      ],
      [
        "ian",
        "a"
      ],
      [
        "id",
        "e"
      ],
      [
        "id",
        "o"
      ],
      [
        "j",
        "av"
      ],
      [
        "j",
        "er"
      ],
      [
        "j",
        "im"
      ],
      [
        "j",
        "un"
      ],
      [
        "l",
        "y"
      ],
      [
        "m",
        "ac"
      ],
      [
        "m",
        "ama"
      ],
      [
        "m",
        "en"
      ],
      [
        "m",
        "n"
      ],
      [
        "ma",
        "il"
      ],
      [
        "mar",
        "ia"
      ],
      [
        "me",
        "jor"
      ],
      [
        "n",
        "ar"
      ],
      [
        "n",
        "at"
      ],
      [
        "ol",
        "e"
      ],
      [
        "ol",
        "in"
      ],
      [
        "on",
        "o"
      ],
      [
        "os",
        "car"
      ],
      [
        "p",
        "al"
      ],
      [
        "p",
        "ot"
      ],
      [
        "p",
        "ro"
      ],
      [
        "p",
        "s"
      ],
      [
        "prin",
        "ces"
      ],
      [
        "s",
        "in"
      ],
      [
        "s",
        "oc"
      ],
      [
        "t",
        "os"
      ],
      [
        "u",
        "d"
      ],
      [
        "us",
        "e"
      ],
      [
        "v",
        "i"
      ],
      [
        "v",
        "in"
      ],
      [
        "y",
        "am"
      ],
      [
        "y",
        "l"
      ],
      [
        "z",
        "o"
      ],
      [
        "\"",
        "\\\"\"\"\""
      ],
      [
        ".",
        "com"
      ],
      [
        "/",
        "/"
      ],
      [
        "0",
        "17"
      ],
      [
        "02",
        "19"
      ],
      [
        "10",
        "9"
      ],
      [
        "100",
        "8"
      ],
      [
        "11",
        "1"
      ],
      [
        "11",
        "6"
      ],
      [
        "11",
        "7"
      ],
      [
        "12",
        "04"
      ],
      [
        "12",
        "12"
      ],
      [
        "18",
        "2"
      ],
      [
        "19",
        "69"
      ],
      [
        "197",
        "1"
      ],
      [
        "199",
        "2"
      ],
      [
        "2",
        "02"
      ],
      [
        "2",
        "05"
      ],
      [
        "2",
        "11"
      ],
      [
        "28",
        "12"
      ],
      [
        "3",
        "02"
      ],
      [
        "3",
        "28"
      ],
      [
        "33",
        "3"
      ],
      [
        "4",
        "2"
      ],
      [
        "4",
        "ever"
      ],
      [
        "6",
        "19"
      ],
      [
        "6",
        "74"
      ],
      [
        "66",
        "7"
      ],
      [
        "8",
        "05"
      ],
      [
        "8",
        "1"
      ],
      [
        "87",
        "654"
      ],
      [
        "87",
        "8"
      ],
      [
        "9",
        "11"
      ],
      [
        "99",
        "9"
      ],
      [
        "=C3=",
        "A"
      ],
      [
        "A",
        "MO"
      ],
      [
        "A",
        "T"
      ],
      [
        "AN",
        "G"
      ],
      [
        "AN",
        "I"
      ],
      [
        "B",
        "I"
      ],
      [
        "D",
        "I"
      ],
      [
        "E+",
        "14"
      ],
      [
        "EL",
        "I"
      ],
      [
        "ER",
        "O"
      ],
      [
        "G",
        "U"
      ],
      [
        "LO",
        "S"
      ],
      [
        "M",
        "AR"
      ],
      [
        "P",
        "R"
      ],
      [
        "QU",
        "I"
      ],
      [
        "S",
        "O"
      ],
      [
        "ab",
        "el"
      ],
      [
        "ab",
        "l"
      ],
      [
        "ac",
        "a"
      ],
      [
        "al",
        "c"
      ],
      [
        "amor",
        "es"
      ],
      [
        "and",
        "a"
      ],
      [
        "ar",
        "l"
      ],
      [
        "ar",
        "s"
      ],
      [
        "as",
        "a"
      ],
      [
        "at",
        "ion"
      ],
      [
        "az",
        "ul"
      ],
      [
        "b",
        "il"
      ],
      [
        "b",
        "in"
      ],
      [
        "b",
        "it"
      ],
      [
        "b",
        "la"
      ],
      [
        "b",
        "os"
      ],
      [
        "b",
        "s"
      ],
      [
        "c",
        "ap"
      ],
      [
        "c",
        "r"
      ],
      [
        "c",
        "re"
      ],
      [
        "ch",
        "ic"
      ],
      [
        "cris",
        "to"
      ],
      [
        "d",
        "av"
      ],
      [
        "d",
        "ic"
      ],
      [
        "d",
        "ou"
      ],
      [
        "e",
        "is"
      ],
      [
        "ed",
        "a"
      ],
      [
        "en",
        "cia"
      ],
      [
        "en",
        "o"
      ],
      [
        "es",
        "ita"
      ],
      [
        "estr",
        "ella"
      ],
      [
        "f",
        "al"
      ],
      [
        "f",
        "ar"
      ],
      [
        "f",
        "at"
      ],
      [
        "f",
        "ul"
      ],
      [
        "fo",
        "ot"
      ],
      [
        "g",
        "at"
      ],
      [
        "g",
        "en"
      ],
      [
        "g",
        "or"
      ],
      [
        "g",
        "ot"
      ],
      [
        "g",
        "us"
      ],
      [
        "i",
        "x"
      ],
      [
        "ic",
        "e"
      ],
      [
        "ic",
        "os"
      ],
      [
        "il",
        "le"
      ],
      [
        "in",
        "d"
      ],
      [
        "is",
        "ma"
      ],
      [
        "j",
        "e"
      ],
      [
        "j",
        "on"
      ],
      [
        "jos",
        "e"
      ],
      [
        "k",
        "is"
      ],
      [
        "k",
        "n"
      ],
      [
        "ki",
        "ero"
      ],
      [
        "l",
        "am"
      ],
      [
        "le",
        "on"
      ],
      [
        "le",
        "y"
      ],
      [
        "li",
        "fe"
      ],
      [
        "m",
        "all"
      ],
      [
        "m",
        "m"
      ],
      [
        "ma",
        "k"
      ],
      [
        "mar",
        "io"
      ],
      [
        "mig",
        "uel"
      ],
      [
        "n",
        "al"
      ],
      [
        "n",
        "y"
      ],
      [
        "oc",
        "o"
      ],
      [
        "ol",
        "ina"
      ],
      [
        "om",
        "a"
      ],
      [
        "ot",
        "a"
      ],
      [
        "p",
        "an"
      ],
      [
        "p",
        "ic"
      ],
      [
        "p",
        "ink"
      ],
      [
        "p",
        "ir"
      ],
      [
        "p",
        "ul"
      ],
      [
        "qu",
        "it"
      ],
      [
        "r",
        "oc"
      ],
      [
        "r",
        "ock"
      ],
      [
        "ra",
        "ul"
      ],
      [
        "re",
        "a"
      ],
      [
        "t",
        "ag"
      ],
      [
        "t",
        "el"
      ],
      [
        "t",
        "es"
      ],
      [
        "t",
        "ig"
      ],
      [
        "team",
        "om"
      ],
      [
        "u",
        "ch"
      ],
      [
        "ul",
        "t"
      ],
      [
        "un",
        "o"
      ],
      [
        "ur",
        "r"
      ],
      [
        "v",
        "al"
      ],
      [
        "w",
        "in"
      ],
      [
        "w",
        "w"
      ],
      [
        "xx",
        "x"
      ],
      [
        "y",
        "_"
      ],
      [
        "y",
        "an"
      ],
      [
        ",",
        "."
      ],
      [
        "-",
        "12"
      ],
      [
        "07",
        "07"
      ],
      [
        "12",
        "01"
      ],
      [
        "12",
        "02"
      ],
      [
        "14",
        "04"
      ],
      [
        "14",
        "5"
      ],
      [
        "15",
        "2"
      ],
      [
        "19",
        "0"
      ],
      [
        "197",
        "0"
      ],
      [
        "199",
        "7"
      ],
      [
        "22",
        "05"
      ],
      [
        "23",
        "4"
      ],
      [
        "3",
        "04"
      ],
      [
        "3",
        "12"
      ],
      [
        "3",
        "14"
      ],
      [
        "3",
        "55"
      ],
      [
        "3",
        "d"
      ],
      [
        "3",
        "l"
      ],
      [
        "4",
        "04"
      ],
      [
        "4",
        "1"
      ],
      [
        "4",
        "74"
      ],
      [
        "44",
        "4"
      ],
      [
        "5",
        "18"
      ],
      [
        "6",
        "86"
      ],
      [
        "69",
        "69"
      ],
      [
        "9",
        "."
      ],
      [
        "9",
        "00"
      ],
      [
        "A",
        "C"
      ],
      [
        "A",
        "Y"
      ],
      [
        "C",
        "IA"
      ],
      [
        "E",
        "T"
      ],
      [
        "L",
        "I"
      ],
      [
        "L",
        "U"
      ],
      [
        "N",
        "E"
      ],
      [
        "N",
        "ES"
      ],
      [
        "O",
        "V"
      ],
      [
        "P",
        "E"
      ],
      [
        "R",
        "EN"
      ],
      [
        "S",
        "A"
      ],
      [
        "\\\"\"\"\"",
        "\""
      ],
      [
        "a",
        "."
      ],
      [
        "ab",
        "a"
      ],
      [
        "ab",
        "b"
      ],
      [
        "ac",
        "e"
      ],
      [
        "ad",
        "alu"
      ],
      [
        "ad",
        "e"
      ],
      [
        "adalu",
        "pe"
      ],
      [
        "adr",
        "id"
      ],
      [
        "al",
        "es"
      ],
      [
        "am",
        "b"
      ],
      [
        "an",
        "z"
      ],
      [
        "anton",
        "io"
      ],
      [
        "ap",
        "o"
      ],
      [
        "ar",
        "ia"
      ],
      [
        "ar",
        "ra"
      ],
      [
        "ar",
        "ri"
      ],
      [
        "arm",
        "ando"
      ],
      [
        "art",
        "ur"
      ],
      [
        "at",
        "a"
      ],
      [
        "at",
        "or"
      ],
      [
        "at",
        "ra"
      ],
      [
        "au",
        "d"
      ],
      [
        "av",
        "il"
      ],
      [
        "az",
        "z"
      ],
      [
        "b",
        "ad"
      ],
      [
        "b",
        "an"
      ],
      [
        "b",
        "as"
      ],
      [
        "b",
        "ast"
      ],
      [
        "b",
        "c"
      ],
      [
        "b",
        "or"
      ],
      [
        "bb",
        "bb"
      ],
      [
        "beat",
        "riz"
      ],
      [
        "ber",
        "e"
      ],
      [
        "ber",
        "en"
      ],
      [
        "c",
        "ed"
      ],
      [
        "c",
        "en"
      ],
      [
        "c",
        "ul"
      ],
      [
        "ca",
        "ch"
      ],
      [
        "cam",
        "il"
      ],
      [
        "cor",
        "p"
      ],
      [
        "d",
        "am"
      ],
      [
        "d",
        "j"
      ],
      [
        "d",
        "ol"
      ],
      [
        "d",
        "om"
      ],
      [
        "d",
        "ra"
      ],
      [
        "d",
        "ul"
      ],
      [
        "dic",
        "iembre"
      ],
      [
        "e",
        "va"
      ],
      [
        "ed",
        "ad"
      ],
      [
        "ed",
        "u"
      ],
      [
        "el",
        "o"
      ],
      [
        "el",
        "y"
      ],
      [
        "ell",
        "y"
      ],
      [
        "em",
        "bre"
      ],
      [
        "en",
        "amor"
      ],
      [
        "er",
        "e"
      ],
      [
        "et",
        "h"
      ],
      [
        "et",
        "ti"
      ],
      [
        "f",
        "l"
      ],
      [
        "foot",
        "ball"
      ],
      [
        "g",
        "an"
      ],
      [
        "h",
        "am"
      ],
      [
        "her",
        "m"
      ],
      [
        "hot",
        "mail"
      ],
      [
        "i",
        "i"
      ],
      [
        "i",
        "or"
      ],
      [
        "i",
        "ra"
      ],
      [
        "il",
        "ov"
      ],
      [
        "im",
        "e"
      ],
      [
        "in",
        "da"
      ],
      [
        "in",
        "es"
      ],
      [
        "in",
        "t"
      ],
      [
        "in",
        "ter"
      ],
      [
        "is",
        "e"
      ],
      [
        "is",
        "ter"
      ],
      [
        "it",
        "h"
      ],
      [
        "iv",
        "an"
      ],
      [
        "j",
        "an"
      ],
      [
        "j",
        "k"
      ],
      [
        "j",
        "t"
      ],
      [
        "jo",
        "h"
      ],
      [
        "ki",
        "k"
      ],
      [
        "l",
        "and"
      ],
      [
        "l",
        "p"
      ],
      [
        "la",
        "v"
      ],
      [
        "la",
        "y"
      ],
      [
        "le",
        "v"
      ],
      [
        "lo",
        "w"
      ],
      [
        "m",
        "ad"
      ],
      [
        "m",
        "ed"
      ],
      [
        "m",
        "em"
      ],
      [
        "mi",
        "amor"
      ],
      [
        "n",
        "am"
      ],
      [
        "n",
        "or"
      ],
      [
        "o",
        "b"
      ],
      [
        "o",
        "j"
      ],
      [
        "oc",
        "a"
      ],
      [
        "oc",
        "am"
      ],
      [
        "oc",
        "t"
      ],
      [
        "oc",
        "tu"
      ],
      [
        "octu",
        "bre"
      ],
      [
        "ol",
        "as"
      ],
      [
        "om",
        "an"
      ],
      [
        "on",
        "e"
      ],
      [
        "on",
        "i"
      ],
      [
        "on",
        "ne"
      ],
      [
        "os",
        "m"
      ],
      [
        "os",
        "s"
      ],
      [
        "ot",
        "o"
      ],
      [
        "p",
        "et"
      ],
      [
        "p",
        "or"
      ],
      [
        "pa",
        "ul"
      ],
      [
        "pe",
        "on"
      ],
      [
        "pu",
        "t"
      ],
      [
        "r",
        "ac"
      ],
      [
        "r",
        "ad"
      ],
      [
        "r",
        "am"
      ],
      [
        "re",
        "am"
      ],
      [
        "s",
        "at"
      ],
      [
        "s",
        "iempre"
      ],
      [
        "s",
        "il"
      ],
      [
        "s",
        "te"
      ],
      [
        "se",
        "p"
      ],
      [
        "se",
        "x"
      ],
      [
        "sol",
        "edad"
      ],
      [
        "t",
        "ina"
      ],
      [
        "t",
        "k"
      ],
      [
        "t",
        "ra"
      ],
      [
        "t",
        "s"
      ],
      [
        "t",
        "x"
      ],
      [
        "te",
        "quiero"
      ],
      [
        "u",
        "f"
      ],
      [
        "u",
        "x"
      ],
      [
        "u",
        "z"
      ],
      [
        "ur",
        "ro"
      ],
      [
        "v",
        "e"
      ],
      [
        "v",
        "eg"
      ],
      [
        "v",
        "en"
      ],
      [
        "w",
        "al"
      ],
      [
        "w",
        "e"
      ],
      [
        "w",
        "o"
      ],
      [
        "y",
        "a"
      ],
      [
        "y",
        "h"
      ],
      [
        "y",
        "os"
      ],
      [
        "z",
        "ul"
      ],
      [
        "!",
        "@"
      ],
      [
        "0",
        "123"
      ],
      [
        "0",
        "22"
      ],
      [
        "00",
        "00"
      ],
      [
        "00",
        "3"
      ],
      [
        "02",
        "05"
      ],
      [
        "03",
        "12"
      ],
      [
        "03",
        "2"
      ],
      [
        "05",
        "/"
      ],
      [
        "05",
        "02"
      ],
      [
        "05",
        "05"
      ],
      [
        "07",
        "06"
      ],
      [
        "1",
        "77"
      ],
      [
        "10",
        "1"
      ],
      [
        "10",
        "3"
      ],
      [
        "10",
        "5"
      ],
      [
        "110",
        "5"
      ],
      [
        "12",
        "0"
      ],
      [
        "12",
        "5"
      ],
      [
        "12",
        "9"
      ],
      [
        "13",
        "02"
      ],
      [
        "13",
        "05"
      ],
      [
        "13",
        "12"
      ],
      [
        "13",
        "13"
      ],
      [
        "13",
        "4"
      ],
      [
        "13",
        "6"
      ],
      [
        "14",
        "0"
      ],
      [
        "14",
        "03"
      ],
      [
        "14",
        "15"
      ],
      [
        "14",
        "7"
      ],
      [
        "15",
        "10"
      ],
      [
        "16",
        "12"
      ],
      [
        "17",
        "04"
      ],
      [
        "17",
        "07"
      ],
      [
        "18",
        "09"
      ],
      [
        "18",
        "3"
      ],
      [
        "19",
        "04"
      ],
      [
        "19",
        "05"
      ],
      [
        "19",
        "56"
      ],
      [
        "19",
        "63"
      ],
      [
        "19",
        "66"
      ],
      [
        "199",
        "8"
      ],
      [
        "2",
        "07"
      ],
      [
        "2",
        "16"
      ],
      [
        "20",
        "10"
      ],
      [
        "200",
        "9"
      ],
      [
        "210",
        "5"
      ],
      [
        "22",
        "2"
      ],
      [
        "23",
        "0"
      ],
      [
        "23",
        "6"
      ],
      [
        "24",
        "03"
      ],
      [
        "28",
        "9"
      ],
      [
        "29",
        "09"
      ],
      [
        "3",
        "09"
      ],
      [
        "3",
        "25"
      ],
      [
        "3",
        "57"
      ],
      [
        "3",
        "66"
      ],
      [
        "4",
        "13"
      ],
      [
        "4",
        "69"
      ],
      [
        "5",
        "74"
      ],
      [
        "55",
        "9"
      ],
      [
        "56",
        "3"
      ],
      [
        "6",
        "22"
      ],
      [
        "6",
        "55"
      ],
      [
        "63",
        "0"
      ],
      [
        "67",
        "5"
      ],
      [
        "7",
        "26"
      ],
      [
        "77",
        "4"
      ],
      [
        "8",
        "09"
      ],
      [
        "8",
        "12"
      ],
      [
        "87654",
        "321"
      ],
      [
        "88",
        "8"
      ],
      [
        "9",
        "09"
      ],
      [
        "9",
        "17"
      ],
      [
        "9",
        "18"
      ],
      [
        "9",
        "64"
      ],
      [
        "9",
        "77"
      ],
      [
        "9",
        "d"
      ],
      [
        "99",
        "4"
      ],
      [
        "A",
        "I"
      ],
      [
        "A",
        "M"
      ],
      [
        "A",
        "U"
      ],
      [
        "AMO",
        "R"
      ],
      [
        "AV",
        "I"
      ],
      [
        "B",
        "AR"
      ],
      [
        "C",
        "ES"
      ],
      [
        "D",
        "ANI"
      ],
      [
        "DA",
        "D"
      ],
      [
        "E",
        "X"
      ],
      [
        "E+",
        "13"
      ],
      [
        "ER",
        "N"
      ],
      [
        "ES",
        "U"
      ],
      [
        "I",
        "TA"
      ],
      [
        "IL",
        "L"
      ],
      [
        "J",
        "ESU"
      ],
      [
        "M",
        "IN"
      ],
      [
        "M",
        "U"
      ],
      [
        "MA",
        "16"
      ],
      [
        "P",
        "O"
      ],
      [
        "PR",
        "IN"
      ],
      [
        "QUI",
        "ERO"
      ],
      [
        "R",
        "L"
      ],
      [
        "V",
        "AL"
      ],
      [
        "\\'",
        "\\'"
      ],
      [
        "a",
        "a"
      ],
      [
        "a",
        "k"
      ],
      [
        "ac",
        "t"
      ],
      [
        "ac",
        "u"
      ],
      [
        "ad",
        "os"
      ],
      [
        "ador",
        "a"
      ],
      [
        "adri",
        "an"
      ],
      [
        "ag",
        "o"
      ],
      [
        "aj",
        "a"
      ],
      [
        "aj",
        "o"
      ],
      [
        "al",
        "a"
      ],
      [
        "al",
        "do"
      ],
      [
        "al",
        "fre"
      ],
      [
        "al",
        "is"
      ],
      [
        "al",
        "p"
      ],
      [
        "alejand",
        "ra"
      ],
      [
        "alon",
        "so"
      ],
      [
        "am",
        "am"
      ],
      [
        "and",
        "res"
      ],
      [
        "ap",
        "a"
      ],
      [
        "ap",
        "py"
      ],
      [
        "ar",
        "es"
      ],
      [
        "ar",
        "on"
      ],
      [
        "ar",
        "quit"
      ],
      [
        "as",
        "e"
      ],
      [
        "as",
        "i"
      ],
      [
        "ash",
        "ion"
      ],
      [
        "aur",
        "el"
      ],
      [
        "av",
        "o"
      ],
      [
        "ax",
        "el"
      ],
      [
        "ay",
        "lin"
      ],
      [
        "az",
        "a"
      ],
      [
        "az",
        "er"
      ],
      [
        "az",
        "u"
      ],
      [
        "b",
        "ac"
      ],
      [
        "b",
        "om"
      ],
      [
        "b",
        "ou"
      ],
      [
        "b",
        "oy"
      ],
      [
        "b",
        "ri"
      ],
      [
        "bar",
        "cel"
      ],
      [
        "bar",
        "r"
      ],
      [
        "bel",
        "l"
      ],
      [
        "beren",
        "ice"
      ],
      [
        "bet",
        "y"
      ],
      [
        "bit",
        "ch"
      ],
      [
        "bl",
        "ack"
      ],
      [
        "bl",
        "anc"
      ],
      [
        "c",
        "and"
      ],
      [
        "c",
        "at"
      ],
      [
        "c",
        "op"
      ],
      [
        "c",
        "ot"
      ],
      [
        "c",
        "ou"
      ],
      [
        "c",
        "t"
      ],
      [
        "c",
        "y"
      ],
      [
        "cam",
        "peon"
      ],
      [
        "car",
        "men"
      ],
      [
        "ch",
        "ap"
      ],
      [
        "ch",
        "oc"
      ],
      [
        "chiv",
        "as"
      ],
      [
        "choc",
        "ol"
      ],
      [
        "con",
        "e"
      ],
      [
        "con",
        "s"
      ],
      [
        "corp",
        "ion"
      ],
      [
        "cu",
        "te"
      ],
      [
        "d",
        "as"
      ],
      [
        "d",
        "ia"
      ],
      [
        "d",
        "os"
      ],
      [
        "d",
        "ri"
      ],
      [
        "de",
        "julio"
      ],
      [
        "die",
        "go"
      ],
      [
        "e",
        "2"
      ],
      [
        "e",
        "in"
      ],
      [
        "ec",
        "a"
      ],
      [
        "ec",
        "os"
      ],
      [
        "ed",
        "er"
      ],
      [
        "eis",
        "er"
      ],
      [
        "el",
        "as"
      ],
      [
        "el",
        "e"
      ],
      [
        "el",
        "iz"
      ],
      [
        "eli",
        "DAD"
      ],
      [
        "em",
        "an"
      ],
      [
        "em",
        "il"
      ],
      [
        "en",
        "c"
      ],
      [
        "en",
        "l"
      ],
      [
        "en",
        "ov"
      ],
      [
        "ent",
        "es"
      ],
      [
        "er",
        "as"
      ],
      [
        "er",
        "i"
      ],
      [
        "es",
        "o"
      ],
      [
        "es",
        "p"
      ],
      [
        "es",
        "to"
      ],
      [
        "est",
        "re"
      ],
      [
        "estr",
        "ell"
      ],
      [
        "et",
        "on"
      ],
      [
        "f",
        "ashion"
      ],
      [
        "f",
        "eder"
      ],
      [
        "f",
        "f"
      ],
      [
        "f",
        "ord"
      ],
      [
        "fel",
        "iz"
      ],
      [
        "fid",
        "eliDAD"
      ],
      [
        "fr",
        "es"
      ],
      [
        "fr",
        "on"
      ],
      [
        "friend",
        "s"
      ],
      [
        "g",
        "l"
      ],
      [
        "g",
        "ust"
      ],
      [
        "gu",
        "adalupe"
      ],
      [
        "h",
        "appy"
      ],
      [
        "h",
        "ell"
      ],
      [
        "h",
        "ola"
      ],
      [
        "h",
        "om"
      ],
      [
        "h",
        "op"
      ],
      [
        "herm",
        "osa"
      ],
      [
        "ho",
        "use"
      ],
      [
        "i",
        "am"
      ],
      [
        "i",
        "b"
      ],
      [
        "i",
        "po"
      ],
      [
        "ia",
        "10"
      ],
      [
        "ic",
        "io"
      ],
      [
        "iel",
        "o"
      ],
      [
        "il",
        "d"
      ],
      [
        "il",
        "los"
      ],
      [
        "in",
        "ad"
      ],
      [
        "ing",
        "o"
      ],
      [
        "io",
        "p"
      ],
      [
        "ir",
        "is"
      ],
      [
        "is",
        "h"
      ],
      [
        "is",
        "o"
      ],
      [
        "is",
        "ra"
      ],
      [
        "is",
        "tr"
      ],
      [
        "it",
        "ario"
      ],
      [
        "j",
        "r"
      ],
      [
        "jav",
        "ier"
      ],
      [
        "jor",
        "ge"
      ],
      [
        "k",
        "el"
      ],
      [
        "k",
        "im"
      ],
      [
        "k",
        "in"
      ],
      [
        "k",
        "it"
      ],
      [
        "k",
        "on"
      ],
      [
        "k",
        "ur"
      ],
      [
        "kar",
        "en"
      ],
      [
        "l",
        "ac"
      ],
      [
        "l",
        "ad"
      ],
      [
        "l",
        "il"
      ],
      [
        "l",
        "ol"
      ],
      [
        "la",
        "h"
      ],
      [
        "la",
        "ur"
      ],
      [
        "le",
        "op"
      ],
      [
        "lu",
        "cas"
      ],
      [
        "m",
        "adrid"
      ],
      [
        "m",
        "as"
      ],
      [
        "m",
        "at"
      ],
      [
        "m",
        "ayo"
      ],
      [
        "m",
        "im"
      ],
      [
        "m",
        "om"
      ],
      [
        "m",
        "s"
      ],
      [
        "ma",
        "id"
      ],
      [
        "ma",
        "ur"
      ],
      [
        "ma",
        "x"
      ],
      [
        "mar",
        "tin"
      ],
      [
        "mar",
        "y"
      ],
      [
        "me",
        "x"
      ],
      [
        "met",
        "al"
      ],
      [
        "n",
        "an"
      ],
      [
        "n",
        "anc"
      ],
      [
        "n",
        "as"
      ],
      [
        "n",
        "er"
      ],
      [
        "n",
        "es"
      ],
      [
        "n",
        "om"
      ],
      [
        "o",
        "."
      ],
      [
        "om",
        "as"
      ],
      [
        "on",
        "ica"
      ],
      [
        "or",
        "a"
      ],
      [
        "ot",
        "or"
      ],
      [
        "ot",
        "y"
      ],
      [
        "p",
        "eter"
      ],
      [
        "p",
        "h"
      ],
      [
        "p",
        "op"
      ],
      [
        "pa",
        "k"
      ],
      [
        "pen",
        "de"
      ],
      [
        "per",
        "ez"
      ],
      [
        "po",
        "wer"
      ],
      [
        "pr",
        "es"
      ],
      [
        "pu",
        "er"
      ],
      [
        "q",
        "m"
      ],
      [
        "qu",
        "et"
      ],
      [
        "qu",
        "ita"
      ],
      [
        "qu",
        "ito"
      ],
      [
        "r",
        "ab"
      ],
      [
        "r",
        "and"
      ],
      [
        "r",
        "in"
      ],
      [
        "r",
        "ol"
      ],
      [
        "re",
        "al"
      ],
      [
        "re",
        "be"
      ],
      [
        "ro",
        "j"
      ],
      [
        "ru",
        "z"
      ],
      [
        "s",
        "ag"
      ],
      [
        "s",
        "l"
      ],
      [
        "t",
        "iv"
      ],
      [
        "te",
        "c"
      ],
      [
        "te",
        "m"
      ],
      [
        "th",
        "e"
      ],
      [
        "th",
        "ed"
      ],
      [
        "tr",
        "as"
      ],
      [
        "tr",
        "es"
      ],
      [
        "u",
        "is"
      ],
      [
        "u",
        "p"
      ],
      [
        "u",
        "v"
      ],
      [
        "un",
        "g"
      ],
      [
        "un",
        "iver"
      ],
      [
        "v",
        "ac"
      ],
      [
        "v",
        "d"
      ],
      [
        "v",
        "s"
      ],
      [
        "w",
        "a"
      ],
      [
        "w",
        "el"
      ],
      [
        "w",
        "il"
      ],
      [
        "w",
        "oman"
      ],
      [
        "xxx",
        "_"
      ],
      [
        "y",
        "ah"
      ],
      [
        "y",
        "al"
      ],
      [
        "y",
        "bar"
      ],
      [
        "z",
        "y"
      ],
      [
        "#",
        "$"
      ],
      [
        ",",
        "bla"
      ],
      [
        ".",
        "06"
      ],
      [
        ".",
        "16"
      ],
      [
        "..",
        "."
      ],
      [
        "/",
        "*"
      ],
      [
        "/",
        "15"
      ],
      [
        "0",
        "."
      ],
      [
        "0",
        "111"
      ],
      [
        "0",
        "124"
      ],
      [
        "00",
        "1"
      ],
      [
        "00",
        "11"
      ],
      [
        "00",
        "2"
      ],
      [
        "00",
        "4"
      ],
      [
        "0123",
        "69"
      ],
      [
        "03",
        "8"
      ],
      [
        "04",
        "08"
      ],
      [
        "04",
        "35"
      ],
      [
        "04",
        "5"
      ],
      [
        "05",
        "3"
      ],
      [
        "06",
        "5"
      ],
      [
        "08",
        "-"
      ],
      [
        "08",
        "."
      ],
      [
        "08",
        "06"
      ],
      [
        "08",
        "11"
      ],
      [
        "08",
        "12"
      ],
      [
        "08",
        "29"
      ],
      [
        "08",
        "77"
      ],
      [
        "09",
        "88"
      ],
      [
        "09",
        "90"
      ],
      [
        "1",
        "a"
      ],
      [
        "10",
        "15"
      ],
      [
        "10",
        "6"
      ],
      [
        "10",
        "7"
      ],
      [
        "100",
        "1"
      ],
      [
        "11",
        "12"
      ],
      [
        "110",
        "4"
      ],
      [
        "110",
        "8"
      ],
      [
        "12",
        "03"
      ],
      [
        "12",
        "13"
      ],
      [
        "12",
        "15"
      ],
      [
        "13",
        "10"
      ],
      [
        "13",
        "5"
      ],
      [
        "13",
        "77"
      ],
      [
        "14",
        "14"
      ],
      [
        "14",
        "4"
      ],
      [
        "14",
        "9"
      ],
      [
        "15",
        "04"
      ],
      [
        "15",
        "12"
      ],
      [
        "15",
        "7"
      ],
      [
        "15",
        "8"
      ],
      [
        "16",
        "3"
      ],
      [
        "16",
        "4"
      ],
      [
        "17",
        "02"
      ],
      [
        "17",
        "15"
      ],
      [
        "17",
        "3"
      ],
      [
        "17",
        "89"
      ],
      [
        "18",
        "07"
      ],
      [
        "18",
        "08"
      ],
      [
        "18",
        "11"
      ],
      [
        "19",
        "02"
      ],
      [
        "19",
        "09"
      ],
      [
        "19",
        "29"
      ],
      [
        "19",
        "3"
      ],
      [
        "19",
        "45"
      ],
      [
        "19",
        "5"
      ],
      [
        "19",
        "53"
      ],
      [
        "19",
        "55"
      ],
      [
        "19",
        "67"
      ],
      [
        "199",
        "9"
      ],
      [
        "2",
        "03"
      ],
      [
        "2",
        "06"
      ],
      [
        "2",
        "08"
      ],
      [
        "2",
        "17"
      ],
      [
        "2.",
        "7"
      ],
      [
        "20",
        "12"
      ],
      [
        "20",
        "22"
      ],
      [
        "21",
        "12"
      ],
      [
        "210",
        "6"
      ],
      [
        "22",
        "02"
      ],
      [
        "22",
        "04"
      ],
      [
        "22",
        "11"
      ],
      [
        "23",
        "03"
      ],
      [
        "23",
        "08"
      ],
      [
        "24",
        "1"
      ],
      [
        "24",
        "10"
      ],
      [
        "24",
        "12"
      ],
      [
        "25",
        "07"
      ],
      [
        "25",
        "11"
      ],
      [
        "25",
        "79"
      ],
      [
        "25",
        "8"
      ],
      [
        "26",
        "01"
      ],
      [
        "26",
        "6"
      ],
      [
        "27",
        "02"
      ],
      [
        "27",
        "05"
      ],
      [
        "27",
        "10"
      ],
      [
        "27",
        "12"
      ],
      [
        "27",
        "4"
      ],
      [
        "27",
        "5"
      ],
      [
        "28",
        "3"
      ],
      [
        "28",
        "4"
      ],
      [
        "28",
        "5"
      ],
      [
        "29",
        "05"
      ],
      [
        "29",
        "07"
      ],
      [
        "29",
        "10"
      ],
      [
        "29",
        "12"
      ],
      [
        "3",
        "03"
      ],
      [
        "3",
        "79"
      ],
      [
        "3",
        "80"
      ],
      [
        "3",
        "de"
      ],
      [
        "3",
        "s"
      ],
      [
        "30",
        "12"
      ],
      [
        "3d",
        "4"
      ],
      [
        "4",
        "26"
      ],
      [
        "4",
        "86"
      ],
      [
        "4",
        "r"
      ],
      [
        "44",
        "64"
      ],
      [
        "5",
        "20"
      ],
      [
        "5",
        "29"
      ],
      [
        "56",
        "2"
      ],
      [
        "56",
        "74"
      ],
      [
        "6",
        "05"
      ],
      [
        "6",
        "09"
      ],
      [
        "6",
        "17"
      ],
      [
        "6",
        "29"
      ],
      [
        "63",
        "25"
      ],
      [
        "64",
        "2"
      ],
      [
        "66",
        "4"
      ],
      [
        "69",
        "6"
      ],
      [
        "7",
        "."
      ],
      [
        "7",
        "09"
      ],
      [
        "7",
        "12"
      ],
      [
        "7",
        "17"
      ],
      [
        "7",
        "21"
      ],
      [
        "7",
        "53"
      ],
      [
        "76",
        "1"
      ],
      [
        "77",
        "9"
      ],
      [
        "8",
        "d"
      ],
      [
        "84",
        "84"
      ],
      [
        "84",
        "9"
      ],
      [
        "89",
        "0"
      ],
      [
        "9",
        "57"
      ],
      [
        "9",
        "65"
      ],
      [
        "92",
        "14"
      ],
      [
        "95",
        "2"
      ],
      [
        "99",
        "3"
      ],
      [
        "99",
        "99"
      ],
      [
        "9d",
        "9d"
      ],
      [
        "=C3=",
        "B"
      ],
      [
        "@",
        "_"
      ],
      [
        "A",
        "J"
      ],
      [
        "A",
        "b"
      ],
      [
        "A",
        "m"
      ],
      [
        "A",
        "r"
      ],
      [
        "AN",
        "D"
      ],
      [
        "AR",
        "G"
      ],
      [
        "AR",
        "LOS"
      ],
      [
        "B",
        "AS"
      ],
      [
        "B",
        "EL"
      ],
      [
        "B",
        "e"
      ],
      [
        "B",
        "et"
      ],
      [
        "BE",
        "TO"
      ],
      [
        "C",
        "A"
      ],
      [
        "C",
        "ARLOS"
      ],
      [
        "C",
        "AS"
      ],
      [
        "C",
        "h"
      ],
      [
        "CH",
        "IL"
      ],
      [
        "CH",
        "O"
      ],
      [
        "CO",
        "M"
      ],
      [
        "DANI",
        "EL"
      ],
      [
        "EL",
        "O"
      ],
      [
        "ES",
        "C"
      ],
      [
        "F",
        "O"
      ],
      [
        "G",
        "I"
      ],
      [
        "G",
        "O"
      ],
      [
        "H",
        "AZ"
      ],
      [
        "H",
        "U"
      ],
      [
        "I",
        "AN"
      ],
      [
        "IE",
        "M"
      ],
      [
        "J",
        "O"
      ],
      [
        "JESU",
        "S"
      ],
      [
        "M",
        "E"
      ],
      [
        "N",
        "I"
      ],
      [
        "N",
        "IO"
      ],
      [
        "P",
        "AL"
      ],
      [
        "P",
        "I"
      ],
      [
        "PRIN",
        "CES"
      ],
      [
        "R",
        "AN"
      ],
      [
        "RO",
        "26"
      ],
      [
        "S",
        "AN"
      ],
      [
        "S",
        "E"
      ],
      [
        "S",
        "T"
      ],
      [
        "T",
        "I"
      ],
      [
        "U",
        "H"
      ],
      [
        "Z",
        "A"
      ],
      [
        "_",
        "08"
      ],
      [
        "_",
        "1"
      ],
      [
        "_",
        "12"
      ],
      [
        "_",
        "sal"
      ],
      [
        "_",
        "y_"
      ],
      [
        "a",
        "1"
      ],
      [
        "a",
        "23"
      ],
      [
        "a",
        "6"
      ],
      [
        "a",
        "il"
      ],
      [
        "ab",
        "eth"
      ],
      [
        "ab",
        "il"
      ],
      [
        "ab",
        "on"
      ],
      [
        "ab",
        "r"
      ],
      [
        "abe",
        "a"
      ],
      [
        "abl",
        "itas"
      ],
      [
        "ac",
        "ar"
      ],
      [
        "ac",
        "i"
      ],
      [
        "ac",
        "ita"
      ],
      [
        "ac",
        "ito"
      ],
      [
        "ad",
        "el"
      ],
      [
        "adi",
        "os"
      ],
      [
        "ag",
        "ar"
      ],
      [
        "agar",
        "cia"
      ],
      [
        "ah",
        "r"
      ],
      [
        "al",
        "am"
      ],
      [
        "al",
        "an"
      ],
      [
        "al",
        "bert"
      ],
      [
        "al",
        "en"
      ],
      [
        "al",
        "ic"
      ],
      [
        "al",
        "ina"
      ],
      [
        "al",
        "lah"
      ],
      [
        "al",
        "v"
      ],
      [
        "ald",
        "er"
      ],
      [
        "ald",
        "on"
      ],
      [
        "alo",
        "ka"
      ],
      [
        "am",
        "ac"
      ],
      [
        "am",
        "il"
      ],
      [
        "am",
        "mar"
      ],
      [
        "amer",
        "ic"
      ],
      [
        "amig",
        "os"
      ],
      [
        "amor",
        "eter"
      ],
      [
        "amoreter",
        "no"
      ],
      [
        "an",
        "ab"
      ],
      [
        "an",
        "iel"
      ],
      [
        "an",
        "im"
      ],
      [
        "an",
        "ita"
      ],
      [
        "an",
        "ni"
      ],
      [
        "an",
        "os"
      ],
      [
        "ang",
        "a"
      ],
      [
        "ant",
        "er"
      ],
      [
        "ap",
        "ol"
      ],
      [
        "ar",
        "bol"
      ],
      [
        "ar",
        "en"
      ],
      [
        "ar",
        "et"
      ],
      [
        "ar",
        "ian"
      ],
      [
        "ar",
        "ita"
      ],
      [
        "ar",
        "k"
      ],
      [
        "ar",
        "ro"
      ],
      [
        "arm",
        "and"
      ],
      [
        "as",
        "ti"
      ],
      [
        "as",
        "tr"
      ],
      [
        "as",
        "u"
      ],
      [
        "asdf",
        "asdf"
      ],
      [
        "ash",
        "ley"
      ],
      [
        "at",
        "on"
      ],
      [
        "at",
        "t"
      ],
      [
        "aud",
        "rey"
      ],
      [
        "av",
        "ad"
      ],
      [
        "av",
        "en"
      ],
      [
        "av",
        "r"
      ],
      [
        "ay",
        "el"
      ],
      [
        "ay",
        "le"
      ],
      [
        "ay",
        "u"
      ],
      [
        "az",
        "min"
      ],
      [
        "az",
        "o"
      ],
      [
        "b",
        "em"
      ],
      [
        "b",
        "est"
      ],
      [
        "b",
        "g"
      ],
      [
        "b",
        "m"
      ],
      [
        "b",
        "n"
      ],
      [
        "bal",
        "on"
      ],
      [
        "barcel",
        "ona"
      ],
      [
        "be",
        "ar"
      ],
      [
        "be",
        "go"
      ],
      [
        "ben",
        "i"
      ],
      [
        "ber",
        "ry"
      ],
      [
        "bi",
        "cho"
      ],
      [
        "bi",
        "za"
      ],
      [
        "bil",
        "al"
      ],
      [
        "br",
        "ero"
      ],
      [
        "c",
        "ab"
      ],
      [
        "c",
        "ec"
      ],
      [
        "c",
        "ent"
      ],
      [
        "c",
        "ess"
      ],
      [
        "c",
        "li"
      ],
      [
        "cam",
        "aron"
      ],
      [
        "car",
        "olina"
      ],
      [
        "car",
        "ped"
      ],
      [
        "ch",
        "arm"
      ],
      [
        "ch",
        "at"
      ],
      [
        "ch",
        "en"
      ],
      [
        "ch",
        "in"
      ],
      [
        "ch",
        "ing"
      ],
      [
        "ch",
        "ris"
      ],
      [
        "chic",
        "k"
      ],
      [
        "chiqu",
        "ita"
      ],
      [
        "chocol",
        "ate"
      ],
      [
        "chris",
        "t"
      ],
      [
        "ci",
        "ento"
      ],
      [
        "col",
        "d"
      ],
      [
        "con",
        "lo"
      ],
      [
        "con",
        "t"
      ],
      [
        "cone",
        "j"
      ],
      [
        "conlo",
        "quet"
      ],
      [
        "conloquet",
        "ed"
      ],
      [
        "cor",
        "azon"
      ],
      [
        "cou",
        "cou"
      ],
      [
        "ct",
        "vs"
      ],
      [
        "d",
        "g"
      ],
      [
        "d",
        "h"
      ],
      [
        "d",
        "iv"
      ],
      [
        "d",
        "uel"
      ],
      [
        "d",
        "ur"
      ],
      [
        "dar",
        "es"
      ],
      [
        "dav",
        "id"
      ],
      [
        "de",
        "z"
      ],
      [
        "do",
        "g"
      ],
      [
        "do",
        "w"
      ],
      [
        "dom",
        "in"
      ],
      [
        "dra",
        "gon"
      ],
      [
        "dul",
        "ce"
      ],
      [
        "dy",
        "lan"
      ],
      [
        "e",
        "."
      ],
      [
        "e",
        "15"
      ],
      [
        "ec",
        "o"
      ],
      [
        "ec",
        "or"
      ],
      [
        "ef",
        "en"
      ],
      [
        "efen",
        "ix"
      ],
      [
        "eg",
        "a"
      ],
      [
        "el",
        "da"
      ],
      [
        "el",
        "ita"
      ],
      [
        "el",
        "mejor"
      ],
      [
        "el",
        "mo"
      ],
      [
        "el",
        "os"
      ],
      [
        "ell",
        "ano"
      ],
      [
        "em",
        "ente"
      ],
      [
        "em",
        "in"
      ],
      [
        "emil",
        "io"
      ],
      [
        "emin",
        "is"
      ],
      [
        "en",
        "ay"
      ],
      [
        "en",
        "ez"
      ],
      [
        "en",
        "se"
      ],
      [
        "ent",
        "os"
      ],
      [
        "er",
        "r"
      ],
      [
        "err",
        "ero"
      ],
      [
        "es",
        "corpion"
      ],
      [
        "es",
        "en"
      ],
      [
        "es",
        "te"
      ],
      [
        "et",
        "am"
      ],
      [
        "et",
        "i"
      ],
      [
        "f",
        "abi"
      ],
      [
        "f",
        "ac"
      ],
      [
        "f",
        "ant"
      ],
      [
        "f",
        "iel"
      ],
      [
        "f",
        "ir"
      ],
      [
        "f",
        "la"
      ],
      [
        "f",
        "low"
      ],
      [
        "f",
        "ot"
      ],
      [
        "f",
        "ut"
      ],
      [
        "fe",
        "brero"
      ],
      [
        "fel",
        "i"
      ],
      [
        "feli",
        "pe"
      ],
      [
        "fern",
        "anda"
      ],
      [
        "fid",
        "el"
      ],
      [
        "fideliDAD",
        "03"
      ],
      [
        "fon",
        "sec"
      ],
      [
        "fonsec",
        "a"
      ],
      [
        "for",
        "ever"
      ],
      [
        "franc",
        "is"
      ],
      [
        "fu",
        "entes"
      ],
      [
        "g",
        "io"
      ],
      [
        "g",
        "lor"
      ],
      [
        "g",
        "ol"
      ],
      [
        "g",
        "s"
      ],
      [
        "g",
        "t"
      ],
      [
        "g",
        "ur"
      ],
      [
        "gab",
        "y"
      ],
      [
        "ger",
        "ard"
      ],
      [
        "gon",
        "z"
      ],
      [
        "gu",
        "apo"
      ],
      [
        "gu",
        "e"
      ],
      [
        "gu",
        "errero"
      ],
      [
        "gu",
        "ez"
      ],
      [
        "h",
        "as"
      ],
      [
        "h",
        "d"
      ],
      [
        "h",
        "en"
      ],
      [
        "h",
        "g"
      ],
      [
        "h",
        "oc"
      ],
      [
        "h",
        "ol"
      ],
      [
        "her",
        "man"
      ],
      [
        "hor",
        "mig"
      ],
      [
        "hotmail",
        ".com"
      ],
      [
        "i",
        "ch"
      ],
      [
        "i",
        "en"
      ],
      [
        "i",
        "que"
      ],
      [
        "i",
        "ro"
      ],
      [
        "i",
        "u"
      ],
      [
        "i",
        "y"
      ],
      [
        "ian",
        "o"
      ],
      [
        "ic",
        "as"
      ],
      [
        "ic",
        "idad"
      ],
      [
        "ic",
        "l"
      ],
      [
        "ic",
        "s"
      ],
      [
        "id",
        "ane"
      ],
      [
        "id",
        "er"
      ],
      [
        "id",
        "os"
      ],
      [
        "ig",
        "h"
      ],
      [
        "ig",
        "n"
      ],
      [
        "ig",
        "o"
      ],
      [
        "il",
        "e"
      ],
      [
        "ill",
        "on"
      ],
      [
        "ilov",
        "ed"
      ],
      [
        "ilove",
        "u"
      ],
      [
        "ilove",
        "you"
      ],
      [
        "im",
        "i"
      ],
      [
        "im",
        "ir"
      ],
      [
        "im",
        "pl"
      ],
      [
        "impl",
        "emente"
      ],
      [
        "ing",
        "er"
      ],
      [
        "is",
        "d"
      ],
      [
        "is",
        "ima"
      ],
      [
        "is",
        "mo"
      ],
      [
        "is",
        "sa"
      ],
      [
        "istr",
        "acion"
      ],
      [
        "it",
        "ar"
      ],
      [
        "it",
        "e"
      ],
      [
        "it",
        "y"
      ],
      [
        "it",
        "z"
      ],
      [
        "ita",
        "1"
      ],
      [
        "ita",
        "27"
      ],
      [
        "iv",
        "ida"
      ],
      [
        "iv",
        "onne"
      ],
      [
        "iv",
        "oy"
      ],
      [
        "ivoy",
        "conloqueted"
      ],
      [
        "iz",
        "u"
      ],
      [
        "j",
        "i"
      ],
      [
        "jam",
        "in"
      ],
      [
        "jim",
        "enez"
      ],
      [
        "jo",
        "an"
      ],
      [
        "joh",
        "n"
      ],
      [
        "jos",
        "el"
      ],
      [
        "jt",
        "m"
      ],
      [
        "ju",
        "ana"
      ],
      [
        "ju",
        "d"
      ],
      [
        "jun",
        "io"
      ],
      [
        "k",
        "ay"
      ],
      [
        "k",
        "er"
      ],
      [
        "k",
        "es"
      ],
      [
        "k",
        "u"
      ],
      [
        "kar",
        "ina"
      ],
      [
        "kar",
        "l"
      ],
      [
        "kar",
        "r"
      ],
      [
        "l",
        "al"
      ],
      [
        "l",
        "ar"
      ],
      [
        "l",
        "c"
      ],
      [
        "l",
        "d"
      ],
      [
        "l",
        "is"
      ],
      [
        "l",
        "r"
      ],
      [
        "l",
        "un"
      ],
      [
        "l",
        "z"
      ],
      [
        "la",
        "u"
      ],
      [
        "li",
        "bert"
      ],
      [
        "li",
        "p"
      ],
      [
        "lil",
        "i"
      ],
      [
        "lin",
        "da"
      ],
      [
        "lov",
        "es"
      ],
      [
        "lu",
        "ci"
      ],
      [
        "lu",
        "p"
      ],
      [
        "lu",
        "z"
      ],
      [
        "m",
        "55"
      ],
      [
        "m",
        "c"
      ],
      [
        "m",
        "h"
      ],
      [
        "m",
        "ol"
      ],
      [
        "m",
        "r"
      ],
      [
        "m",
        "un"
      ],
      [
        "m",
        "us"
      ],
      [
        "m",
        "v"
      ],
      [
        "ma",
        "qu"
      ],
      [
        "maid",
        "en"
      ],
      [
        "man",
        "ia"
      ],
      [
        "mar",
        "c"
      ],
      [
        "mar",
        "i"
      ],
      [
        "mar",
        "ian"
      ],
      [
        "mar",
        "ip"
      ],
      [
        "maur",
        "icio"
      ],
      [
        "mi",
        "chel"
      ],
      [
        "mil",
        "ag"
      ],
      [
        "mon",
        "t"
      ],
      [
        "mor",
        "enita"
      ],
      [
        "n",
        "aj"
      ],
      [
        "n",
        "ess"
      ],
      [
        "n",
        "um"
      ],
      [
        "n",
        "un"
      ],
      [
        "n",
        "ur"
      ],
      [
        "nam",
        "id"
      ],
      [
        "nar",
        "u"
      ],
      [
        "naru",
        "to"
      ],
      [
        "nd",
        "r"
      ],
      [
        "nic",
        "e"
      ],
      [
        "o",
        "de"
      ],
      [
        "oct",
        "av"
      ],
      [
        "od",
        "io"
      ],
      [
        "od",
        "y"
      ],
      [
        "ol",
        "v"
      ],
      [
        "olo",
        "ga"
      ],
      [
        "om",
        "or"
      ],
      [
        "om",
        "u"
      ],
      [
        "op",
        "ar"
      ],
      [
        "or",
        "el"
      ],
      [
        "ord",
        "s"
      ],
      [
        "orn",
        "io"
      ],
      [
        "os",
        "al"
      ],
      [
        "os",
        "ito"
      ],
      [
        "os",
        "t"
      ],
      [
        "ot",
        "u"
      ],
      [
        "ov",
        "a"
      ],
      [
        "ov",
        "i"
      ],
      [
        "p",
        "as"
      ],
      [
        "p",
        "ay"
      ],
      [
        "p",
        "es"
      ],
      [
        "p",
        "ie"
      ],
      [
        "p",
        "iel"
      ],
      [
        "p",
        "lay"
      ],
      [
        "p",
        "le"
      ],
      [
        "p",
        "m"
      ],
      [
        "p",
        "ou"
      ],
      [
        "p",
        "py"
      ],
      [
        "pand",
        "ol"
      ],
      [
        "pat",
        "ric"
      ],
      [
        "pe",
        "p"
      ],
      [
        "pil",
        "ar"
      ],
      [
        "pl",
        "at"
      ],
      [
        "pr",
        "ad"
      ],
      [
        "pr",
        "im"
      ],
      [
        "pre",
        "ci"
      ],
      [
        "q",
        "p"
      ],
      [
        "qu",
        "er"
      ],
      [
        "qu",
        "ier"
      ],
      [
        "qu",
        "im"
      ],
      [
        "r",
        "ar"
      ],
      [
        "r",
        "era"
      ],
      [
        "r",
        "r"
      ],
      [
        "r",
        "ul"
      ],
      [
        "ras",
        "ta"
      ],
      [
        "re",
        "c"
      ],
      [
        "re",
        "e"
      ],
      [
        "ret",
        "o"
      ],
      [
        "ro",
        "b"
      ],
      [
        "s",
        "and"
      ],
      [
        "s",
        "implemente"
      ],
      [
        "s",
        "ivoyconloqueted"
      ],
      [
        "s",
        "k"
      ],
      [
        "s",
        "tr"
      ],
      [
        "s",
        "we"
      ],
      [
        "s",
        "y"
      ],
      [
        "sa",
        "kur"
      ],
      [
        "sag",
        "itario"
      ],
      [
        "sant",
        "os"
      ],
      [
        "se",
        "v"
      ],
      [
        "se",
        "xo"
      ],
      [
        "sep",
        "ti"
      ],
      [
        "septi",
        "embre"
      ],
      [
        "so",
        "ul"
      ],
      [
        "super",
        "man"
      ],
      [
        "swe",
        "et"
      ],
      [
        "t",
        "ad"
      ],
      [
        "t",
        "ap"
      ],
      [
        "t",
        "qm"
      ],
      [
        "t",
        "ri"
      ],
      [
        "t",
        "ul"
      ],
      [
        "t",
        "z"
      ],
      [
        "te",
        "kiero"
      ],
      [
        "tel",
        "ef"
      ],
      [
        "ter",
        "io"
      ],
      [
        "th",
        "eb"
      ],
      [
        "ti",
        "er"
      ],
      [
        "ton",
        "to"
      ],
      [
        "u",
        "eva"
      ],
      [
        "u",
        "ita"
      ],
      [
        "u",
        "ka"
      ],
      [
        "un",
        "k"
      ],
      [
        "us",
        "a"
      ],
      [
        "us",
        "ic"
      ],
      [
        "v",
        "el"
      ],
      [
        "v",
        "ia"
      ],
      [
        "v",
        "ic"
      ],
      [
        "val",
        "ent"
      ],
      [
        "viv",
        "a"
      ],
      [
        "w",
        "ill"
      ],
      [
        "w",
        "n"
      ],
      [
        "ww",
        "w"
      ],
      [
        "x",
        "y"
      ],
      [
        "y",
        "ara"
      ],
      [
        "y",
        "m"
      ],
      [
        "y",
        "u"
      ],
      [
        "yos",
        "oy"
      ],
      [
        "z",
        "ar"
      ],
      [
        "\"",
        "mis"
      ],
      [
        "$",
        "_"
      ],
      [
        "&",
        "1980"
      ],
      [
        "**",
        "*"
      ],
      [
        "+",
        "-"
      ],
      [
        "++",
        "+"
      ],
      [
        ",.",
        ",."
      ],
      [
        ",bla",
        ",bla"
      ],
      [
        "-",
        "123"
      ],
      [
        "-",
        "2"
      ],
      [
        "-",
        "21"
      ],
      [
        "-",
        "7"
      ],
      [
        "-",
        "F"
      ],
      [
        "-",
        "J"
      ],
      [
        "-",
        "N"
      ],
      [
        "-",
        "z"
      ],
      [
        "-F",
        "eb"
      ],
      [
        "-Feb",
        "-"
      ],
      [
        "-N",
        "ov"
      ],
      [
        "-Nov",
        "-"
      ],
      [
        ".",
        "0"
      ],
      [
        ".",
        "03"
      ],
      [
        ".",
        "2008"
      ],
      [
        ".",
        "O"
      ],
      [
        ".",
        "madrid"
      ],
      [
        ".",
        "o."
      ],
      [
        ".",
        "z"
      ],
      [
        "/",
        "04"
      ],
      [
        "/",
        "05/"
      ],
      [
        "/",
        "08"
      ],
      [
        "/",
        "09"
      ],
      [
        "/",
        "84"
      ],
      [
        "//",
        "54"
      ],
      [
        "//54",
        "//"
      ],
      [
        "/15",
        "/"
      ],
      [
        "0",
        "15"
      ],
      [
        "0",
        "18"
      ],
      [
        "0",
        "774"
      ],
      [
        "0",
        "iv"
      ],
      [
        "0",
        "n"
      ],
      [
        "00",
        "07"
      ],
      [
        "0000",
        "ru"
      ],
      [
        "0000ru",
        "b"
      ],
      [
        "010",
        "2"
      ],
      [
        "010",
        "6"
      ],
      [
        "0102",
        "2005"
      ],
      [
        "012369",
        "87"
      ],
      [
        "01236987",
        "45"
      ],
      [
        "0123698745",
        "angel"
      ],
      [
        "017",
        "9"
      ],
      [
        "02",
        "13"
      ],
      [
        "02",
        "3"
      ],
      [
        "02",
        "83"
      ],
      [
        "02",
        "9"
      ],
      [
        "0219",
        "55"
      ],
      [
        "03",
        ".."
      ],
      [
        "03",
        "02"
      ],
      [
        "03",
        "06"
      ],
      [
        "03",
        "13"
      ],
      [
        "03",
        "23"
      ],
      [
        "03",
        "3"
      ],
      [
        "03",
        "64"
      ],
      [
        "03",
        "92"
      ],
      [
        "0392",
        "b"
      ],
      [
        "0392b",
        "8"
      ],
      [
        "04",
        "04"
      ],
      [
        "04",
        "17"
      ],
      [
        "04",
        "20"
      ],
      [
        "04",
        "29"
      ],
      [
        "04",
        "8"
      ],
      [
        "04",
        "90"
      ],
      [
        "05",
        "-"
      ],
      [
        "05",
        "11"
      ],
      [
        "05",
        "1970"
      ],
      [
        "05",
        "85"
      ],
      [
        "05",
        "9"
      ],
      [
        "06",
        "\""
      ],
      [
        "06",
        "."
      ],
      [
        "06",
        "09"
      ],
      [
        "06",
        "10"
      ],
      [
        "06",
        "2"
      ],
      [
        "06",
        "2001"
      ],
      [
        "06",
        "67"
      ],
      [
        "06",
        "7"
      ],
      [
        "07",
        "80"
      ],
      [
        "07",
        "93"
      ],
      [
        "07",
        "94"
      ],
      [
        "0707",
        "88"
      ],
      [
        "070788",
        "11"
      ],
      [
        "07078811",
        "amac"
      ],
      [
        "08",
        "03"
      ],
      [
        "08",
        "04"
      ],
      [
        "08",
        "3"
      ],
      [
        "09",
        "87654321"
      ],
      [
        "0iv",
        "ir"
      ],
      [
        "1",
        "r"
      ],
      [
        "1.",
        "44"
      ],
      [
        "1.44",
        "563"
      ],
      [
        "10",
        ".03"
      ],
      [
        "10",
        "16"
      ],
      [
        "10",
        "18"
      ],
      [
        "10",
        "20"
      ],
      [
        "10",
        "25"
      ],
      [
        "10",
        "84"
      ],
      [
        "10",
        "97"
      ],
      [
        "100",
        "2"
      ],
      [
        "100",
        "4"
      ],
      [
        "100",
        "5"
      ],
      [
        "11",
        "111"
      ],
      [
        "11",
        "5"
      ],
      [
        "11",
        "63"
      ],
      [
        "11",
        "65"
      ],
      [
        "11",
        "85"
      ],
      [
        "110",
        "2"
      ],
      [
        "110",
        "3"
      ],
      [
        "110",
        "9"
      ],
      [
        "1104",
        "73"
      ],
      [
        "112",
        "7"
      ],
      [
        "119",
        "3"
      ],
      [
        "12",
        "-"
      ],
      [
        "12",
        "05"
      ],
      [
        "12",
        "09"
      ],
      [
        "12",
        "22"
      ],
      [
        "12",
        "60"
      ],
      [
        "12",
        "89"
      ],
      [
        "123",
        "1"
      ],
      [
        "1234",
        "5"
      ],
      [
        "124",
        "6"
      ],
      [
        "13",
        "0"
      ],
      [
        "13",
        "06"
      ],
      [
        "13",
        "08"
      ],
      [
        "13",
        "25"
      ],
      [
        "13",
        "48"
      ],
      [
        "13",
        "ni"
      ],
      [
        "1377",
        "13"
      ],
      [
        "13ni",
        "che"
      ],
      [
        "13niche",
        "13"
      ],
      [
        "14",
        "02"
      ],
      [
        "14",
        "jer"
      ],
      [
        "15",
        "00"
      ],
      [
        "15",
        "08"
      ],
      [
        "15",
        "18"
      ],
      [
        "15",
        "20"
      ],
      [
        "15",
        "28"
      ],
      [
        "15",
        "5"
      ],
      [
        "15",
        "65"
      ],
      [
        "15",
        "93"
      ],
      [
        "15",
        "ami"
      ],
      [
        "15ami",
        "1"
      ],
      [
        "16",
        "01"
      ],
      [
        "16",
        "06"
      ],
      [
        "16",
        "2"
      ],
      [
        "16",
        "78"
      ],
      [
        "17",
        "11"
      ],
      [
        "17",
        "22"
      ],
      [
        "17",
        "6"
      ],
      [
        "17",
        "88"
      ],
      [
        "173",
        "173"
      ],
      [
        "18",
        "03"
      ],
      [
        "18",
        "10"
      ],
      [
        "18",
        "18"
      ],
      [
        "18",
        "469"
      ],
      [
        "18",
        "6"
      ],
      [
        "18",
        "7"
      ],
      [
        "18",
        "9"
      ],
      [
        "19",
        "25"
      ],
      [
        "19",
        "34"
      ],
      [
        "19",
        "39"
      ],
      [
        "19",
        "4"
      ],
      [
        "19",
        "40"
      ],
      [
        "19",
        "50"
      ],
      [
        "19",
        "57"
      ],
      [
        "19",
        "59"
      ],
      [
        "19",
        "6"
      ],
      [
        "19",
        "60"
      ],
      [
        "19",
        "61"
      ],
      [
        "19",
        "62"
      ],
      [
        "19",
        "65"
      ],
      [
        "19",
        "68"
      ],
      [
        "1984",
        "19"
      ],
      [
        "199",
        "99"
      ],
      [
        "2",
        "09"
      ],
      [
        "2",
        "56"
      ],
      [
        "2",
        "77"
      ],
      [
        "2",
        "E+11"
      ],
      [
        "2",
        "i"
      ],
      [
        "2",
        "l"
      ],
      [
        "2",
        "s"
      ],
      [
        "2.",
        "64"
      ],
      [
        "2.",
        "rob"
      ],
      [
        "2.7",
        "1983"
      ],
      [
        "2.rob",
        "le"
      ],
      [
        "2006",
        "07"
      ],
      [
        "21",
        "E+11"
      ],
      [
        "210",
        "4"
      ],
      [
        "22",
        "021955"
      ],
      [
        "22",
        "12"
      ],
      [
        "22",
        "22"
      ],
      [
        "22",
        "3"
      ],
      [
        "22",
        "5"
      ],
      [
        "22",
        "73"
      ],
      [
        "23",
        "09"
      ],
      [
        "23",
        "10"
      ],
      [
        "23",
        "112"
      ],
      [
        "23",
        "13"
      ],
      [
        "23",
        "25"
      ],
      [
        "23",
        "3"
      ],
      [
        "23",
        "44"
      ],
      [
        "23",
        "45"
      ],
      [
        "23",
        "69"
      ],
      [
        "23",
        "87"
      ],
      [
        "23",
        "E+14"
      ],
      [
        "23",
        "b"
      ],
      [
        "24",
        "02"
      ],
      [
        "24",
        "04"
      ],
      [
        "24",
        "2"
      ],
      [
        "24",
        "4"
      ],
      [
        "24",
        "56"
      ],
      [
        "24",
        "6"
      ],
      [
        "24",
        "69"
      ],
      [
        "24",
        "8"
      ],
      [
        "24",
        "878"
      ],
      [
        "24",
        "93"
      ],
      [
        "24",
        "@"
      ],
      [
        "25",
        "02"
      ],
      [
        "25",
        "10"
      ],
      [
        "25",
        "4"
      ],
      [
        "25",
        "83"
      ],
      [
        "26",
        "06"
      ],
      [
        "26",
        "07"
      ],
      [
        "26",
        "12"
      ],
      [
        "26",
        "26"
      ],
      [
        "26",
        "27"
      ],
      [
        "26",
        "28"
      ],
      [
        "26",
        "3"
      ],
      [
        "26",
        "5"
      ],
      [
        "26",
        "de"
      ],
      [
        "26de",
        "octubre"
      ],
      [
        "27",
        "20"
      ],
      [
        "27",
        "23"
      ],
      [
        "27",
        "3"
      ],
      [
        "27",
        "49"
      ],
      [
        "27",
        "86"
      ],
      [
        "27",
        "93"
      ],
      [
        "28",
        "0"
      ],
      [
        "28",
        "10"
      ],
      [
        "28",
        "7"
      ],
      [
        "28",
        "8"
      ],
      [
        "29",
        "02"
      ],
      [
        "29",
        "03"
      ],
      [
        "29",
        "08"
      ],
      [
        "2909",
        "87"
      ],
      [
        "293",
        "64"
      ],
      [
        "3",
        "08"
      ],
      [
        "3",
        "112"
      ],
      [
        "3",
        "13"
      ],
      [
        "3",
        "18"
      ],
      [
        "3",
        "44"
      ],
      [
        "3",
        "50"
      ],
      [
        "3",
        "53"
      ],
      [
        "3",
        "54"
      ],
      [
        "3",
        "e"
      ],
      [
        "3",
        "mar"
      ],
      [
        "3",
        "n"
      ],
      [
        "300",
        "0"
      ],
      [
        "300",
        "5"
      ],
      [
        "300",
        "9"
      ],
      [
        "314",
        "8"
      ],
      [
        "325",
        "9"
      ],
      [
        "33",
        "2"
      ],
      [
        "33",
        "4"
      ],
      [
        "33",
        "7"
      ],
      [
        "33",
        "8"
      ],
      [
        "34",
        "9"
      ],
      [
        "35",
        "29"
      ],
      [
        "35",
        "89"
      ],
      [
        "36",
        "27"
      ],
      [
        "38",
        "53"
      ],
      [
        "3e",
        "4r"
      ],
      [
        "4",
        "02"
      ],
      [
        "4",
        "07"
      ],
      [
        "4",
        "07078811amac"
      ],
      [
        "4",
        "12"
      ],
      [
        "4",
        "14"
      ],
      [
        "4",
        "27"
      ],
      [
        "4",
        "64"
      ],
      [
        "4",
        "89"
      ],
      [
        "4",
        "_"
      ],
      [
        "4",
        "e"
      ],
      [
        "4",
        "mi"
      ],
      [
        "44",
        "55"
      ],
      [
        "44",
        "9"
      ],
      [
        "449",
        "107"
      ],
      [
        "48",
        "00"
      ],
      [
        "486",
        "r"
      ],
      [
        "5",
        "000"
      ],
      [
        "5",
        "05"
      ],
      [
        "5",
        "21"
      ],
      [
        "5",
        "24"
      ],
      [
        "5",
        "56"
      ],
      [
        "5",
        "up"
      ],
      [
        "53",
        "5"
      ],
      [
        "53",
        "70"
      ],
      [
        "54",
        "26"
      ],
      [
        "54",
        "ndr"
      ],
      [
        "54ndr",
        "486r"
      ],
      [
        "55",
        "13"
      ],
      [
        "55",
        "5"
      ],
      [
        "559",
        "83"
      ],
      [
        "56",
        "4"
      ],
      [
        "56",
        "82"
      ],
      [
        "56",
        "94"
      ],
      [
        "57",
        "04"
      ],
      [
        "57",
        "6"
      ],
      [
        "57",
        "99"
      ],
      [
        "58",
        "06"
      ],
      [
        "59",
        "83"
      ],
      [
        "5983",
        "99"
      ],
      [
        "5up",
        "$"
      ],
      [
        "6",
        "."
      ],
      [
        "6",
        "12"
      ],
      [
        "6",
        "16"
      ],
      [
        "6",
        "26"
      ],
      [
        "6",
        "56"
      ],
      [
        "6",
        "pu"
      ],
      [
        "60",
        "13"
      ],
      [
        "63",
        "69"
      ],
      [
        "63",
        "9"
      ],
      [
        "65",
        "12"
      ],
      [
        "66",
        "3"
      ],
      [
        "66",
        "66"
      ],
      [
        "66",
        "84"
      ],
      [
        "67",
        "8"
      ],
      [
        "67",
        "89"
      ],
      [
        "6789",
        "22"
      ],
      [
        "68",
        "16"
      ],
      [
        "69",
        "3"
      ],
      [
        "6pu",
        "3"
      ],
      [
        "7",
        "08"
      ],
      [
        "7",
        "1"
      ],
      [
        "7",
        "67"
      ],
      [
        "7",
        "86"
      ],
      [
        "7",
        "99"
      ],
      [
        "7",
        "bi"
      ],
      [
        "72",
        "13"
      ],
      [
        "73",
        "1"
      ],
      [
        "74",
        "0"
      ],
      [
        "74",
        "15ami1"
      ],
      [
        "77",
        "5"
      ],
      [
        "77",
        "77"
      ],
      [
        "77",
        "80"
      ],
      [
        "77",
        "86"
      ],
      [
        "79",
        "13"
      ],
      [
        "79",
        "6"
      ],
      [
        "79",
        "7"
      ],
      [
        "7bi",
        "4mi"
      ],
      [
        "8",
        "."
      ],
      [
        "8",
        "13"
      ],
      [
        "8",
        "14"
      ],
      [
        "8",
        "27"
      ],
      [
        "8",
        "E+11"
      ],
      [
        "83",
        "22"
      ],
      [
        "83",
        "5"
      ],
      [
        "83",
        "9"
      ],
      [
        "84",
        "44"
      ],
      [
        "84",
        "5"
      ],
      [
        "84",
        "7"
      ],
      [
        "84",
        "85"
      ],
      [
        "84",
        "y"
      ],
      [
        "85",
        "9"
      ],
      [
        "88",
        "4"
      ],
      [
        "88",
        "47"
      ],
      [
        "8888",
        "8888"
      ],
      [
        "89",
        "*"
      ],
      [
        "89",
        "13"
      ],
      [
        "89",
        "25"
      ],
      [
        "89",
        "8"
      ],
      [
        "9",
        "63"
      ],
      [
        "9",
        "75"
      ],
      [
        "9",
        "87"
      ],
      [
        "9",
        "e"
      ],
      [
        "9",
        "ja"
      ],
      [
        "917",
        "26"
      ],
      [
        "94",
        "5up$"
      ],
      [
        "94",
        "6"
      ],
      [
        "957",
        "0794"
      ],
      [
        "96",
        "09"
      ],
      [
        "977",
        "8913"
      ],
      [
        "99",
        "0"
      ],
      [
        "9ja",
        "6pu3"
      ],
      [
        "=C3=A",
        "0"
      ],
      [
        "=C3=A",
        "7"
      ],
      [
        "=C3=A",
        "9"
      ],
      [
        "@",
        "hotmail.com"
      ],
      [
        "@",
        "l"
      ],
      [
        "@",
        "m"
      ],
      [
        "@",
        "no"
      ],
      [
        "@",
        "tag"
      ],
      [
        "@@",
        "@@"
      ],
      [
        "@_",
        "32"
      ],
      [
        "@no",
        "chi"
      ],
      [
        "@nochi",
        "pa"
      ],
      [
        "A",
        "CH"
      ],
      [
        "A",
        "D"
      ],
      [
        "A",
        "P"
      ],
      [
        "A",
        "TO"
      ],
      [
        "A",
        "cu"
      ],
      [
        "A",
        "t"
      ],
      [
        "AC",
        "U"
      ],
      [
        "AL",
        "0"
      ],
      [
        "AL",
        "EX"
      ],
      [
        "AL",
        "F"
      ],
      [
        "AL",
        "IN"
      ],
      [
        "ALF",
        "UH"
      ],
      [
        "ALFUH",
        "R"
      ],
      [
        "ALFUHR",
        "ER"
      ],
      [
        "AN",
        "TO"
      ],
      [
        "AND",
        "RE"
      ],
      [
        "ANDRE",
        "A"
      ],
      [
        "ANG",
        "ELI"
      ],
      [
        "ANTO",
        "NIO"
      ],
      [
        "AR",
        "IO"
      ],
      [
        "AR",
        "MIN"
      ],
      [
        "AS",
        "2006"
      ],
      [
        "AVI",
        "ER"
      ],
      [
        "Acu",
        "ario"
      ],
      [
        "B",
        "B"
      ],
      [
        "B",
        "ER"
      ],
      [
        "B",
        "ES"
      ],
      [
        "B",
        "RE"
      ],
      [
        "BE",
        "26"
      ],
      [
        "BE",
        "ME"
      ],
      [
        "BE",
        "T"
      ],
      [
        "BI",
        "EN"
      ],
      [
        "Bet",
        "o"
      ],
      [
        "C",
        "E"
      ],
      [
        "C",
        "I"
      ],
      [
        "C",
        "IL"
      ],
      [
        "C",
        "IO"
      ],
      [
        "CH",
        "AR"
      ],
      [
        "CHIL",
        "O"
      ],
      [
        "CO",
        "@_32"
      ],
      [
        "CO",
        "R"
      ],
      [
        "CO",
        "S"
      ],
      [
        "CO",
        "Y"
      ],
      [
        "D",
        "EN"
      ],
      [
        "D",
        "F"
      ],
      [
        "D",
        "R"
      ],
      [
        "D",
        "U"
      ],
      [
        "D",
        "e"
      ],
      [
        "D",
        "ream"
      ],
      [
        "D",
        "ul"
      ],
      [
        "DA",
        "ALFUHRER"
      ],
      [
        "DE",
        "DE"
      ],
      [
        "DEN",
        "OV"
      ],
      [
        "DO",
        "R"
      ],
      [
        "Dream",
        "fal"
      ],
      [
        "Dreamfal",
        "1"
      ],
      [
        "Dul",
        "es"
      ],
      [
        "E",
        "fron"
      ],
      [
        "E",
        "l"
      ],
      [
        "EL",
        "IN"
      ],
      [
        "EN",
        "CIA"
      ],
      [
        "EN",
        "I"
      ],
      [
        "ERN",
        "O"
      ],
      [
        "ES",
        "TA"
      ],
      [
        "ESTA",
        "M"
      ],
      [
        "ESTAM",
        "BIEN"
      ],
      [
        "F",
        "ELI"
      ],
      [
        "F",
        "L"
      ],
      [
        "F",
        "LO"
      ],
      [
        "F",
        "R"
      ],
      [
        "F",
        "la"
      ],
      [
        "FL",
        "IA"
      ],
      [
        "FLIA",
        "7415ami1"
      ],
      [
        "G",
        "A"
      ],
      [
        "G",
        "AS"
      ],
      [
        "G",
        "AY"
      ],
      [
        "G",
        "E"
      ],
      [
        "GI",
        "RL"
      ],
      [
        "H",
        "ER"
      ],
      [
        "H",
        "ammar"
      ],
      [
        "HAZ",
        "EL"
      ],
      [
        "Hammar",
        "by"
      ],
      [
        "I",
        "I"
      ],
      [
        "I",
        "T"
      ],
      [
        "IA",
        "2008"
      ],
      [
        "IEM",
        "BRE"
      ],
      [
        "IL",
        "LO"
      ],
      [
        "IS",
        "TO"
      ],
      [
        "IT",
        "AR"
      ],
      [
        "J",
        "A"
      ],
      [
        "J",
        "AVIER"
      ],
      [
        "J",
        "E"
      ],
      [
        "J",
        "U"
      ],
      [
        "K",
        "E"
      ],
      [
        "K",
        "I"
      ],
      [
        "K",
        "a"
      ],
      [
        "L",
        "AL0"
      ],
      [
        "L",
        "ARG"
      ],
      [
        "LE",
        "O"
      ],
      [
        "LU",
        "CIA"
      ],
      [
        "M",
        "F"
      ],
      [
        "M",
        "IS"
      ],
      [
        "M",
        "a"
      ],
      [
        "M",
        "ar"
      ],
      [
        "M",
        "el"
      ],
      [
        "M",
        "v"
      ],
      [
        "MA",
        "ti"
      ],
      [
        "MA16",
        "RO26"
      ],
      [
        "MAti",
        "CO@_32"
      ],
      [
        "MI",
        "EN"
      ],
      [
        "MO",
        "N"
      ],
      [
        "MON",
        "T"
      ],
      [
        "MONT",
        "RE"
      ],
      [
        "N",
        "C"
      ],
      [
        "N",
        "RL"
      ],
      [
        "NA",
        "M"
      ],
      [
        "NRL",
        "290987"
      ],
      [
        "O",
        "U"
      ],
      [
        "P",
        "P"
      ],
      [
        "P",
        "U"
      ],
      [
        "PAL",
        "ENCIA"
      ],
      [
        "PRINCES",
        "A"
      ],
      [
        "Q",
        "MF"
      ],
      [
        "QU",
        "E"
      ],
      [
        "R",
        "o"
      ],
      [
        "S",
        "I"
      ],
      [
        "S",
        "IL"
      ],
      [
        "S",
        "U"
      ],
      [
        "SO",
        "Y"
      ],
      [
        "T",
        "ER"
      ],
      [
        "T",
        "IA"
      ],
      [
        "T",
        "Y"
      ],
      [
        "T",
        "i"
      ],
      [
        "TE",
        "QUIERO"
      ],
      [
        "U",
        "L"
      ],
      [
        "U",
        "RI"
      ],
      [
        "V",
        "ER"
      ],
      [
        "V",
        "IL"
      ],
      [
        "V",
        "ale"
      ],
      [
        "Y",
        "T"
      ],
      [
        "Z",
        "Z"
      ],
      [
        "Z",
        "ac"
      ],
      [
        "Zac",
        "Efron"
      ],
      [
        "\\'\\'",
        "\\'"
      ],
      [
        "_",
        "14"
      ],
      [
        "_",
        "4"
      ],
      [
        "_",
        "7"
      ],
      [
        "_",
        "eiser"
      ],
      [
        "_y_",
        "nanc"
      ],
      [
        "_y_nanc",
        "y_"
      ],
      [
        "_y_nancy_",
        "102"
      ],
      [
        "a",
        "0"
      ],
      [
        "a",
        "123"
      ],
      [
        "a",
        "18"
      ],
      [
        "a",
        "2007"
      ],
      [
        "a",
        "37"
      ],
      [
        "a",
        "ar"
      ],
      [
        "a",
        "at"
      ],
      [
        "a",
        "e"
      ],
      [
        "a",
        "er"
      ],
      [
        "a",
        "f"
      ],
      [
        "a",
        "ina"
      ],
      [
        "a",
        "itor"
      ],
      [
        "a",
        "ust"
      ],
      [
        "ab",
        "c"
      ],
      [
        "ab",
        "d"
      ],
      [
        "ab",
        "lan"
      ],
      [
        "ab",
        "le"
      ],
      [
        "ab",
        "og"
      ],
      [
        "ab",
        "or"
      ],
      [
        "ab",
        "u"
      ],
      [
        "abc",
        "d"
      ],
      [
        "abea",
        "ch"
      ],
      [
        "abil",
        "idad"
      ],
      [
        "ablan",
        "ca"
      ],
      [
        "abu",
        "co"
      ],
      [
        "abuco",
        "1956"
      ],
      [
        "ac",
        "ap"
      ],
      [
        "ac",
        "at"
      ],
      [
        "ac",
        "ola"
      ],
      [
        "acion",
        "es"
      ],
      [
        "ad",
        "ec"
      ],
      [
        "ad",
        "em"
      ],
      [
        "ad",
        "ey"
      ],
      [
        "ad",
        "ie"
      ],
      [
        "ad",
        "min"
      ],
      [
        "ad",
        "ol"
      ],
      [
        "ad",
        "ona"
      ],
      [
        "ad",
        "ra"
      ],
      [
        "ad",
        "re"
      ],
      [
        "ad",
        "u"
      ],
      [
        "adi",
        "ator"
      ],
      [
        "admin",
        "istracion"
      ],
      [
        "ag",
        "at"
      ],
      [
        "ag",
        "ay"
      ],
      [
        "ag",
        "na"
      ],
      [
        "ag",
        "ro"
      ],
      [
        "agay",
        "or"
      ],
      [
        "agu",
        "as"
      ],
      [
        "ah",
        "ara"
      ],
      [
        "ah",
        "id"
      ],
      [
        "ahr",
        "an"
      ],
      [
        "aj",
        "es"
      ],
      [
        "aj",
        "i"
      ],
      [
        "al",
        "ab"
      ],
      [
        "al",
        "be"
      ],
      [
        "al",
        "em"
      ],
      [
        "al",
        "ena"
      ],
      [
        "al",
        "est"
      ],
      [
        "al",
        "fon"
      ],
      [
        "al",
        "ia"
      ],
      [
        "al",
        "il"
      ],
      [
        "al",
        "inda"
      ],
      [
        "al",
        "iz"
      ],
      [
        "al",
        "ki"
      ],
      [
        "al",
        "le"
      ],
      [
        "al",
        "li"
      ],
      [
        "al",
        "ma"
      ],
      [
        "al",
        "mag"
      ],
      [
        "al",
        "to"
      ],
      [
        "al",
        "ys"
      ],
      [
        "albert",
        "ito"
      ],
      [
        "alc",
        "ant"
      ],
      [
        "alc",
        "atra"
      ],
      [
        "alcatra",
        "z"
      ],
      [
        "ald",
        "iv"
      ],
      [
        "ald",
        "u"
      ],
      [
        "alder",
        "ia"
      ],
      [
        "ale",
        "on"
      ],
      [
        "ale",
        "y"
      ],
      [
        "ale",
        "z"
      ],
      [
        "alejand",
        "ro"
      ],
      [
        "alen",
        "be"
      ],
      [
        "alex",
        "and"
      ],
      [
        "all",
        "ero"
      ],
      [
        "all",
        "ica"
      ],
      [
        "all",
        "y"
      ],
      [
        "alon",
        "ga"
      ],
      [
        "alu",
        "cia"
      ],
      [
        "alu",
        "k"
      ],
      [
        "aluk",
        "2"
      ],
      [
        "am",
        "ada"
      ],
      [
        "am",
        "adre"
      ],
      [
        "am",
        "aya"
      ],
      [
        "am",
        "ed"
      ],
      [
        "am",
        "el"
      ],
      [
        "am",
        "elo"
      ],
      [
        "am",
        "ino"
      ],
      [
        "am",
        "on"
      ],
      [
        "amar",
        "ia"
      ],
      [
        "amar",
        "ina"
      ],
      [
        "ame",
        "jor"
      ],
      [
        "amer",
        "88"
      ],
      [
        "amer",
        "ica"
      ],
      [
        "ami",
        "re"
      ],
      [
        "amil",
        "y"
      ],
      [
        "amire",
        "z"
      ],
      [
        "amo",
        "z"
      ],
      [
        "ams",
        "ter"
      ],
      [
        "ams",
        "ung"
      ],
      [
        "amster",
        "dam"
      ],
      [
        "an",
        "ada"
      ],
      [
        "an",
        "azer"
      ],
      [
        "an",
        "ic"
      ],
      [
        "an",
        "ie"
      ],
      [
        "an",
        "j"
      ],
      [
        "an",
        "on"
      ],
      [
        "an",
        "s"
      ],
      [
        "an",
        "to"
      ],
      [
        "an",
        "ueva"
      ],
      [
        "an",
        "y"
      ],
      [
        "an",
        "za"
      ],
      [
        "anazer",
        "im"
      ],
      [
        "anazerim",
        "ar"
      ],
      [
        "and",
        "alo"
      ],
      [
        "and",
        "e"
      ],
      [
        "and",
        "esa"
      ],
      [
[...]
