{
  "version": "1.0",
  "truncation": null,
  "padding": null,
  "added_tokens": [],
  "normalizer": null,
  "pre_tokenizer": null,
  "post_processor": null,
  "decoder": null,
  "model": {
    "type": "BPE",
    "dropout": null,
    "unk_token": "<unk>",
    "continuing_subword_prefix": null,
    "end_of_word_suffix": null,
    "fuse_unk": false,
    "byte_fallback": false,
    "ignore_merges": false,
    "vocab": {
      "<pad>": 0,
      "<unk>": 1,
      "<bos>": 2,
      "<eos>": 3,
      "!": 4,
      "!!": 5,
      "!!!": 6,
      "!@": 7,
      "!@#": 8,
      "#": 9,
      "##": 10,
      "$": 11,
      "$$": 12,
      "$%": 13,
      "%": 14,
      "&": 15,
      "(": 16,
      "()": 17,
      ")": 18,
      "*": 19,
      "**": 20,
      "***": 21,
      "+": 22,
      "++": 23,
      "-": 24,
      "--": 25,
      "-1": 26,
      "-A": 27,
      "-Apr": 28,
      "-Apr-": 29,
      "-J": 30,
      "-Nov": 31,
      "-Nov-": 32,
      "-S": 33,
      "-Sep-": 34,
      ".": 35,
      "..": 36,
      "...": 37,
      ".0": 38,
      ".1": 39,
      ".123": 40,
      ".com": 41,
      ".net": 42,
      ".ru": 43,
      "/": 44,
      "/*": 45,
      "//": 46,
      "0": 47,
      "00": 48,
      "000": 49,
      "0000": 50,
      "000000": 51,
      "000web": 52,
      "000webhost": 53,
      "001": 54,
      "002": 55,
      "003": 56,
      "004": 57,
      "005": 58,
      "006": 59,
      "007": 60,
      "008": 61,
      "009": 62,
      "01": 63,
      "010": 64,
      "0100": 65,
      "0101": 66,
      "0102": 67,
      "010203": 68,
      "0103": 69,
      "0104": 70,
      "0105": 71,
      "0106": 72,
      "0107": 73,
      "0108": 74,
      "0109": 75,
      "011": 76,
      "0110": 77,
      "0112": 78,
      "012": 79,
      "0123": 80,
      "013": 81,
      "014": 82,
      "015": 83,
      "016": 84,
      "017": 85,
      "018": 86,
      "019": 87,
      "02": 88,
      "020": 89,
      "0202": 90,
      "0203": 91,
      "0204": 92,
      "0205": 93,
      "0206": 94,
      "0207": 95,
      "0208": 96,
      "0209": 97,
      "021": 98,
      "0210": 99,
      "0211": 100,
      "0212": 101,
      "025": 102,
      "028": 103,
      "029": 104,
      "03": 105,
      "030": 106,
      "0303": 107,
      "0305": 108,
      "0306": 109,
      "0307": 110,
      "0309": 111,
      "031": 112,
      "0310": 113,
      "0311": 114,
      "0312": 115,
      "032": 116,
      "033": 117,
      "034": 118,
      "035": 119,
      "036": 120,
      "037": 121,
      "039": 122,
      "04": 123,
      "040": 124,
      "0403": 125,
      "0404": 126,
      "0405": 127,
      "0406": 128,
      "0408": 129,
      "0409": 130,
      "0410": 131,
      "0411": 132,
      "0412": 133,
      "043": 134,
      "044": 135,
      "046": 136,
      "048": 137,
      "05": 138,
      "050": 139,
      "0503": 140,
      "0504": 141,
      "0505": 142,
      "0506": 143,
      "0507": 144,
      "0508": 145,
      "0509": 146,
      "0510": 147,
      "0512": 148,
      "053": 149,
      "054": 150,
      "055": 151,
      "056": 152,
      "057": 153,
      "059": 154,
      "06": 155,
      "060": 156,
      "0603": 157,
      "0606": 158,
      "0608": 159,
      "0609": 160,
      "0612": 161,
      "063": 162,
      "064": 163,
      "065": 164,
      "067": 165,
      "068": 166,
      "069": 167,
      "07": 168,
      "070": 169,
      "0704": 170,
      "0705": 171,
      "0706": 172,
      "0707": 173,
      "0708": 174,
      "0709": 175,
      "0710": 176,
      "0712": 177,
      "073": 178,
      "074": 179,
      "075": 180,
      "076": 181,
      "077": 182,
      "079": 183,
      "08": 184,
      "080": 185,
      "0806": 186,
      "0808": 187,
      "0809": 188,
      "0810": 189,
      "0812": 190,
      "083": 191,
      "084": 192,
      "085": 193,
      "086": 194,
      "087": 195,
      "088": 196,
      "089": 197,
      "09": 198,
      "090": 199,
      "0904": 200,
      "0905": 201,
      "0908": 202,
      "0909": 203,
      "0911": 204,
      "0912": 205,
      "092": 206,
      "093": 207,
      "095": 208,
      "096": 209,
      "098": 210,
      "0987": 211,
      "099": 212,
      "0MQ": 213,
      "0Mw": 214,
      "0NA": 215,
      "0NQ": 216,
      "0Nw": 217,
      "0OA": 218,
      "0l": 219,
      "0m": 220,
      "0n": 221,
      "0r": 222,
      "0s": 223,
      "0t": 224,
      "0w": 225,
      "0x": 226,
      "1": 227,
      "10": 228,
      "100": 229,
      "100%": 230,
      "1000": 231,
      "1001": 232,
      "1002": 233,
      "1003": 234,
      "1004": 235,
      "1005": 236,
      "1006": 237,
      "1007": 238,
      "1008": 239,
      "1009": 240,
      "101": 241,
      "1010": 242,
      "1011": 243,
      "1012": 244,
      "1013": 245,
      "1015": 246,
      "102": 247,
      "1020": 248,
      "102030": 249,
      "1023": 250,
      "1024": 251,
      "1025": 252,
      "1029": 253,
      "103": 254,
      "104": 255,
      "105": 256,
      "106": 257,
      "107": 258,
      "108": 259,
      "109": 260,
      "11": 261,
      "110": 262,
      "1100": 263,
      "1101": 264,
      "1102": 265,
      "1103": 266,
      "1104": 267,
      "1105": 268,
      "1106": 269,
      "1107": 270,
      "1108": 271,
      "1109": 272,
      "111": 273,
      "1110": 274,
      "1111": 275,
      "111111": 276,
      "1112": 277,
      "112": 278,
      "1122": 279,
      "112233": 280,
      "1123": 281,
      "1125": 282,
      "113": 283,
      "114": 284,
      "115": 285,
      "116": 286,
      "117": 287,
      "118": 288,
      "119": 289,
      "12": 290,
      "120": 291,
      "1200": 292,
      "1201": 293,
      "1202": 294,
      "1203": 295,
      "1204": 296,
      "1205": 297,
      "1206": 298,
      "1207": 299,
      "1208": 300,
      "1209": 301,
      "121": 302,
      "1210": 303,
      "1211": 304,
      "1212": 305,
      "121212": 306,
      "1213": 307,
      "1214": 308,
      "1215": 309,
      "122": 310,
      "1221": 311,
      "1223": 312,
      "1225": 313,
      "123": 314,
      "1230": 315,
      "123123": 316,
      "123321": 317,
      "1234": 318,
      "12345": 319,
      "123456": 320,
      "1234567": 321,
      "12345678": 322,
      "123456789": 323,
      "1234567890": 324,
      "123654": 325,
      "12369": 326,
      "124": 327,
      "1245": 328,
      "125": 329,
      "126": 330,
      "127": 331,
      "128": 332,
      "129": 333,
      "13": 334,
      "130": 335,
      "1303": 336,
      "1304": 337,
      "1305": 338,
      "1306": 339,
      "1307": 340,
      "1308": 341,
      "1309": 342,
      "131": 343,
      "1310": 344,
      "1311": 345,
      "1312": 346,
      "1313": 347,
      "1314": 348,
      "132": 349,
      "1321": 350,
      "1324": 351,
      "133": 352,
      "1337": 353,
      "134": 354,
      "1346": 355,
      "135": 356,
      "13579": 357,
      "136": 358,
      "137": 359,
      "138": 360,
      "139": 361,
      "14": 362,
      "140": 363,
      "1402": 364,
      "1403": 365,
      "1404": 366,
      "1405": 367,
      "1406": 368,
      "1407": 369,
      "1408": 370,
      "1409": 371,
      "141": 372,
      "1410": 373,
      "1411": 374,
      "1412": 375,
      "1414": 376,
      "142": 377,
      "1425": 378,
      "143": 379,
      "144": 380,
      "145": 381,
      "1453": 382,
      "146": 383,
      "147": 384,
      "147258": 385,
      "1478": 386,
      "14789": 387,
      "148": 388,
      "149": 389,
      "15": 390,
      "150": 391,
      "1502": 392,
      "1503": 393,
      "1504": 394,
      "1505": 395,
      "1506": 396,
      "1507": 397,
      "1508": 398,
      "1509": 399,
      "151": 400,
      "1510": 401,
      "1511": 402,
      "1512": 403,
      "1515": 404,
      "1516": 405,
      "152": 406,
      "153": 407,
      "154": 408,
      "155": 409,
      "156": 410,
      "157": 411,
      "158": 412,
      "159": 413,
      "159357": 414,
      "159753": 415,
      "16": 416,
      "160": 417,
      "1603": 418,
      "1604": 419,
      "1605": 420,
      "1606": 421,
      "1609": 422,
      "161": 423,
      "1610": 424,
      "1611": 425,
      "1612": 426,
      "162": 427,
      "163": 428,
      "164": 429,
      "165": 430,
      "167": 431,
      "168": 432,
      "169": 433,
      "17": 434,
      "170": 435,
      "1703": 436,
      "1704": 437,
      "1705": 438,
      "1706": 439,
      "1708": 440,
      "1709": 441,
      "171": 442,
      "1710": 443,
      "1711": 444,
      "1712": 445,
      "172": 446,
      "173": 447,
      "174": 448,
      "175": 449,
      "1753": 450,
      "176": 451,
      "179": 452,
      "18": 453,
      "180": 454,
      "1803": 455,
      "1804": 456,
      "1805": 457,
      "1806": 458,
      "1809": 459,
      "181": 460,
      "1810": 461,
      "1812": 462,
      "1818": 463,
      "182": 464,
      "183": 465,
      "184": 466,
      "185": 467,
      "186": 468,
      "187": 469,
      "189": 470,
      "19": 471,
      "190": 472,
      "1900": 473,
      "1903": 474,
      "1904": 475,
      "1905": 476,
      "1906": 477,
      "1907": 478,
      "1908": 479,
      "1909": 480,
      "191": 481,
      "1910": 482,
      "1911": 483,
      "1912": 484,
      "1919": 485,
      "192": 486,
      "193": 487,
      "194": 488,
      "1945": 489,
      "195": 490,
      "1953": 491,
      "1955": 492,
      "1956": 493,
      "1957": 494,
      "1958": 495,
      "1959": 496,
      "196": 497,
      "1960": 498,
      "1961": 499,
      "1962": 500,
      "1963": 501,
      "1964": 502,
      "1965": 503,
      "1966": 504,
      "1967": 505,
      "1968": 506,
      "1969": 507,
      "197": 508,
      "1970": 509,
      "1971": 510,
      "1972": 511,
      "1973": 512,
      "1974": 513,
      "1975": 514,
      "1976": 515,
      "1977": 516,
      "1978": 517,
      "1979": 518,
      "198": 519,
      "1980": 520,
      "1981": 521,
      "1982": 522,
      "1983": 523,
      "1984": 524,
      "1985": 525,
      "1986": 526,
      "1987": 527,
      "1988": 528,
      "1989": 529,
      "199": 530,
      "1990": 531,
      "1991": 532,
      "1992": 533,
      "1993": 534,
      "1994": 535,
      "1995": 536,
      "1996": 537,
      "1997": 538,
      "1998": 539,
      "1999": 540,
      "1MQ": 541,
      "1Mw": 542,
      "1NA": 543,
      "1NQ": 544,
      "1a": 545,
      "1c": 546,
      "1n": 547,
      "1ng": 548,
      "1q": 549,
      "1s": 550,
      "1st": 551,
      "2": 552,
      "20": 553,
      "200": 554,
      "2000": 555,
      "2001": 556,
      "2002": 557,
      "2003": 558,
      "2004": 559,
      "2005": 560,
      "2006": 561,
      "2007": 562,
      "2008": 563,
      "2009": 564,
      "201": 565,
      "2010": 566,
      "2011": 567,
      "2012": 568,
      "2013": 569,
      "202": 570,
      "2020": 571,
      "203": 572,
      "204": 573,
      "205": 574,
      "206": 575,
      "207": 576,
      "208": 577,
      "209": 578,
      "21": 579,
      "210": 580,
      "2100": 581,
      "2103": 582,
      "2104": 583,
      "2105": 584,
      "2106": 585,
      "2107": 586,
      "2108": 587,
      "2109": 588,
      "211": 589,
      "2110": 590,
      "2112": 591,
      "212": 592,
      "213": 593,
      "214": 594,
      "215": 595,
      "216": 596,
      "217": 597,
      "22": 598,
      "220": 599,
      "2203": 600,
      "2204": 601,
      "2205": 602,
      "2206": 603,
      "2209": 604,
      "221": 605,
      "2210": 606,
      "2211": 607,
      "2212": 608,
      "222": 609,
      "2222": 610,
      "223": 611,
      "224": 612,
      "225": 613,
      "226": 614,
      "227": 615,
      "228": 616,
      "229": 617,
      "23": 618,
      "230": 619,
      "2303": 620,
      "2304": 621,
      "2305": 622,
      "2306": 623,
      "2308": 624,
      "2309": 625,
      "231": 626,
      "2310": 627,
      "2311": 628,
      "2312": 629,
      "232": 630,
      "2323": 631,
      "233": 632,
      "234": 633,
      "2345": 634,
      "235": 635,
      "236": 636,
      "2369": 637,
      "237": 638,
      "238": 639,
      "239": 640,
      "24": 641,
      "240": 642,
      "2403": 643,
      "2404": 644,
      "2405": 645,
      "2406": 646,
      "2409": 647,
      "241": 648,
      "2410": 649,
      "2411": 650,
      "2412": 651,
      "242": 652,
      "243": 653,
      "244": 654,
      "245": 655,
      "246": 656,
      "2468": 657,
      "247": 658,
      "248": 659,
      "249": 660,
      "25": 661,
      "250": 662,
      "2503": 663,
      "2504": 664,
      "2505": 665,
      "2506": 666,
      "2508": 667,
      "2509": 668,
      "251": 669,
      "2510": 670,
      "2511": 671,
      "2512": 672,
      "252": 673,
      "2525": 674,
      "2526": 675,
      "2529": 676,
      "253": 677,
      "2530": 678,
      "254": 679,
      "255": 680,
      "256": 681,
      "257": 682,
      "258": 683,
      "2580": 684,
      "2583": 685,
      "258369": 686,
      "259": 687,
      "26": 688,
      "260": 689,
      "2603": 690,
      "2604": 691,
      "2605": 692,
      "261": 693,
      "2610": 694,
      "2611": 695,
      "2612": 696,
      "262": 697,
      "263": 698,
      "264": 699,
      "265": 700,
      "266": 701,
      "267": 702,
      "268": 703,
      "269": 704,
      "27": 705,
      "270": 706,
      "2703": 707,
      "2704": 708,
      "2705": 709,
      "2709": 710,
      "271": 711,
      "2710": 712,
      "2712": 713,
      "272": 714,
      "273": 715,
      "274": 716,
      "275": 717,
      "276": 718,
      "279": 719,
      "28": 720,
      "280": 721,
      "2803": 722,
      "2804": 723,
      "2805": 724,
      "2806": 725,
      "2809": 726,
      "281": 727,
      "2810": 728,
      "2812": 729,
      "282": 730,
      "283": 731,
      "284": 732,
      "285": 733,
      "286": 734,
      "287": 735,
      "289": 736,
      "29": 737,
      "290": 738,
      "2906": 739,
      "2909": 740,
      "291": 741,
      "2910": 742,
      "2911": 743,
      "2912": 744,
      "292": 745,
      "293": 746,
      "294": 747,
      "295": 748,
      "296": 749,
      "297": 750,
      "298": 751,
      "299": 752,
      "2MA": 753,
      "2MQ": 754,
      "2Mw": 755,
      "2NA": 756,
      "2NQ": 757,
      "2Nw": 758,
      "2OA": 759,
      "2OQ": 760,
      "2a": 761,
      "2k": 762,
      "2x": 763,
      "3": 764,
      "30": 765,
      "300": 766,
      "3000": 767,
      "3003": 768,
      "3005": 769,
      "3006": 770,
      "3010": 771,
      "3011": 772,
      "3012": 773,
      "303": 774,
      "31": 775,
      "310": 776,
      "3105": 777,
      "311": 778,
      "312": 779,
      "313": 780,
      "314": 781,
      "315": 782,
      "316": 783,
      "32": 784,
      "321": 785,
      "3216": 786,
      "323": 787,
      "324": 788,
      "325": 789,
      "33": 790,
      "330": 791,
      "331": 792,
      "332": 793,
      "333": 794,
      "3333": 795,
      "334": 796,
      "335": 797,
      "336": 798,
      "337": 799,
      "338": 800,
      "339": 801,
      "34": 802,
      "343": 803,
      "345": 804,
      "346": 805,
      "347": 806,
      "348": 807,
      "349": 808,
      "35": 809,
      "350": 810,
      "352": 811,
      "353": 812,
      "354": 813,
      "356": 814,
      "357": 815,
      "358": 816,
      "359": 817,
      "36": 818,
      "360": 819,
      "365": 820,
      "367": 821,
      "369": 822,
      "37": 823,
      "38": 824,
      "39": 825,
      "3MA": 826,
      "3MQ": 827,
      "3Mg": 828,
      "3Mw": 829,
      "3NA": 830,
      "3NQ": 831,
      "3Ng": 832,
      "3Nw": 833,
      "3OA": 834,
      "3OQ": 835,
      "3d": 836,
      "3l": 837,
      "3n": 838,
      "3r": 839,
      "3r4": 840,
      "3s": 841,
      "3t": 842,
      "3x": 843,
      "4": 844,
      "40": 845,
      "400": 846,
      "41": 847,
      "415": 848,
      "42": 849,
      "420": 850,
      "43": 851,
      "431": 852,
      "432": 853,
      "4321": 854,
      "436": 855,
      "44": 856,
      "443": 857,
      "444": 858,
      "4444": 859,
      "446": 860,
      "447": 861,
      "448": 862,
      "449": 863,
      "45": 864,
      "450": 865,
      "451": 866,
      "452": 867,
      "453": 868,
      "454": 869,
      "4545": 870,
      "455": 871,
      "456": 872,
      "457": 873,
      "458": 874,
      "459": 875,
      "46": 876,
      "47": 877,
      "48": 878,
      "49": 879,
      "4Mg": 880,
      "4Mw": 881,
      "4NA": 882,
      "4NQ": 883,
      "4Nw": 884,
      "4OA": 885,
      "4OQ": 886,
      "4d": 887,
      "4ever": 888,
      "4h": 889,
      "4l": 890,
      "4life": 891,
      "4me": 892,
      "4n": 893,
      "4n4": 894,
      "4ng": 895,
      "4r": 896,
      "4u": 897,
      "5": 898,
      "50": 899,
      "500": 900,
      "51": 901,
      "510": 902,
      "512": 903,
      "52": 904,
      "520": 905,
      "5201314": 906,
      "521": 907,
      "53": 908,
      "54": 909,
      "546": 910,
      "55": 911,
      "550": 912,
      "553": 913,
      "554": 914,
      "555": 915,
      "5555": 916,
      "556": 917,
      "5566": 918,
      "557": 919,
      "558": 920,
      "559": 921,
      "56": 922,
      "567": 923,
      "57": 924,
      "58": 925,
      "59": 926,
      "5MA": 927,
      "5MQ": 928,
      "5Mg": 929,
      "5Mw": 930,
      "5NA": 931,
      "5NQ": 932,
      "5Nw": 933,
      "5OA": 934,
      "5OQ": 935,
      "6": 936,
      "60": 937,
      "61": 938,
      "619": 939,
      "62": 940,
      "63": 941,
      "630": 942,
      "632": 943,
      "636": 944,
      "637": 945,
      "639": 946,
      "64": 947,
      "646": 948,
      "649": 949,
      "65": 950,
      "650": 951,
      "652": 952,
      "653": 953,
      "654": 954,
      "654321": 955,
      "656": 956,
      "657": 957,
      "658": 958,
      "659": 959,
      "66": 960,
      "660": 961,
      "661": 962,
      "663": 963,
      "664": 964,
      "665": 965,
      "666": 966,
      "6666": 967,
      "666666": 968,
      "667": 969,
      "668": 970,
      "669": 971,
      "67": 972,
      "678": 973,
      "68": 974,
      "69": 975,
      "691": 976,
      "693": 977,
      "694": 978,
      "695": 979,
      "696": 980,
      "6969": 981,
      "698": 982,
      "7": 983,
      "70": 984,
      "700": 985,
      "71": 986,
      "711": 987,
      "72": 988,
      "73": 989,
      "736": 990,
      "737": 991,
      "74": 992,
      "741": 993,
      "746": 994,
      "747": 995,
      "748": 996,
      "749": 997,
      "75": 998,
      "753": 999,
      "754": 1000,
      "756": 1001,
      "757": 1002,
      "758": 1003,
      "759": 1004,
      "76": 1005,
      "764": 1006,
      "767": 1007,
      "768": 1008,
      "77": 1009,
      "770": 1010,
      "771": 1011,
      "772": 1012,
      "773": 1013,
      "774": 1014,
      "775": 1015,
      "776": 1016,
      "777": 1017,
      "7777": 1018,
      "7777777": 1019,
      "779": 1020,
      "78": 1021,
      "780": 1022,
      "781": 1023,
      "782": 1024,
      "783": 1025,
      "784": 1026,
      "785": 1027,
      "786": 1028,
      "787": 1029,
      "789": 1030,
      "789456": 1031,
      "79": 1032,
      "791": 1033,
      "793": 1034,
      "794": 1035,
      "795": 1036,
      "798": 1037,
      "8": 1038,
      "80": 1039,
      "800": 1040,
      "809": 1041,
      "81": 1042,
      "82": 1043,
      "83": 1044,
      "836": 1045,
      "838": 1046,
      "84": 1047,
      "846": 1048,
      "848": 1049,
      "85": 1050,
      "852": 1051,
      "853": 1052,
      "854": 1053,
      "856": 1054,
      "858": 1055,
      "859": 1056,
      "86": 1057,
      "863": 1058,
      "864": 1059,
      "867": 1060,
      "868": 1061,
      "87": 1062,
      "873": 1063,
      "874": 1064,
      "875": 1065,
      "876": 1066,
      "879": 1067,
      "88": 1068,
      "880": 1069,
      "881": 1070,
      "882": 1071,
      "883": 1072,
      "884": 1073,
      "885": 1074,
      "886": 1075,
      "887": 1076,
      "888": 1077,
      "8888": 1078,
      "889": 1079,
      "8899": 1080,
      "89": 1081,
      "890": 1082,
      "891": 1083,
      "893": 1084,
      "895": 1085,
      "896": 1086,
      "897": 1087,
      "898": 1088,
      "9": 1089,
      "90": 1090,
      "900": 1091,
      "91": 1092,
      "911": 1093,
      "92": 1094,
      "93": 1095,
      "94": 1096,
      "95": 1097,
      "951": 1098,
      "951753": 1099,
      "956": 1100,
      "959": 1101,
      "96": 1102,
      "963": 1103,
      "97": 1104,
      "98": 1105,
      "984": 1106,
      "987": 1107,
      "987654321": 1108,
      "989": 1109,
      "99": 1110,
      "990": 1111,
      "991": 1112,
      "993": 1113,
      "994": 1114,
      "995": 1115,
      "996": 1116,
      "997": 1117,
      "998": 1118,
      "999": 1119,
      "9999": 1120,
      ":": 1121,
      "<": 1122,
      "=": 1123,
      ">": 1124,
      "?": 1125,
      "??": 1126,
      "@": 1127,
      "@#": 1128,
      "@1": 1129,
      "@123": 1130,
      "@@": 1131,
      "@g": 1132,
      "@gmail.com": 1133,
      "@n": 1134,
      "@yahoo": 1135,
      "@yahoo.com": 1136,
      "A": 1137,
      "A1": 1138,
      "AA": 1139,
      "AB": 1140,
      "AD": 1141,
      "AL": 1142,
      "AM": 1143,
      "AN": 1144,
      "ANG": 1145,
      "AR": 1146,
      "AS": 1147,
      "AZ": 1148,
      "Aa": 1149,
      "Ad": 1150,
      "Admin": 1151,
      "Al": 1152,
      "Alex": 1153,
      "An": 1154,
      "Ar": 1155,
      "B": 1156,
      "BA": 1157,
      "BB": 1158,
      "BD": 1159,
      "BE": 1160,
      "BI": 1161,
      "BO": 1162,
      "BU": 1163,
      "Bl": 1164,
      "C": 1165,
      "CA": 1166,
      "CD": 1167,
      "CE": 1168,
      "CH": 1169,
      "CI": 1170,
      "CK": 1171,
      "CO": 1172,
      "Ch": 1173,
      "D": 1174,
      "DA": 1175,
      "DD": 1176,
      "DE": 1177,
      "DI": 1178,
      "DM": 1179,
      "DO": 1180,
      "DQ": 1181,
      "DU": 1182,
      "DY": 1183,
      "De": 1184,
      "E": 1185,
      "ED": 1186,
      "EE": 1187,
      "EL": 1188,
      "EN": 1189,
      "ER": 1190,
      "ES": 1191,
      "ET": 1192,
      "El": 1193,
      "F": 1194,
      "FA": 1195,
      "FI": 1196,
      "FT": 1197,
      "G": 1198,
      "GA": 1199,
      "GH": 1200,
      "GI": 1201,
      "GO": 1202,
      "GU": 1203,
      "H": 1204,
      "HA": 1205,
      "HE": 1206,
      "HI": 1207,
      "HO": 1208,
      "I": 1209,
      "IA": 1210,
      "IL": 1211,
      "IN": 1212,
      "IS": 1213,
      "IT": 1214,
      "In": 1215,
      "J": 1216,
      "JA": 1217,
      "JK": 1218,
      "JO": 1219,
      "JU": 1220,
      "Jo": 1221,
      "K": 1222,
      "KA": 1223,
      "KE": 1224,
      "KI": 1225,
      "KO": 1226,
      "KU": 1227,
      "L": 1228,
      "L1": 1229,
      "LA": 1230,
      "LE": 1231,
      "LI": 1232,
      "LL": 1233,
      "LO": 1234,
      "LU": 1235,
      "Le": 1236,
      "Lo": 1237,
      "M": 1238,
      "M1": 1239,
      "MA": 1240,
      "MAN": 1241,
      "MAR": 1242,
      "ME": 1243,
      "MI": 1244,
      "MM": 1245,
      "MO": 1246,
      "MP": 1247,
      "MQ": 1248,
      "MU": 1249,
      "MY": 1250,
      "Ma": 1251,
      "Mar": 1252,
      "Me": 1253,
      "Mg": 1254,
      "Mw": 1255,
      "My": 1256,
      "N": 1257,
      "NA": 1258,
      "NE": 1259,
      "NG": 1260,
      "NI": 1261,
      "NO": 1262,
      "NQ": 1263,
      "NT": 1264,
      "Ng": 1265,
      "Nov": 1266,
      "Nw": 1267,
      "O": 1268,
      "OA": 1269,
      "OL": 1270,
      "OM": 1271,
      "ON": 1272,
      "OO": 1273,
      "OQ": 1274,
      "OR": 1275,
      "OS": 1276,
      "P": 1277,
      "P@": 1278,
      "PA": 1279,
      "PE": 1280,
      "PI": 1281,
      "PO": 1282,
      "PT": 1283,
      "Pa": 1284,
      "Pass": 1285,
      "Q": 1286,
      "QU": 1287,
      "QW": 1288,
      "R": 1289,
      "R4": 1290,
      "RA": 1291,
      "RE": 1292,
      "RI": 1293,
      "RO": 1294,
      "RT": 1295,
      "RU": 1296,
      "Ra": 1297,
      "Re": 1298,
      "Ro": 1299,
      "S": 1300,
      "S1": 1301,
      "SA": 1302,
      "SC": 1303,
      "SD": 1304,
      "SE": 1305,
      "SH": 1306,
      "SI": 1307,
      "SO": 1308,
      "SS": 1309,
      "ST": 1310,
      "SU": 1311,
      "Sh": 1312,
      "Su": 1313,
      "T": 1314,
      "TA": 1315,
      "TE": 1316,
      "TH": 1317,
      "TI": 1318,
      "TM": 1319,
      "TO": 1320,
      "TQ": 1321,
      "TR": 1322,
      "TT": 1323,
      "TU": 1324,
      "TY": 1325,
      "Te": 1326,
      "U": 1327,
      "UN": 1328,
      "US": 1329,
      "UT": 1330,
      "V": 1331,
      "VE": 1332,
      "VI": 1333,
      "W": 1334,
      "WA": 1335,
      "WE": 1336,
      "Web": 1337,
      "X": 1338,
      "XX": 1339,
      "Y": 1340,
      "YA": 1341,
      "Z": 1342,
      "ZA": 1343,
      "ZX": 1344,
      "[": 1345,
      "\\": 1346,
      "]": 1347,
      "^": 1348,
      "_": 1349,
      "_1": 1350,
      "_123": 1351,
      "__": 1352,
      "`": 1353,
      "a": 1354,
      "a.": 1355,
      "a0": 1356,
      "a08": 1357,
      "a09": 1358,
      "a1": 1359,
      "a10": 1360,
      "a100": 1361,
      "a11": 1362,
      "a12": 1363,
      "a123": 1364,
      "a1234": 1365,
      "a123456": 1366,
      "a13": 1367,
      "a2": 1368,
      "a2008": 1369,
      "a2009": 1370,
      "a22": 1371,
      "a23": 1372,
      "a3": 1373,
      "a4": 1374,
      "a5": 1375,
      "a6": 1376,
      "a7": 1377,
      "a8": 1378,
      "a9": 1379,
      "a_": 1380,
      "aa": 1381,
      "aaa": 1382,
      "aaaa": 1383,
      "ab": 1384,
      "aba": 1385,
      "abc": 1386,
      "abcd": 1387,
      "abd": 1388,
      "abel": 1389,
      "abi": 1390,
      "ablo": 1391,
      "abo": 1392,
      "ac": 1393,
      "aca": 1394,
      "ace": 1395,
      "acer": 1396,
      "ach": 1397,
      "acion": 1398,
      "ack": 1399,
      "aco": 1400,
      "act": 1401,
      "ad": 1402,
      "ad1": 1403,
      "ada": 1404,
      "adam": 1405,
      "ade": 1406,
      "adel": 1407,
      "adem": 1408,
      "ader": 1409,
      "adi": 1410,
      "adit": 1411,
      "admin": 1412,
      "ado": 1413,
      "ador": 1414,
      "adri": 1415,
      "adrian": 1416,
      "ae": 1417,
      "af": 1418,
      "aff": 1419,
      "ag": 1420,
      "aga": 1421,
      "age": 1422,
      "ago": 1423,
      "agu": 1424,
      "agus": 1425,
      "agust": 1426,
      "agustus": 1427,
      "ah": 1428,
      "ah1": 1429,
      "ahmad": 1430,
      "ahmed": 1431,
      "ahmet": 1432,
      "ai": 1433,
      "ain": 1434,
      "air": 1435,
      "ais": 1436,
      "aj": 1437,
      "aja": 1438,
      "ajar": 1439,
      "ak": 1440,
      "ak1": 1441,
      "aka": 1442,
      "ake": 1443,
      "aki": 1444,
      "ako": 1445,
      "aku": 1446,
      "al": 1447,
      "al1": 1448,
      "al123": 1449,
      "ala": 1450,
      "alam": 1451,
      "alan": 1452,
      "ald": 1453,
      "aldo": 1454,
      "ale": 1455,
      "alej": 1456,
      "alek": 1457,
      "ales": 1458,
      "alex": 1459,
      "alf": 1460,
      "ali": 1461,
      "alia": 1462,
      "alin": 1463,
      "alis": 1464,
      "all": 1465,
      "allah": 1466,
      "alo": 1467,
      "alon": 1468,
      "alp": 1469,
      "alu": 1470,
      "am": 1471,
      "am1": 1472,
      "am123": 1473,
      "ama": 1474,
      "aman": 1475,
      "amar": 1476,
      "ame": 1477,
      "amel": 1478,
      "amer": 1479,
      "ami": 1480,
      "amil": 1481,
      "amin": 1482,
      "amir": 1483,
      "amo": 1484,
      "amon": 1485,
      "amor": 1486,
      "amp": 1487,
      "an": 1488,
      "an-": 1489,
      "an1": 1490,
      "an123": 1491,
      "ana": 1492,
      "anak": 1493,
      "anas": 1494,
      "and": 1495,
      "anda": 1496,
      "ander": 1497,
      "andi": 1498,
      "ando": 1499,
      "andra": 1500,
      "andre": 1501,
      "andres": 1502,
      "andro": 1503,
      "andy": 1504,
      "ane": 1505,
      "ang": 1506,
      "ang123": 1507,
      "angel": 1508,
      "anh": 1509,
      "ani": 1510,
      "anim": 1511,
      "anj": 1512,
      "ank": 1513,
      "ann": 1514,
      "anna": 1515,
      "anne": 1516,
      "ano": 1517,
      "ans": 1518,
      "ant": 1519,
      "ante": 1520,
      "anteng": 1521,
      "anth": 1522,
      "anti": 1523,
      "anto": 1524,
      "anton": 1525,
      "anu": 1526,
      "any": 1527,
      "ao": 1528,
      "ap": 1529,
      "apa": 1530,
      "apple": 1531,
      "april": 1532,
      "aq": 1533,
      "aqu": 1534,
      "ar": 1535,
      "ar1": 1536,
      "ar123": 1537,
      "ara": 1538,
      "aran": 1539,
      "arch": 1540,
      "ard": 1541,
      "ardo": 1542,
      "are": 1543,
      "ares": 1544,
      "ari": 1545,
      "aria": 1546,
      "arie": 1547,
      "arif": 1548,
      "arin": 1549,
      "ario": 1550,
      "aris": 1551,
      "ark": 1552,
      "aro": 1553,
      "ars": 1554,
      "art": 1555,
      "arta": 1556,
      "aru": 1557,
      "ary": 1558,
      "as": 1559,
      "as1": 1560,
      "as123": 1561,
      "asa": 1562,
      "asd": 1563,
      "asdasd": 1564,
      "asdf": 1565,
      "asdfgh": 1566,
      "ase": 1567,
      "ash": 1568,
      "asha": 1569,
      "ashi": 1570,
      "asi": 1571,
      "asil": 1572,
      "ass": 1573,
      "ast": 1574,
      "aster": 1575,
      "asy": 1576,
      "at": 1577,
      "at1": 1578,
      "at123": 1579,
      "ata": 1580,
      "atan": 1581,
      "ate": 1582,
      "ater": 1583,
      "ath": 1584,
      "athan": 1585,
      "ati": 1586,
      "ation": 1587,
      "ato": 1588,
      "ator": 1589,
      "att": 1590,
      "au": 1591,
      "aud": 1592,
      "aug": 1593,
      "aur": 1594,
      "aut": 1595,
      "av": 1596,
      "ave": 1597,
      "aven": 1598,
      "avi": 1599,
      "aw": 1600,
      "awan": 1601,
      "ax": 1602,
      "ay": 1603,
      "aya": 1604,
      "ayang": 1605,
      "az": 1606,
      "aza": 1607,
      "aze": 1608,
      "azer": 1609,
      "azerty": 1610,
      "azz": 1611,
      "b": 1612,
      "b0": 1613,
      "b1": 1614,
      "b2": 1615,
      "b3": 1616,
      "b4": 1617,
      "b5": 1618,
      "b6": 1619,
      "b7": 1620,
      "b8": 1621,
      "b9": 1622,
      "ba": 1623,
      "bab": 1624,
      "baby": 1625,
      "bac": 1626,
      "back": 1627,
      "bad": 1628,
      "bag": 1629,
      "bah": 1630,
      "baj": 1631,
      "bak": 1632,
      "bal": 1633,
      "ball": 1634,
      "bam": 1635,
      "ban": 1636,
      "band": 1637,
      "bang": 1638,
      "bar": 1639,
      "bas": 1640,
      "bass": 1641,
      "bat": 1642,
      "bay": 1643,
      "bb": 1644,
      "bc": 1645,
      "bd": 1646,
      "be": 1647,
      "beat": 1648,
      "beb": 1649,
      "bec": 1650,
      "bed": 1651,
      "bek": 1652,
      "bel": 1653,
      "bell": 1654,
      "ben": 1655,
      "ber": 1656,
      "bert": 1657,
      "berto": 1658,
      "bes": 1659,
      "best": 1660,
      "bet": 1661,
      "bey": 1662,
      "bf": 1663,
      "bg": 1664,
      "bh": 1665,
      "bi": 1666,
      "bib": 1667,
      "bie": 1668,
      "big": 1669,
      "bil": 1670,
      "bill": 1671,
      "bin": 1672,
      "bing": 1673,
      "bir": 1674,
      "bis": 1675,
      "bismillah": 1676,
      "bit": 1677,
      "bj": 1678,
      "bk": 1679,
      "bl": 1680,
      "black": 1681,
      "ble": 1682,
      "blo": 1683,
      "blog": 1684,
      "blu": 1685,
      "blue": 1686,
      "bm": 1687,
      "bn": 1688,
      "bo": 1689,
      "bob": 1690,
      "bok": 1691,
      "bol": 1692,
      "bom": 1693,
      "bon": 1694,
      "book": 1695,
      "bor": 1696,
      "bos": 1697,
      "bot": 1698,
      "box": 1699,
      "boy": 1700,
      "bp": 1701,
      "bq": 1702,
      "br": 1703,
      "bra": 1704,
      "bre": 1705,
      "bri": 1706,
      "bro": 1707,
      "brun": 1708,
      "bruno": 1709,
      "bs": 1710,
      "bt": 1711,
      "bu": 1712,
      "bub": 1713,
      "bud": 1714,
      "bug": 1715,
      "buk": 1716,
      "bul": 1717,
      "bull": 1718,
      "bum": 1719,
      "bun": 1720,
      "bur": 1721,
      "bus": 1722,
      "but": 1723,
      "bv": 1724,
      "bx": 1725,
      "by": 1726,
      "bz": 1727,
      "c": 1728,
      "c0": 1729,
      "c1": 1730,
      "c123": 1731,
      "c2": 1732,
      "c3": 1733,
      "c4": 1734,
      "c5": 1735,
      "c6": 1736,
      "c7": 1737,
      "c8": 1738,
      "c9": 1739,
      "ca": 1740,
      "cab": 1741,
      "cac": 1742,
      "cad": 1743,
      "cah": 1744,
      "cak": 1745,
      "cal": 1746,
      "cam": 1747,
      "can": 1748,
      "cant": 1749,
      "cap": 1750,
      "car": 1751,
      "carlos": 1752,
      "carol": 1753,
      "cas": 1754,
      "cast": 1755,
      "cat": 1756,
      "cav": 1757,
      "cb": 1758,
      "cc": 1759,
      "cd": 1760,
      "ce": 1761,
      "ce1": 1762,
      "cec": 1763,
      "ced": 1764,
      "cel": 1765,
      "cem": 1766,
      "cen": 1767,
      "cent": 1768,
      "cer": 1769,
      "ces": 1770,
      "cess": 1771,
      "cf": 1772,
      "cg": 1773,
      "ch": 1774,
      "ch1": 1775,
      "cha": 1776,
      "chael": 1777,
      "chai": 1778,
      "chal": 1779,
      "cham": 1780,
      "chan": 1781,
      "chang": 1782,
      "char": 1783,
      "chat": 1784,
      "che": 1785,
      "chel": 1786,
      "chem": 1787,
      "chen": 1788,
      "cher": 1789,
      "chi": 1790,
      "chil": 1791,
      "chin": 1792,
      "chit": 1793,
      "cho": 1794,
      "chool": 1795,
      "chris": 1796,
      "christ": 1797,
      "chu": 1798,
      "ci": 1799,
      "cia": 1800,
      "cil": 1801,
      "cin": 1802,
      "cint": 1803,
      "cio": 1804,
      "cip": 1805,
      "cis": 1806,
      "cit": 1807,
      "city": 1808,
      "cj": 1809,
      "ck": 1810,
      "cker": 1811,
      "cl": 1812,
      "cla": 1813,
      "cle": 1814,
      "clo": 1815,
      "clu": 1816,
      "club": 1817,
      "cm": 1818,
      "cn": 1819,
      "co": 1820,
      "coco": 1821,
      "cod": 1822,
      "cok": 1823,
      "col": 1824,
      "com": 1825,
      "come": 1826,
      "computer": 1827,
      "con": 1828,
      "cong": 1829,
      "contr": 1830,
      "cool": 1831,
      "cop": 1832,
      "cor": 1833,
      "cos": 1834,
      "cot": 1835,
      "coun": 1836,
      "cow": 1837,
      "cp": 1838,
      "cq": 1839,
      "cr": 1840,
      "cra": 1841,
      "crazy": 1842,
      "cre": 1843,
      "cris": 1844,
      "crist": 1845,
      "cro": 1846,
      "cs": 1847,
      "ct": 1848,
      "cu": 1849,
      "cub": 1850,
      "cul": 1851,
      "cur": 1852,
      "cut": 1853,
      "cv": 1854,
      "cw": 1855,
      "cx": 1856,
      "cy": 1857,
      "cyber": 1858,
      "cz": 1859,
      "d": 1860,
      "d0": 1861,
      "d1": 1862,
      "d123": 1863,
      "d2": 1864,
      "d3": 1865,
      "d4": 1866,
      "d5": 1867,
      "d6": 1868,
      "d7": 1869,
      "d8": 1870,
      "d9": 1871,
      "da": 1872,
      "dad": 1873,
      "dal": 1874,
      "dam": 1875,
      "dan": 1876,
      "dang": 1877,
      "dani": 1878,
      "daniel": 1879,
      "dar": 1880,
      "dark": 1881,
      "das": 1882,
      "dat": 1883,
      "dav": 1884,
      "david": 1885,
      "day": 1886,
      "db": 1887,
      "dc": 1888,
      "dd": 1889,
      "de": 1890,
      "dead": 1891,
      "death": 1892,
      "deb": 1893,
      "ded": 1894,
      "deep": 1895,
      "def": 1896,
      "del": 1897,
      "dem": 1898,
      "demon": 1899,
      "den": 1900,
      "der": 1901,
      "des": 1902,
      "desember": 1903,
      "design": 1904,
      "dest": 1905,
      "det": 1906,
      "dev": 1907,
      "devil": 1908,
      "dex": 1909,
      "df": 1910,
      "dg": 1911,
      "dh": 1912,
      "di": 1913,
      "dian": 1914,
      "did": 1915,
      "die": 1916,
      "diego": 1917,
      "dig": 1918,
      "dil": 1919,
      "dim": 1920,
      "dima": 1921,
      "din": 1922,
      "ding": 1923,
      "dir": 1924,
      "dis": 1925,
      "div": 1926,
      "dj": 1927,
      "dk": 1928,
      "dl": 1929,
      "dm": 1930,
      "dn": 1931,
      "do": 1932,
      "dod": 1933,
      "dog": 1934,
      "dol": 1935,
      "dom": 1936,
      "don": 1937,
      "dong": 1938,
      "dor": 1939,
      "dos": 1940,
      "down": 1941,
      "dp": 1942,
      "dq": 1943,
      "dr": 1944,
      "dra": 1945,
      "drag": 1946,
      "dragon": 1947,
      "dre": 1948,
      "dream": 1949,
      "ds": 1950,
      "dt": 1951,
      "du": 1952,
      "duc": 1953,
      "dud": 1954,
      "dul": 1955,
      "dun": 1956,
      "dung": 1957,
      "dur": 1958,
      "duy": 1959,
      "dv": 1960,
      "dw": 1961,
      "dx": 1962,
      "dy": 1963,
      "dz": 1964,
      "e": 1965,
      "e0": 1966,
      "e1": 1967,
      "e12": 1968,
      "e123": 1969,
      "e2": 1970,
      "e2009": 1971,
      "e3": 1972,
      "e4": 1973,
      "e5": 1974,
      "e6": 1975,
      "e7": 1976,
      "e8": 1977,
      "e9": 1978,
      "ea": 1979,
      "ear": 1980,
      "eb": 1981,
      "ebo": 1982,
      "ec": 1983,
      "ect": 1984,
      "ed": 1985,
      "ed1": 1986,
      "ed123": 1987,
      "eda": 1988,
      "edc": 1989,
      "ede": 1990,
      "edi": 1991,
      "edo": 1992,
      "edom": 1993,
      "edu": 1994,
      "ee": 1995,
      "eed": 1996,
      "eer": 1997,
      "ef": 1998,
      "eg": 1999,
      "ega": 2000,
      "eh": 2001,
      "ei": 2002,
      "ej": 2003,
      "ek": 2004,
      "ek1": 2005,
      "eka": 2006,
      "eko": 2007,
      "el": 2008,
      "el1": 2009,
      "el123": 2010,
      "ela": 2011,
      "ele": 2012,
      "elec": 2013,
      "eli": 2014,
      "elis": 2015,
      "ell": 2016,
      "ella": 2017,
      "elle": 2018,
      "ello": 2019,
      "elo": 2020,
      "ely": 2021,
      "em": 2022,
      "eman": 2023,
      "ember": 2024,
      "eme": 2025,
      "emil": 2026,
      "emin": 2027,
      "emo": 2028,
      "emon": 2029,
      "emre": 2030,
      "emy": 2031,
      "en": 2032,
      "en1": 2033,
      "en123": 2034,
      "ena": 2035,
      "ence": 2036,
      "end": 2037,
      "ender": 2038,
      "ene": 2039,
      "eng": 2040,
      "eni": 2041,
      "enk": 2042,
      "eno": 2043,
      "ens": 2044,
      "ent": 2045,
      "ente": 2046,
      "enter": 2047,
      "eo": 2048,
      "ep": 2049,
      "ep-": 2050,
      "eq": 2051,
      "er": 2052,
      "er1": 2053,
      "er123": 2054,
      "era": 2055,
      "ere": 2056,
      "eren": 2057,
      "eri": 2058,
      "eric": 2059,
      "ern": 2060,
      "ero": 2061,
      "ers": 2062,
      "ert": 2063,
      "es": 2064,
      "es1": 2065,
      "es123": 2066,
      "es2": 2067,
      "esa": 2068,
      "ese": 2069,
      "esh": 2070,
      "esis": 2071,
      "ess": 2072,
      "est": 2073,
      "este": 2074,
      "ester": 2075,
      "estr": 2076,
      "et": 2077,
      "et1": 2078,
      "et123": 2079,
      "eta": 2080,
      "ete": 2081,
      "eter": 2082,
      "eth": 2083,
      "eto": 2084,
      "ette": 2085,
      "eu": 2086,
      "eus": 2087,
      "ev": 2088,
      "eva": 2089,
      "even": 2090,
      "ever": 2091,
      "evil": 2092,
      "ew": 2093,
      "ex": 2094,
      "ey": 2095,
      "ez": 2096,
      "f": 2097,
      "f0": 2098,
      "f1": 2099,
      "f123": 2100,
      "f2": 2101,
      "f3": 2102,
      "f4": 2103,
      "f5": 2104,
      "f6": 2105,
      "f7": 2106,
      "f8": 2107,
      "f9": 2108,
      "fa": 2109,
      "fab": 2110,
      "fac": 2111,
      "fad": 2112,
      "fah": 2113,
      "fak": 2114,
      "fal": 2115,
      "famil": 2116,
      "fan": 2117,
      "far": 2118,
      "fas": 2119,
      "fat": 2120,
      "fati": 2121,
      "fb": 2122,
      "fc": 2123,
      "fd": 2124,
      "fe": 2125,
      "feb": 2126,
      "fed": 2127,
      "fel": 2128,
      "felipe": 2129,
      "fen": 2130,
      "feng": 2131,
      "fer": 2132,
      "fern": 2133,
      "ff": 2134,
      "fg": 2135,
      "fh": 2136,
      "fi": 2137,
      "fiel": 2138,
      "fif": 2139,
      "fil": 2140,
      "fin": 2141,
      "fir": 2142,
      "fire": 2143,
      "fis": 2144,
      "fish": 2145,
      "fit": 2146,
      "fj": 2147,
      "fk": 2148,
      "fl": 2149,
      "flash": 2150,
      "flo": 2151,
      "flor": 2152,
      "fly": 2153,
      "fm": 2154,
      "fn": 2155,
      "fo": 2156,
      "fon": 2157,
      "foot": 2158,
      "for": 2159,
      "ford": 2160,
      "forever": 2161,
      "forum": 2162,
      "fox": 2163,
      "fp": 2164,
      "fq": 2165,
      "fr": 2166,
      "fran": 2167,
      "fre": 2168,
      "freak": 2169,
      "fred": 2170,
      "free": 2171,
      "fri": 2172,
      "friend": 2173,
      "fro": 2174,
      "fs": 2175,
      "ft": 2176,
      "fu": 2177,
      "fuck": 2178,
      "ful": 2179,
      "fun": 2180,
      "fur": 2181,
      "fut": 2182,
      "fv": 2183,
      "fw": 2184,
      "fx": 2185,
      "fy": 2186,
      "fz": 2187,
      "g": 2188,
      "g0": 2189,
      "g1": 2190,
      "g2": 2191,
      "g3": 2192,
      "g4": 2193,
      "g5": 2194,
      "g6": 2195,
      "g7": 2196,
      "g8": 2197,
      "g9": 2198,
      "ga": 2199,
      "gab": 2200,
      "gabriel": 2201,
      "gad": 2202,
      "gal": 2203,
      "gam": 2204,
      "gan": 2205,
      "gang": 2206,
      "gar": 2207,
      "gas": 2208,
      "gat": 2209,
      "gate": 2210,
      "gay": 2211,
      "gb": 2212,
      "gd": 2213,
      "ge": 2214,
      "gel": 2215,
      "gem": 2216,
      "gen": 2217,
      "ger": 2218,
      "get": 2219,
      "gf": 2220,
      "gfh": 2221,
      "gg": 2222,
      "gh": 2223,
      "ght": 2224,
      "gi": 2225,
      "gig": 2226,
      "gil": 2227,
      "gin": 2228,
      "gio": 2229,
      "gir": 2230,
      "girl": 2231,
      "gj": 2232,
      "gk": 2233,
      "gl": 2234,
      "glo": 2235,
      "gm": 2236,
      "gn": 2237,
      "go": 2238,
      "god": 2239,
      "gok": 2240,
      "gol": 2241,
      "gold": 2242,
      "gom": 2243,
      "gon": 2244,
      "good": 2245,
      "goog": 2246,
      "google": 2247,
      "gor": 2248,
      "gos": 2249,
      "got": 2250,
      "gp": 2251,
      "gr": 2252,
      "gra": 2253,
      "gram": 2254,
      "gre": 2255,
      "green": 2256,
      "gri": 2257,
      "gro": 2258,
      "gs": 2259,
      "gt": 2260,
      "gu": 2261,
      "gui": 2262,
      "guil": 2263,
      "guitar": 2264,
      "gul": 2265,
      "gun": 2266,
      "gur": 2267,
      "gus": 2268,
      "gust": 2269,
      "guy": 2270,
      "gv": 2271,
      "gw": 2272,
      "gx": 2273,
      "gy": 2274,
      "gz": 2275,
      "h": 2276,
      "h0": 2277,
      "h1": 2278,
      "h123": 2279,
      "h2": 2280,
      "h3": 2281,
      "h4": 2282,
      "h5": 2283,
      "h6": 2284,
      "h7": 2285,
      "h8": 2286,
      "h9": 2287,
      "ha": 2288,
      "ha1": 2289,
      "ha123": 2290,
      "hab": 2291,
      "hack": 2292,
      "hacker": 2293,
      "had": 2294,
      "haha": 2295,
      "hai": 2296,
      "hak": 2297,
      "hal": 2298,
      "ham": 2299,
      "han": 2300,
      "hand": 2301,
      "hang": 2302,
      "hao": 2303,
      "happy": 2304,
      "har": 2305,
      "hard": 2306,
      "has": 2307,
      "hasan": 2308,
      "hass": 2309,
      "hat": 2310,
      "hay": 2311,
      "haz": 2312,
      "hb": 2313,
      "hc": 2314,
      "hd": 2315,
      "he": 2316,
      "head": 2317,
      "heart": 2318,
      "hel": 2319,
      "hell": 2320,
      "hello": 2321,
      "hem": 2322,
      "hen": 2323,
      "hend": 2324,
      "her": 2325,
      "hes": 2326,
      "hf": 2327,
      "hg": 2328,
      "hh": 2329,
      "hi": 2330,
      "hid": 2331,
      "hie": 2332,
      "hil": 2333,
      "him": 2334,
      "hin": 2335,
      "hip": 2336,
      "hir": 2337,
      "his": 2338,
      "hit": 2339,
      "hj": 2340,
      "hk": 2341,
      "hl": 2342,
      "hm": 2343,
      "hn": 2344,
      "ho": 2345,
      "hoang": 2346,
      "hol": 2347,
      "hom": 2348,
      "home": 2349,
      "hon": 2350,
      "hong": 2351,
      "hop": 2352,
      "hor": 2353,
      "hos": 2354,
      "host": 2355,
      "hosting": 2356,
      "hot": 2357,
      "hou": 2358,
      "hous": 2359,
      "hp": 2360,
      "hq": 2361,
      "hr": 2362,
      "hs": 2363,
      "ht": 2364,
      "hu": 2365,
      "hua": 2366,
      "huang": 2367,
      "hum": 2368,
      "hun": 2369,
      "hung": 2370,
      "hunter": 2371,
      "hus": 2372,
      "huy": 2373,
      "hv": 2374,
      "hy": 2375,
      "hz": 2376,
      "i": 2377,
      "i0": 2378,
      "i09": 2379,
      "i1": 2380,
      "i11": 2381,
      "i12": 2382,
      "i123": 2383,
      "i1234": 2384,
      "i123456": 2385,
      "i2": 2386,
      "i2008": 2387,
      "i2009": 2388,
      "i3": 2389,
      "i4": 2390,
      "i5": 2391,
      "i6": 2392,
      "i7": 2393,
      "i8": 2394,
      "i9": 2395,
      "i_": 2396,
      "ia": 2397,
      "ia1": 2398,
      "ia123": 2399,
      "ia2009": 2400,
      "iago": 2401,
      "iah": 2402,
      "ial": 2403,
      "iam": 2404,
      "ian": 2405,
      "iana": 2406,
      "iano": 2407,
      "iao": 2408,
      "ias": 2409,
      "ib": 2410,
      "iber": 2411,
      "ic": 2412,
      "ic1": 2413,
      "ica": 2414,
      "ica1": 2415,
      "ical": 2416,
      "ican": 2417,
      "ice": 2418,
      "ich": 2419,
      "ick": 2420,
      "ico": 2421,
      "ics": 2422,
      "id": 2423,
      "ida": 2424,
      "idad": 2425,
      "ide": 2426,
      "ider": 2427,
      "idi": 2428,
      "ido": 2429,
      "ie": 2430,
      "ie1": 2431,
      "ie123": 2432,
      "iel": 2433,
      "iem": 2434,
      "ien": 2435,
      "ier": 2436,
      "ies": 2437,
      "if": 2438,
      "ife": 2439,
      "ifer": 2440,
      "ig": 2441,
      "igh": 2442,
      "ight": 2443,
      "ign": 2444,
      "igo": 2445,
      "igor": 2446,
      "ih": 2447,
      "ii": 2448,
      "ij": 2449,
      "ik": 2450,
      "ik123": 2451,
      "ika": 2452,
      "ike": 2453,
      "iki": 2454,
      "iko": 2455,
      "iku": 2456,
      "il": 2457,
      "ila": 2458,
      "ile": 2459,
      "ili": 2460,
      "ill": 2461,
      "illa": 2462,
      "iller": 2463,
      "illo": 2464,
      "ilo": 2465,
      "ilov": 2466,
      "ilove": 2467,
      "iloveyou": 2468,
      "im": 2469,
      "ima": 2470,
      "iman": 2471,
      "ime": 2472,
      "imo": 2473,
      "imp": 2474,
      "in": 2475,
      "in1": 2476,
      "in123": 2477,
      "ina": 2478,
      "ina1": 2479,
      "ind": 2480,
      "indo": 2481,
      "ine": 2482,
      "inf": 2483,
      "info": 2484,
      "infor": 2485,
      "ing": 2486,
      "ing1": 2487,
      "ing123": 2488,
      "ingan": 2489,
      "inh": 2490,
      "inha": 2491,
      "inho": 2492,
      "ini": 2493,
      "ink": 2494,
      "ino": 2495,
      "ins": 2496,
      "int": 2497,
      "inter": 2498,
      "internet": 2499,
      "io": 2500,
      "io1": 2501,
      "io123": 2502,
      "ion": 2503,
      "ion1": 2504,
      "ios": 2505,
      "ip": 2506,
      "ipe": 2507,
      "iper": 2508,
      "iq": 2509,
      "ir": 2510,
      "ira": 2511,
      "ire": 2512,
      "iri": 2513,
      "iro": 2514,
      "iron": 2515,
      "is": 2516,
      "is1": 2517,
      "is123": 2518,
      "isa": 2519,
      "ise": 2520,
      "ish": 2521,
      "islam": 2522,
      "ison": 2523,
      "iss": 2524,
      "issa": 2525,
      "ist": 2526,
      "ista": 2527,
      "istan": 2528,
      "ister": 2529,
      "istr": 2530,
      "it": 2531,
      "it1": 2532,
      "ita": 2533,
      "ital": 2534,
      "itar": 2535,
      "itas": 2536,
      "ite": 2537,
      "iter": 2538,
      "ith": 2539,
      "iti": 2540,
      "ito": 2541,
      "ito1": 2542,
      "itor": 2543,
      "its": 2544,
      "ity": 2545,
      "iu": 2546,
      "ius": 2547,
      "iv": 2548,
      "iva": 2549,
      "ivan": 2550,
      "iw": 2551,
      "iwan": 2552,
      "ix": 2553,
      "iy": 2554,
      "iz": 2555,
      "iza": 2556,
      "j": 2557,
      "j0": 2558,
      "j1": 2559,
      "j2": 2560,
      "j3": 2561,
      "j4": 2562,
      "j5": 2563,
      "j6": 2564,
      "j7": 2565,
      "j8": 2566,
      "jA": 2567,
      "jE": 2568,
      "jI": 2569,
      "jM": 2570,
      "jQ": 2571,
      "jU": 2572,
      "jY": 2573,
      "ja": 2574,
      "jab": 2575,
      "jac": 2576,
      "jack": 2577,
      "jad": 2578,
      "jag": 2579,
      "jah": 2580,
      "jak": 2581,
      "jakarta": 2582,
      "jal": 2583,
      "jam": 2584,
      "james": 2585,
      "jan": 2586,
      "jang": 2587,
      "janu": 2588,
      "januari": 2589,
      "jap": 2590,
      "jar": 2591,
      "jas": 2592,
      "jason": 2593,
      "jat": 2594,
      "jav": 2595,
      "javier": 2596,
      "jay": 2597,
      "jb": 2598,
      "jc": 2599,
      "jd": 2600,
      "je": 2601,
      "jeff": 2602,
      "jel": 2603,
      "jen": 2604,
      "jer": 2605,
      "jes": 2606,
      "jess": 2607,
      "jesus": 2608,
      "jet": 2609,
      "jf": 2610,
      "jg": 2611,
      "jh": 2612,
      "ji": 2613,
      "jia": 2614,
      "jian": 2615,
      "jie": 2616,
      "jim": 2617,
      "jin": 2618,
      "jing": 2619,
      "jit": 2620,
      "jj": 2621,
      "jk": 2622,
      "jkl": 2623,
      "jkm": 2624,
      "jl": 2625,
      "jm": 2626,
      "jn": 2627,
      "jo": 2628,
      "joe": 2629,
      "john": 2630,
      "jojo": 2631,
      "jok": 2632,
      "jol": 2633,
      "jon": 2634,
      "jor": 2635,
      "jordan": 2636,
      "jorge": 2637,
      "jos": 2638,
      "jose": 2639,
      "joy": 2640,
      "jp": 2641,
      "jq": 2642,
      "jr": 2643,
      "js": 2644,
      "jt": 2645,
      "ju": 2646,
      "juan": 2647,
      "jul": 2648,
      "juli": 2649,
      "julio": 2650,
      "jum": 2651,
      "jun": 2652,
      "juni": 2653,
      "junior": 2654,
      "just": 2655,
      "jv": 2656,
      "jx": 2657,
      "jy": 2658,
      "k": 2659,
      "k0": 2660,
      "k1": 2661,
      "k123": 2662,
      "k2": 2663,
      "k3": 2664,
      "k4": 2665,
      "k5": 2666,
      "k6": 2667,
      "k7": 2668,
      "k8": 2669,
      "k9": 2670,
      "ka": 2671,
      "ka1": 2672,
      "ka123": 2673,
      "kab": 2674,
      "kad": 2675,
      "kah": 2676,
      "kak": 2677,
      "kal": 2678,
      "kam": 2679,
      "kan": 2680,
      "kang": 2681,
      "kap": 2682,
      "kar": 2683,
      "kas": 2684,
      "kat": 2685,
      "kay": 2686,
      "kaz": 2687,
      "kb": 2688,
      "kc": 2689,
      "kd": 2690,
      "ke": 2691,
      "kel": 2692,
      "kem": 2693,
      "ken": 2694,
      "ker": 2695,
      "kes": 2696,
      "ket": 2697,
      "kev": 2698,
      "kevin": 2699,
      "key": 2700,
      "kg": 2701,
      "kh": 2702,
      "kha": 2703,
      "khal": 2704,
      "khan": 2705,
      "kho": 2706,
      "ki": 2707,
      "kid": 2708,
      "kie": 2709,
      "kik": 2710,
      "kil": 2711,
      "kill": 2712,
      "killer": 2713,
      "kim": 2714,
      "kin": 2715,
      "king": 2716,
      "kir": 2717,
      "kis": 2718,
      "kiss": 2719,
      "kit": 2720,
      "kj": 2721,
      "kk": 2722,
      "kl": 2723,
      "km": 2724,
      "kn": 2725,
      "ko": 2726,
      "kok": 2727,
      "kol": 2728,
      "kom": 2729,
      "kon": 2730,
      "kong": 2731,
      "kop": 2732,
      "kor": 2733,
      "kos": 2734,
      "kot": 2735,
      "kp": 2736,
      "kr": 2737,
      "kris": 2738,
      "ks": 2739,
      "kt": 2740,
      "ku": 2741,
      "kuc": 2742,
      "kuk": 2743,
      "kul": 2744,
      "kum": 2745,
      "kun": 2746,
      "kur": 2747,
      "kus": 2748,
      "kut": 2749,
      "kw": 2750,
      "kx": 2751,
      "ky": 2752,
      "kz": 2753,
      "l": 2754,
      "l0": 2755,
      "l1": 2756,
      "l2": 2757,
      "l3": 2758,
      "l4": 2759,
      "l5": 2760,
      "l6": 2761,
      "l9": 2762,
      "la": 2763,
      "lab": 2764,
      "lac": 2765,
      "lad": 2766,
      "lag": 2767,
      "lah": 2768,
      "lak": 2769,
      "lal": 2770,
      "lam": 2771,
      "lan": 2772,
      "land": 2773,
      "lang": 2774,
      "lap": 2775,
      "lar": 2776,
      "las": 2777,
      "lat": 2778,
      "laur": 2779,
      "lav": 2780,
      "law": 2781,
      "lay": 2782,
      "laz": 2783,
      "lb": 2784,
      "ld": 2785,
      "le": 2786,
      "le1": 2787,
      "lee": 2788,
      "leg": 2789,
      "lem": 2790,
      "len": 2791,
      "leo": 2792,
      "leon": 2793,
      "ler": 2794,
      "les": 2795,
      "let": 2796,
      "lex": 2797,
      "ley": 2798,
      "lf": 2799,
      "lg": 2800,
      "lh": 2801,
      "li": 2802,
      "liam": 2803,
      "lian": 2804,
      "lic": 2805,
      "lie": 2806,
      "life": 2807,
      "light": 2808,
      "lik": 2809,
      "lil": 2810,
      "lim": 2811,
      "lin": 2812,
      "line": 2813,
      "ling": 2814,
      "link": 2815,
      "linux": 2816,
      "lion": 2817,
      "lip": 2818,
      "lis": 2819,
      "lit": 2820,
      "liu": 2821,
      "live": 2822,
      "liz": 2823,
      "lj": 2824,
      "lk": 2825,
      "ll": 2826,
      "lm": 2827,
      "lo": 2828,
      "load": 2829,
      "lock": 2830,
      "log": 2831,
      "lol": 2832,
      "lon": 2833,
      "long": 2834,
      "lop": 2835,
      "lor": 2836,
      "lord": 2837,
      "los": 2838,
      "lou": 2839,
      "lov": 2840,
      "love": 2841,
      "lover": 2842,
      "low": 2843,
      "lp": 2844,
      "ls": 2845,
      "lt": 2846,
      "lu": 2847,
      "luc": 2848,
      "lucas": 2849,
      "luck": 2850,
      "lucky": 2851,
      "luis": 2852,
      "lul": 2853,
      "lum": 2854,
      "lun": 2855,
      "luv": 2856,
      "lv": 2857,
      "lx": 2858,
      "ly": 2859,
      "lz": 2860,
      "m": 2861,
      "m0": 2862,
      "m1": 2863,
      "m123": 2864,
      "m2": 2865,
      "m3": 2866,
      "m4": 2867,
      "m4n": 2868,
      "m4r": 2869,
      "m5": 2870,
      "m6": 2871,
      "m7": 2872,
      "m8": 2873,
      "m9": 2874,
      "m@": 2875,
      "ma": 2876,
      "ma1": 2877,
      "ma123": 2878,
      "mac": 2879,
      "mad": 2880,
      "mag": 2881,
      "magic": 2882,
      "mah": 2883,
      "mai": 2884,
      "mail": 2885,
      "mail.com": 2886,
      "main": 2887,
      "maj": 2888,
      "mak": 2889,
      "mal": 2890,
      "mam": 2891,
      "mama": 2892,
      "man": 2893,
      "man1": 2894,
      "man123": 2895,
      "mand": 2896,
      "mang": 2897,
      "mania": 2898,
      "manuel": 2899,
      "mar": 2900,
      "marc": 2901,
      "marcel": 2902,
      "maret": 2903,
      "mari": 2904,
      "maria": 2905,
      "mario": 2906,
      "mark": 2907,
      "mart": 2908,
      "martin": 2909,
      "mary": 2910,
      "mas": 2911,
      "master": 2912,
      "mat": 2913,
      "matrix": 2914,
      "max": 2915,
      "may": 2916,
      "maz": 2917,
      "mb": 2918,
      "mc": 2919,
      "md": 2920,
      "me": 2921,
      "me1": 2922,
      "med": 2923,
      "meg": 2924,
      "meh": 2925,
      "mehmet": 2926,
      "mei": 2927,
      "mein": 2928,
      "mel": 2929,
      "mem": 2930,
      "men": 2931,
      "ment": 2932,
      "mer": 2933,
      "mes": 2934,
      "met": 2935,
      "metal": 2936,
      "mex": 2937,
      "mf": 2938,
      "mg": 2939,
      "mh": 2940,
      "mi": 2941,
      "mic": 2942,
      "michael": 2943,
      "michel": 2944,
      "mid": 2945,
      "mig": 2946,
      "miguel": 2947,
      "mik": 2948,
      "mike": 2949,
      "mil": 2950,
      "milan": 2951,
      "mill": 2952,
      "millah": 2953,
      "mim": 2954,
      "min": 2955,
      "ming": 2956,
      "minh": 2957,
      "mir": 2958,
      "mis": 2959,
      "mit": 2960,
      "mix": 2961,
      "mj": 2962,
      "mk": 2963,
      "ml": 2964,
      "mm": 2965,
      "mn": 2966,
      "mo": 2967,
      "mod": 2968,
      "moh": 2969,
      "moham": 2970,
      "mohamed": 2971,
      "mok": 2972,
      "mol": 2973,
      "mom": 2974,
      "mon": 2975,
      "money": 2976,
      "monkey": 2977,
      "moon": 2978,
      "mor": 2979,
      "mos": 2980,
      "mot": 2981,
      "motor": 2982,
      "mp": 2983,
      "mq": 2984,
      "mr": 2985,
      "ms": 2986,
      "mt": 2987,
      "mu": 2988,
      "mud": 2989,
      "muham": 2990,
      "muhammad": 2991,
      "muk": 2992,
      "mul": 2993,
      "mum": 2994,
      "mun": 2995,
      "mur": 2996,
      "murat": 2997,
      "mus": 2998,
      "music": 2999,
      "must": 3000,
      "mut": 3001,
      "mv": 3002,
      "mw": 3003,
      "mx": 3004,
      "my": 3005,
      "mylove": 3006,
      "mz": 3007,
      "n": 3008,
      "n0": 3009,
      "n1": 3010,
      "n123": 3011,
      "n2": 3012,
      "n3": 3013,
      "n4": 3014,
      "n5": 3015,
      "n6": 3016,
      "n7": 3017,
      "n8": 3018,
      "n9": 3019,
      "na": 3020,
      "nab": 3021,
      "nad": 3022,
      "nag": 3023,
      "nah": 3024,
      "nak": 3025,
      "nal": 3026,
      "nam": 3027,
      "nan": 3028,
      "nap": 3029,
      "nar": 3030,
      "naruto": 3031,
      "nas": 3032,
      "nat": 3033,
      "nav": 3034,
      "nay": 3035,
      "naz": 3036,
      "nb": 3037,
      "nc": 3038,
      "nd": 3039,
      "ne": 3040,
      "nel": 3041,
      "nem": 3042,
      "ner": 3043,
      "nes": 3044,
      "net": 3045,
      "new": 3046,
      "ney": 3047,
      "nf": 3048,
      "ng": 3049,
      "ngo": 3050,
      "ngoc": 3051,
      "ngu": 3052,
      "nguyen": 3053,
      "nh": 3054,
      "ni": 3055,
      "nia": 3056,
      "nic": 3057,
      "nick": 3058,
      "nico": 3059,
      "nie": 3060,
      "nig": 3061,
      "night": 3062,
      "nik": 3063,
      "nil": 3064,
      "nim": 3065,
      "nin": 3066,
      "ning": 3067,
      "nip": 3068,
      "nir": 3069,
      "nis": 3070,
      "nit": 3071,
      "nj": 3072,
      "nk": 3073,
      "nm": 3074,
      "nn": 3075,
      "no": 3076,
      "no1": 3077,
      "nok": 3078,
      "nokia": 3079,
      "nom": 3080,
      "non": 3081,
      "nop": 3082,
      "nor": 3083,
      "nos": 3084,
      "not": 3085,
      "nov": 3086,
      "now": 3087,
      "np": 3088,
      "ns": 3089,
      "nt": 3090,
      "nu": 3091,
      "num": 3092,
      "nun": 3093,
      "nur": 3094,
      "nut": 3095,
      "nv": 3096,
      "ny": 3097,
      "nz": 3098,
      "o": 3099,
      "o0": 3100,
      "o1": 3101,
      "o12": 3102,
      "o123": 3103,
      "o1234": 3104,
      "o123456": 3105,
      "o2": 3106,
      "o2008": 3107,
      "o2009": 3108,
      "o3": 3109,
      "o4": 3110,
      "o5": 3111,
      "o6": 3112,
      "o7": 3113,
      "o8": 3114,
      "o9": 3115,
      "o_": 3116,
      "ob": 3117,
      "oc": 3118,
      "od": 3119,
      "oda": 3120,
      "ode": 3121,
      "ody": 3122,
      "oe": 3123,
      "of": 3124,
      "off": 3125,
      "oft": 3126,
      "og": 3127,
      "oh": 3128,
      "oi": 3129,
      "oj": 3130,
      "ok": 3131,
      "oke": 3132,
      "oko": 3133,
      "oktober": 3134,
      "ol": 3135,
      "ol1": 3136,
      "ola": 3137,
      "olas": 3138,
      "old": 3139,
      "ole": 3140,
      "oli": 3141,
      "olin": 3142,
      "olo": 3143,
      "olog": 3144,
      "om": 3145,
      "oman": 3146,
      "omar": 3147,
      "omas": 3148,
      "ome": 3149,
      "omer": 3150,
      "omo": 3151,
      "on": 3152,
      "on1": 3153,
      "on123": 3154,
      "ona": 3155,
      "ond": 3156,
      "one": 3157,
      "ones": 3158,
      "ong": 3159,
      "ong123": 3160,
      "oni": 3161,
      "online": 3162,
      "only": 3163,
      "ono": 3164,
      "ony": 3165,
      "oo": 3166,
      "op": 3167,
      "open": 3168,
      "oper": 3169,
      "or": 3170,
      "or1": 3171,
      "ora": 3172,
      "orang": 3173,
      "ord": 3174,
      "ore": 3175,
      "org": 3176,
      "ori": 3177,
      "orn": 3178,
      "oro": 3179,
      "orp": 3180,
      "ort": 3181,
      "ory": 3182,
      "os": 3183,
      "os1": 3184,
      "os123": 3185,
      "osa": 3186,
      "oscar": 3187,
      "ose": 3188,
      "osh": 3189,
      "oso": 3190,
      "oss": 3191,
      "ost": 3192,
      "ot": 3193,
      "ota": 3194,
      "ote": 3195,
      "oth": 3196,
      "oto": 3197,
      "ou": 3198,
      "our": 3199,
      "ous": 3200,
      "out": 3201,
      "ov": 3202,
      "ova": 3203,
      "over": 3204,
      "ow": 3205,
      "own": 3206,
      "ox": 3207,
      "oy": 3208,
      "oz": 3209,
      "p": 3210,
      "p0": 3211,
      "p1": 3212,
      "p2": 3213,
      "p3": 3214,
      "p4": 3215,
      "p5": 3216,
      "p6": 3217,
      "p7": 3218,
      "p8": 3219,
      "p9": 3220,
      "p@": 3221,
      "pa": 3222,
      "pablo": 3223,
      "pac": 3224,
      "pad": 3225,
      "pag": 3226,
      "pak": 3227,
      "pal": 3228,
      "pam": 3229,
      "pan": 3230,
      "pand": 3231,
      "pang": 3232,
      "pap": 3233,
      "par": 3234,
      "pas": 3235,
      "pass": 3236,
      "password": 3237,
      "pat": 3238,
      "paul": 3239,
      "pav": 3240,
      "paw": 3241,
      "pay": 3242,
      "pb": 3243,
      "pc": 3244,
      "pd": 3245,
      "pe": 3246,
      "ped": 3247,
      "pedro": 3248,
      "pel": 3249,
      "pen": 3250,
      "peng": 3251,
      "pep": 3252,
      "per": 3253,
      "pes": 3254,
      "pet": 3255,
      "peter": 3256,
      "ph": 3257,
      "phil": 3258,
      "pho": 3259,
      "php": 3260,
      "phu": 3261,
      "pi": 3262,
      "pic": 3263,
      "pie": 3264,
      "pil": 3265,
      "pin": 3266,
      "ping": 3267,
      "pip": 3268,
      "pir": 3269,
      "pire": 3270,
      "pis": 3271,
      "pit": 3272,
      "pk": 3273,
      "pl": 3274,
      "pl]": 3275,
      "plan": 3276,
      "play": 3277,
      "ple": 3278,
      "plo": 3279,
      "pm": 3280,
      "po": 3281,
      "pod": 3282,
      "poi": 3283,
      "pok": 3284,
      "pol": 3285,
      "pom": 3286,
      "pon": 3287,
      "pong": 3288,
      "pop": 3289,
      "por": 3290,
      "port": 3291,
      "pos": 3292,
      "pot": 3293,
      "power": 3294,
      "pp": 3295,
      "ppy": 3296,
      "pq": 3297,
      "pr": 3298,
      "pra": 3299,
      "pras": 3300,
      "pre": 3301,
      "pres": 3302,
      "pri": 3303,
      "prin": 3304,
      "pro": 3305,
      "proj": 3306,
      "prom": 3307,
      "ps": 3308,
      "pt": 3309,
      "pu": 3310,
      "pul": 3311,
      "pun": 3312,
      "pur": 3313,
      "pus": 3314,
      "put": 3315,
      "puter": 3316,
      "pv": 3317,
      "pw": 3318,
      "py": 3319,
      "pz": 3320,
      "q": 3321,
      "q1": 3322,
      "q2": 3323,
      "q3": 3324,
      "q4": 3325,
      "q5": 3326,
      "q6": 3327,
      "q7": 3328,
      "q8": 3329,
      "q9": 3330,
      "qaz": 3331,
      "qazwsx": 3332,
      "qi": 3333,
      "qq": 3334,
      "qqqq": 3335,
      "qu": 3336,
      "quang": 3337,
      "que": 3338,
      "qw": 3339,
      "qwe": 3340,
      "qwer": 3341,
      "qwerty": 3342,
      "r": 3343,
      "r0": 3344,
      "r1": 3345,
      "r2": 3346,
      "r3": 3347,
      "r4": 3348,
      "r5": 3349,
      "r6": 3350,
      "r7": 3351,
      "r8": 3352,
      "r9": 3353,
      "ra": 3354,
      "ra1": 3355,
      "ra123": 3356,
      "rac": 3357,
      "rad": 3358,
      "radio": 3359,
      "raf": 3360,
      "rafa": 3361,
      "rafael": 3362,
      "rag": 3363,
      "rah": 3364,
      "rahas": 3365,
      "rahasia": 3366,
      "rahim": 3367,
      "rain": 3368,
      "raj": 3369,
      "rak": 3370,
      "ral": 3371,
      "ram": 3372,
      "ran": 3373,
      "rand": 3374,
      "rang": 3375,
      "rap": 3376,
      "ras": 3377,
      "rat": 3378,
      "ray": 3379,
      "raz": 3380,
      "rb": 3381,
      "rc": 3382,
      "rd": 3383,
      "re": 3384,
      "real": 3385,
      "ream": 3386,
      "rec": 3387,
      "red": 3388,
      "ree": 3389,
      "reg": 3390,
      "rel": 3391,
      "rem": 3392,
      "ren": 3393,
      "res": 3394,
      "ret": 3395,
      "rex": 3396,
      "rey": 3397,
      "reza": 3398,
      "rf": 3399,
      "rg": 3400,
      "rh": 3401,
      "ri": 3402,
      "ria": 3403,
      "rian": 3404,
      "ric": 3405,
      "rich": 3406,
      "rick": 3407,
      "rid": 3408,
      "riel": 3409,
      "rik": 3410,
      "ril": 3411,
      "rim": 3412,
      "rin": 3413,
      "ris": 3414,
      "rist": 3415,
      "rit": 3416,
      "rix": 3417,
      "riz": 3418,
      "rj": 3419,
      "rk": 3420,
      "rl": 3421,
      "rm": 3422,
      "rn": 3423,
      "ro": 3424,
      "robert": 3425,
      "rock": 3426,
      "rod": 3427,
      "rodri": 3428,
      "rodrigo": 3429,
      "rol": 3430,
      "rom": 3431,
      "roman": 3432,
      "ron": 3433,
      "root": 3434,
      "ror": 3435,
      "ros": 3436,
      "row": 3437,
      "rox": 3438,
      "roy": 3439,
      "rp": 3440,
      "rr": 3441,
      "rs": 3442,
      "rt": 3443,
      "ru": 3444,
      "rub": 3445,
      "rud": 3446,
      "rul": 3447,
      "rum": 3448,
      "run": 3449,
      "rus": 3450,
      "rv": 3451,
      "rw": 3452,
      "ry": 3453,
      "ryan": 3454,
      "rz": 3455,
      "s": 3456,
      "s0": 3457,
      "s1": 3458,
      "s12": 3459,
      "s123": 3460,
      "s2": 3461,
      "s2009": 3462,
      "s3": 3463,
      "s4": 3464,
      "s5": 3465,
      "s6": 3466,
      "s7": 3467,
      "s8": 3468,
      "s9": 3469,
      "s@": 3470,
      "sa": 3471,
      "sab": 3472,
      "sad": 3473,
      "saf": 3474,
      "sag": 3475,
      "sah": 3476,
      "sak": 3477,
      "sal": 3478,
      "sam": 3479,
      "samsung": 3480,
      "samuel": 3481,
      "san": 3482,
      "sand": 3483,
      "sang": 3484,
      "sant": 3485,
      "sap": 3486,
      "sar": 3487,
      "sas": 3488,
      "sat": 3489,
      "sav": 3490,
      "say": 3491,
      "sayang": 3492,
      "sb": 3493,
      "sc": 3494,
      "sch": 3495,
      "sco": 3496,
      "scorp": 3497,
      "sd": 3498,
      "se": 3499,
      "seb": 3500,
      "secre": 3501,
      "secret": 3502,
      "sed": 3503,
      "sek": 3504,
      "sel": 3505,
      "sem": 3506,
      "sen": 3507,
      "senha": 3508,
      "sep": 3509,
      "ser": 3510,
      "serg": 3511,
      "sergio": 3512,
      "server": 3513,
      "ses": 3514,
      "set": 3515,
      "sev": 3516,
      "sex": 3517,
      "sexy": 3518,
      "sey": 3519,
      "sf": 3520,
      "sg": 3521,
      "sh": 3522,
      "sha": 3523,
      "shad": 3524,
      "shadow": 3525,
      "shak": 3526,
      "shan": 3527,
      "shar": 3528,
      "she": 3529,
      "sher": 3530,
      "shin": 3531,
      "shit": 3532,
      "sho": 3533,
      "shop": 3534,
      "si": 3535,
      "sia": 3536,
      "sid": 3537,
      "sie": 3538,
      "sig": 3539,
      "sik": 3540,
      "sil": 3541,
      "silver": 3542,
      "sim": 3543,
      "sin": 3544,
      "sing": 3545,
      "sir": 3546,
      "sis": 3547,
      "sit": 3548,
      "site": 3549,
      "sj": 3550,
      "sk": 3551,
      "ski": 3552,
      "sky": 3553,
      "sl": 3554,
      "sm": 3555,
      "sma": 3556,
      "sn": 3557,
      "so": 3558,
      "sof": 3559,
      "soft": 3560,
      "sol": 3561,
      "som": 3562,
      "son": 3563,
      "song": 3564,
      "sony": 3565,
      "sop": 3566,
      "sor": 3567,
      "soul": 3568,
      "sp": 3569,
      "speed": 3570,
      "spider": 3571,
      "sq": 3572,
      "sr": 3573,
      "sri": 3574,
      "ss": 3575,
      "st": 3576,
      "stan": 3577,
      "star": 3578,
      "ste": 3579,
      "stef": 3580,
      "stem": 3581,
      "step": 3582,
      "ster": 3583,
      "ston": 3584,
      "str": 3585,
      "sty": 3586,
      "su": 3587,
      "sub": 3588,
      "suck": 3589,
      "sud": 3590,
      "sul": 3591,
      "sum": 3592,
      "sun": 3593,
      "sung": 3594,
      "super": 3595,
      "superman": 3596,
      "sur": 3597,
      "sus": 3598,
      "sv": 3599,
      "sw": 3600,
      "sweet": 3601,
      "sx": 3602,
      "sy": 3603,
      "syah": 3604,
      "system": 3605,
      "sz": 3606,
      "t": 3607,
      "t0": 3608,
      "t1": 3609,
      "t123": 3610,
      "t2": 3611,
      "t3": 3612,
      "t4": 3613,
      "t5": 3614,
      "t6": 3615,
      "t7": 3616,
      "t8": 3617,
      "t9": 3618,
      "ta": 3619,
      "ta123": 3620,
      "tab": 3621,
      "tafa": 3622,
      "tag": 3623,
      "tah": 3624,
      "tak": 3625,
      "tal": 3626,
      "tam": 3627,
      "tan": 3628,
      "tang": 3629,
      "tap": 3630,
      "tar": 3631,
      "tas": 3632,
      "tat": 3633,
      "tay": 3634,
      "taz": 3635,
      "tb": 3636,
      "tc": 3637,
      "td": 3638,
      "te": 3639,
      "team": 3640,
      "teamo": 3641,
      "tec": 3642,
      "tech": 3643,
      "ted": 3644,
      "tek": 3645,
      "tel": 3646,
      "tem": 3647,
      "ten": 3648,
      "ter": 3649,
      "tes": 3650,
      "test": 3651,
      "tet": 3652,
      "tex": 3653,
      "tf": 3654,
      "tg": 3655,
      "th": 3656,
      "tha": 3657,
      "than": 3658,
      "thang": 3659,
      "thanh": 3660,
      "the": 3661,
      "theb": 3662,
      "thebest": 3663,
      "them": 3664,
      "ther": 3665,
      "thi": 3666,
      "thing": 3667,
      "this": 3668,
      "thu": 3669,
      "thuy": 3670,
      "ti": 3671,
      "tian": 3672,
      "tien": 3673,
      "tig": 3674,
      "tiger": 3675,
      "tik": 3676,
      "tim": 3677,
      "tin": 3678,
      "ting": 3679,
      "tip": 3680,
      "tis": 3681,
      "tit": 3682,
      "tj": 3683,
      "tk": 3684,
      "tl": 3685,
      "tle": 3686,
      "tm": 3687,
      "tn": 3688,
      "to": 3689,
      "tober": 3690,
      "tok": 3691,
      "tol": 3692,
      "tom": 3693,
      "ton": 3694,
      "tong": 3695,
      "tony": 3696,
      "top": 3697,
      "tor": 3698,
      "tos": 3699,
      "tot": 3700,
      "tp": 3701,
      "tq": 3702,
      "tr": 3703,
      "tra": 3704,
      "tran": 3705,
      "tre": 3706,
      "tri": 3707,
      "tro": 3708,
      "tron": 3709,
      "tru": 3710,
      "trung": 3711,
      "try": 3712,
      "ts": 3713,
      "tt": 3714,
      "tu": 3715,
      "tuan": 3716,
      "tub": 3717,
      "tul": 3718,
      "tum": 3719,
      "tun": 3720,
      "tung": 3721,
      "tur": 3722,
      "tus": 3723,
      "tut": 3724,
      "tv": 3725,
      "tw": 3726,
      "tx": 3727,
      "ty": 3728,
      "tz": 3729,
      "u": 3730,
      "u1": 3731,
      "u12": 3732,
      "u123": 3733,
      "u2": 3734,
      "u3": 3735,
      "u4": 3736,
      "u5": 3737,
      "u6": 3738,
      "u7": 3739,
      "u8": 3740,
      "u9": 3741,
      "ua": 3742,
      "uan": 3743,
      "ub": 3744,
      "uc": 3745,
      "uch": 3746,
      "uck": 3747,
      "ud": 3748,
      "uda": 3749,
      "ude": 3750,
      "udi": 3751,
      "udio": 3752,
      "ue": 3753,
      "uel": 3754,
      "uf": 3755,
      "ug": 3756,
      "uh": 3757,
      "ui": 3758,
      "uiop": 3759,
      "uj": 3760,
      "uk": 3761,
      "uka": 3762,
      "ukas": 3763,
      "uke": 3764,
      "uki": 3765,
      "ul": 3766,
      "ula": 3767,
      "ull": 3768,
      "ullah": 3769,
      "ulo": 3770,
      "um": 3771,
      "um1": 3772,
      "uma": 3773,
      "umi": 3774,
      "un": 3775,
      "una": 3776,
      "und": 3777,
      "under": 3778,
      "ung": 3779,
      "uni": 3780,
      "unk": 3781,
      "unt": 3782,
      "uo": 3783,
      "up": 3784,
      "ur": 3785,
      "ura": 3786,
      "ure": 3787,
      "uri": 3788,
      "uro": 3789,
      "us": 3790,
      "us1": 3791,
      "us123": 3792,
      "usa": 3793,
      "use": 3794,
      "user": 3795,
      "ush": 3796,
      "ust": 3797,
      "ut": 3798,
      "ute": 3799,
      "uth": 3800,
      "ution": 3801,
      "uto": 3802,
      "uu": 3803,
      "uv": 3804,
      "ux": 3805,
      "uy": 3806,
      "uz": 3807,
      "v": 3808,
      "v0": 3809,
      "v1": 3810,
      "v2": 3811,
      "v3": 3812,
      "v4": 3813,
      "v5": 3814,
      "v7": 3815,
      "v8": 3816,
      "v9": 3817,
      "va": 3818,
      "val": 3819,
      "valent": 3820,
      "vam": 3821,
      "van": 3822,
      "var": 3823,
      "vas": 3824,
      "vat": 3825,
      "vb": 3826,
      "ve": 3827,
      "vel": 3828,
      "ven": 3829,
      "vent": 3830,
      "ver": 3831,
      "ves": 3832,
      "vet": 3833,
      "vf": 3834,
      "vi": 3835,
      "via": 3836,
      "vic": 3837,
      "victor": 3838,
      "vid": 3839,
      "vie": 3840,
      "viet": 3841,
      "vik": 3842,
      "vil": 3843,
      "vin": 3844,
      "vip": 3845,
      "vir": 3846,
      "vis": 3847,
      "vit": 3848,
      "viv": 3849,
      "vl": 3850,
      "vlad": 3851,
      "vn": 3852,
      "vo": 3853,
      "vol": 3854,
      "vs": 3855,
      "vu": 3856,
      "vv": 3857,
      "vy": 3858,
      "w": 3859,
      "w0": 3860,
      "w0r": 3861,
      "w0rd": 3862,
      "w1": 3863,
      "w2": 3864,
      "w3": 3865,
      "w4": 3866,
      "w5": 3867,
      "w6": 3868,
      "w7": 3869,
      "w8": 3870,
      "w9": 3871,
      "wMQ": 3872,
      "wMw": 3873,
      "wNw": 3874,
      "wOA": 3875,
      "wa": 3876,
      "wah": 3877,
      "wak": 3878,
      "wal": 3879,
      "wall": 3880,
      "wan": 3881,
      "wang": 3882,
      "wap": 3883,
      "war": 3884,
      "ward": 3885,
      "was": 3886,
      "wat": 3887,
      "water": 3888,
      "way": 3889,
      "wb": 3890,
      "wd": 3891,
      "we": 3892,
      "web": 3893,
      "webhost": 3894,
      "wed": 3895,
      "weet": 3896,
      "wei": 3897,
      "wel": 3898,
      "well": 3899,
      "wen": 3900,
      "wer": 3901,
      "wes": 3902,
      "west": 3903,
      "wh": 3904,
      "what": 3905,
      "wi": 3906,
      "wid": 3907,
      "wil": 3908,
      "will": 3909,
      "william": 3910,
      "win": 3911,
      "wind": 3912,
      "windo": 3913,
      "windows": 3914,
      "wis": 3915,
      "wit": 3916,
      "wj": 3917,
      "wk": 3918,
      "wl": 3919,
      "wn": 3920,
      "wo": 3921,
      "wol": 3922,
      "wolf": 3923,
      "won": 3924,
      "wood": 3925,
      "wor": 3926,
      "word": 3927,
      "work": 3928,
      "world": 3929,
      "wow": 3930,
      "wp": 3931,
      "wq": 3932,
      "wr": 3933,
      "ws": 3934,
      "wsx": 3935,
      "wt": 3936,
      "wu": 3937,
      "ww": 3938,
      "www": 3939,
      "www.": 3940,
      "wx": 3941,
      "wy": 3942,
      "wz": 3943,
      "x": 3944,
      "x1": 3945,
      "x123": 3946,
      "x2": 3947,
      "x3": 3948,
      "x4": 3949,
      "x5": 3950,
      "x6": 3951,
      "x7": 3952,
      "x8": 3953,
      "x9": 3954,
      "xMA": 3955,
      "xMQ": 3956,
      "xMw": 3957,
      "xNA": 3958,
      "xNQ": 3959,
      "xNg": 3960,
      "xNw": 3961,
      "xOA": 3962,
      "xOQ": 3963,
      "xa": 3964,
      "xc": 3965,
      "xd": 3966,
      "xi": 3967,
      "xia": 3968,
      "xiao": 3969,
      "xin": 3970,
      "xl": 3971,
      "xp": 3972,
      "xsw": 3973,
      "xt": 3974,
      "xu": 3975,
      "xx": 3976,
      "xxx": 3977,
      "xxxx": 3978,
      "xy": 3979,
      "xz": 3980,
      "y": 3981,
      "y0": 3982,
      "y1": 3983,
      "y12": 3984,
      "y123": 3985,
      "y2": 3986,
      "y3": 3987,
      "y4": 3988,
      "y5": 3989,
      "y6": 3990,
      "y7": 3991,
      "y8": 3992,
      "y9": 3993,
      "yMQ": 3994,
      "yMw": 3995,
      "yNA": 3996,
      "yNQ": 3997,
      "yNg": 3998,
      "yNw": 3999,
      "ya": 4000,
      "yah": 4001,
      "yahoo": 4002,
      "yak": 4003,
      "yam": 4004,
      "yan": 4005,
      "yang": 4006,
      "yar": 4007,
      "yas": 4008,
      "yass": 4009,
      "yd": 4010,
      "ye": 4011,
      "yen": 4012,
      "yes": 4013,
      "yeu": 4014,
      "yf": 4015,
      "yg": 4016,
      "yh": 4017,
      "yi": 4018,
      "yj": 4019,
      "yk": 4020,
      "yl": 4021,
      "yn": 4022,
      "yo": 4023,
      "yos": 4024,
      "you": 4025,
      "yp": 4026,
      "ys": 4027,
      "yt": 4028,
      "yu": 4029,
      "yud": 4030,
      "yul": 4031,
      "yun": 4032,
      "yus": 4033,
      "yx": 4034,
      "yy": 4035,
      "yz": 4036,
      "z": 4037,
      "z0": 4038,
      "z1": 4039,
      "z123": 4040,
      "z2": 4041,
      "z3": 4042,
      "z4": 4043,
      "z5": 4044,
      "z7": 4045,
      "z8": 4046,
      "z9": 4047,
      "zA": 4048,
      "zE": 4049,
      "zI": 4050,
      "zM": 4051,
      "zMQ": 4052,
      "zMg": 4053,
      "zMw": 4054,
      "zNA": 4055,
      "zNg": 4056,
      "zNw": 4057,
      "zOQ": 4058,
      "zQ": 4059,
      "zU": 4060,
      "zY": 4061,
      "za": 4062,
      "zah": 4063,
      "zak": 4064,
      "zal": 4065,
      "zam": 4066,
      "zan": 4067,
      "zap": 4068,
      "zaq": 4069,
      "zar": 4070,
      "ze": 4071,
      "zel": 4072,
      "zen": 4073,
      "zer": 4074,
      "zero": 4075,
      "zh": 4076,
      "zhang": 4077,
      "zi": 4078,
      "zin": 4079,
      "zj": 4080,
      "zo": 4081,
      "zon": 4082,
      "zu": 4083,
      "zul": 4084,
      "zx": 4085,
      "zxc": 4086,
      "zxcv": 4087,
      "zxcvbn": 4088,
      "zy": 4089,
      "zz": 4090,
      "zzzz": 4091,
      "{": 4092,
      "|": 4093,
      "}": 4094,
      "~": 4095
    },
    "merges": [
      [
        "1",
        "2"
      ],
      [
        "a",
        "n"
      ],
      [
        "0",
        "0"
      ],
      [
        "12",
        "3"
      ],
      [
        "1",
        "9"
      ],
      [
        "e",
        "r"
      ],
      [
        "a",
        "r"
      ],
      [
        "i",
        "n"
      ],
      [
        "a",
        "s"
      ],
      [
        "o",
        "n"
      ],
      [
        "a",
        "l"
      ],
      [
        "1",
        "0"
      ],
      [
        "e",
        "n"
      ],
      [
        "a",
        "m"
      ],
      [
        "4",
        "5"
      ],
      [
        "2",
        "00"
      ],
      [
        "1",
        "1"
      ],
      [
        "e",
        "l"
      ],
      [
        "a",
        "t"
      ],
      [
        "o",
        "r"
      ],
      [
        "e",
        "s"
      ],
      [
        "19",
        "8"
      ],
      [
        "1",
        "3"
      ],
      [
        "i",
        "s"
      ],
      [
        "a",
        "d"
      ],
      [
        "i",
        "l"
      ],
      [
        "2",
        "0"
      ],
      [
        "c",
        "h"
      ],
      [
        "i",
        "t"
      ],
      [
        "2",
        "3"
      ],
      [
        "o",
        "l"
      ],
      [
        "1",
        "5"
      ],
      [
        "2",
        "5"
      ],
      [
        "1",
        "4"
      ],
      [
        "8",
        "8"
      ],
      [
        "6",
        "6"
      ],
      [
        "o",
        "s"
      ],
      [
        "7",
        "8"
      ],
      [
        "r",
        "a"
      ],
      [
        "u",
        "n"
      ],
      [
        "r",
        "e"
      ],
      [
        "0",
        "9"
      ],
      [
        "m",
        "a"
      ],
      [
        "123",
        "45"
      ],
      [
        "7",
        "7"
      ],
      [
        "2",
        "2"
      ],
      [
        "0",
        "8"
      ],
      [
        "o",
        "m"
      ],
      [
        "e",
        "t"
      ],
      [
        "u",
        "s"
      ],
      [
        "9",
        "9"
      ],
      [
        "a",
        "b"
      ],
      [
        "19",
        "9"
      ],
      [
        "i",
        "c"
      ],
      [
        "0",
        "5"
      ],
      [
        "1",
        "8"
      ],
      [
        "1",
        "6"
      ],
      [
        "2",
        "4"
      ],
      [
        "0",
        "3"
      ],
      [
        "a",
        "k"
      ],
      [
        "12345",
        "6"
      ],
      [
        "1",
        "7"
      ],
      [
        "e",
        "m"
      ],
      [
        "r",
        "o"
      ],
      [
        "e",
        "d"
      ],
      [
        "0",
        "6"
      ],
      [
        "i",
        "m"
      ],
      [
        "i",
        "k"
      ],
      [
        "0",
        "7"
      ],
      [
        "2",
        "1"
      ],
      [
        "an",
        "g"
      ],
      [
        "h",
        "a"
      ],
      [
        "2",
        "6"
      ],
      [
        "0",
        "4"
      ],
      [
        "0",
        "1"
      ],
      [
        "3",
        "3"
      ],
      [
        "5",
        "5"
      ],
      [
        "l",
        "o"
      ],
      [
        "2",
        "8"
      ],
      [
        "i",
        "a"
      ],
      [
        "i",
        "d"
      ],
      [
        "t",
        "h"
      ],
      [
        "u",
        "r"
      ],
      [
        "200",
        "9"
      ],
      [
        "u",
        "l"
      ],
      [
        "an",
        "d"
      ],
      [
        "2",
        "7"
      ],
      [
        "a",
        "c"
      ],
      [
        "6",
        "9"
      ],
      [
        "2",
        "9"
      ],
      [
        "a",
        "y"
      ],
      [
        "i",
        "r"
      ],
      [
        "a",
        "h"
      ],
      [
        "8",
        "7"
      ],
      [
        "8",
        "9"
      ],
      [
        "l",
        "e"
      ],
      [
        "e",
        "b"
      ],
      [
        "s",
        "t"
      ],
      [
        "200",
        "8"
      ],
      [
        "u",
        "t"
      ],
      [
        "o",
        "t"
      ],
      [
        "6",
        "5"
      ],
      [
        "8",
        "5"
      ],
      [
        "123",
        "4"
      ],
      [
        "in",
        "g"
      ],
      [
        "a",
        "p"
      ],
      [
        "7",
        "9"
      ],
      [
        "r",
        "i"
      ],
      [
        "4",
        "4"
      ],
      [
        "o",
        "k"
      ],
      [
        "7",
        "5"
      ],
      [
        "a",
        "g"
      ],
      [
        "s",
        "h"
      ],
      [
        "3",
        "5"
      ],
      [
        "i",
        "e"
      ],
      [
        "i",
        "g"
      ],
      [
        "m",
        "ar"
      ],
      [
        "o",
        "d"
      ],
      [
        "8",
        "6"
      ],
      [
        "o",
        "p"
      ],
      [
        "c",
        "k"
      ],
      [
        "a",
        "1"
      ],
      [
        "m",
        "an"
      ],
      [
        "0",
        "2"
      ],
      [
        "8",
        "4"
      ],
      [
        "a",
        "v"
      ],
      [
        "a",
        "z"
      ],
      [
        "7",
        "4"
      ],
      [
        "3",
        "4"
      ],
      [
        "d",
        "e"
      ],
      [
        "u",
        "m"
      ],
      [
        "e",
        "k"
      ],
      [
        "l",
        "i"
      ],
      [
        "t",
        "er"
      ],
      [
        "b",
        "o"
      ],
      [
        "6",
        "3"
      ],
      [
        "c",
        "o"
      ],
      [
        "on",
        "g"
      ],
      [
        "8",
        "3"
      ],
      [
        "v",
        "e"
      ],
      [
        "i",
        "o"
      ],
      [
        "u",
        "d"
      ],
      [
        "7",
        "6"
      ],
      [
        "t",
        "e"
      ],
      [
        "78",
        "9"
      ],
      [
        "1",
        "00"
      ],
      [
        "l",
        "u"
      ],
      [
        "4",
        "3"
      ],
      [
        "t",
        "o"
      ],
      [
        "7",
        "3"
      ],
      [
        "s",
        "e"
      ],
      [
        "9",
        "5"
      ],
      [
        "m",
        "e"
      ],
      [
        "t",
        "a"
      ],
      [
        "t",
        "r"
      ],
      [
        "9",
        "3"
      ],
      [
        "d",
        "o"
      ],
      [
        "i",
        "p"
      ],
      [
        "as",
        "s"
      ],
      [
        "00",
        "7"
      ],
      [
        "s",
        "u"
      ],
      [
        "v",
        "er"
      ],
      [
        "00",
        "0"
      ],
      [
        "i",
        "an"
      ],
      [
        "t",
        "y"
      ],
      [
        "h",
        "o"
      ],
      [
        "k",
        "a"
      ],
      [
        "n",
        "e"
      ],
      [
        "9",
        "0"
      ],
      [
        "g",
        "o"
      ],
      [
        "s",
        "a"
      ],
      [
        "6",
        "4"
      ],
      [
        "3",
        "0"
      ],
      [
        "9",
        "4"
      ],
      [
        "j",
        "o"
      ],
      [
        "c",
        "om"
      ],
      [
        "m",
        "o"
      ],
      [
        "l",
        "a"
      ],
      [
        "a",
        "a"
      ],
      [
        "66",
        "6"
      ],
      [
        "e",
        "p"
      ],
      [
        "q",
        "u"
      ],
      [
        "n",
        "o"
      ],
      [
        "m",
        "y"
      ],
      [
        "h",
        "an"
      ],
      [
        "m",
        "in"
      ],
      [
        "e",
        "1"
      ],
      [
        "w",
        "eb"
      ],
      [
        "e",
        "c"
      ],
      [
        "5",
        "6"
      ],
      [
        "5",
        "4"
      ],
      [
        "8",
        "2"
      ],
      [
        "i",
        "b"
      ],
      [
        "u",
        "k"
      ],
      [
        "9",
        "2"
      ],
      [
        "3",
        "6"
      ],
      [
        "an",
        "t"
      ],
      [
        "a",
        "123"
      ],
      [
        "e",
        "y"
      ],
      [
        "8",
        "0"
      ],
      [
        "p",
        "er"
      ],
      [
        "h",
        "u"
      ],
      [
        "3",
        "2"
      ],
      [
        "os",
        "t"
      ],
      [
        "q",
        "w"
      ],
      [
        "b",
        "er"
      ],
      [
        "s",
        "p"
      ],
      [
        "i",
        "z"
      ],
      [
        "9",
        "1"
      ],
      [
        "g",
        "u"
      ],
      [
        "un",
        "g"
      ],
      [
        "y",
        "o"
      ],
      [
        "s",
        "o"
      ],
      [
        "0",
        "10"
      ],
      [
        "6",
        "7"
      ],
      [
        "p",
        "r"
      ],
      [
        "198",
        "7"
      ],
      [
        "6",
        "8"
      ],
      [
        "es",
        "t"
      ],
      [
        "e",
        "x"
      ],
      [
        "1",
        "10"
      ],
      [
        "i",
        "f"
      ],
      [
        "b",
        "r"
      ],
      [
        "c",
        "ar"
      ],
      [
        "i",
        "v"
      ],
      [
        "d",
        "a"
      ],
      [
        "i",
        "on"
      ],
      [
        "al",
        "l"
      ],
      [
        "a",
        "j"
      ],
      [
        "il",
        "l"
      ],
      [
        "1",
        "12"
      ],
      [
        "u",
        "b"
      ],
      [
        "9",
        "6"
      ],
      [
        "4",
        "6"
      ],
      [
        "p",
        "o"
      ],
      [
        "s",
        "k"
      ],
      [
        "h",
        "e"
      ],
      [
        "M",
        "A"
      ],
      [
        "9",
        "8"
      ],
      [
        "5",
        "3"
      ],
      [
        "n",
        "a"
      ],
      [
        "198",
        "6"
      ],
      [
        "7",
        "2"
      ],
      [
        "u",
        "p"
      ],
      [
        "e",
        "v"
      ],
      [
        "k",
        "o"
      ],
      [
        "7",
        "0"
      ],
      [
        "y",
        "a"
      ],
      [
        "198",
        "8"
      ],
      [
        "g",
        "h"
      ],
      [
        "l",
        "in"
      ],
      [
        "45",
        "6"
      ],
      [
        "8",
        "1"
      ],
      [
        "en",
        "t"
      ],
      [
        "198",
        "9"
      ],
      [
        "4",
        "n"
      ],
      [
        "d",
        "an"
      ],
      [
        "198",
        "5"
      ],
      [
        "p",
        "l"
      ],
      [
        "c",
        "a"
      ],
      [
        "15",
        "9"
      ],
      [
        "as",
        "d"
      ],
      [
        "f",
        "r"
      ],
      [
        "in",
        "a"
      ],
      [
        "d",
        "i"
      ],
      [
        "en",
        "g"
      ],
      [
        "s",
        "on"
      ],
      [
        "3",
        "1"
      ],
      [
        "x",
        "x"
      ],
      [
        "f",
        "f"
      ],
      [
        "a",
        "w"
      ],
      [
        "e",
        "g"
      ],
      [
        "7",
        "1"
      ],
      [
        "s",
        "s"
      ],
      [
        "198",
        "4"
      ],
      [
        "h",
        "i"
      ],
      [
        "c",
        "r"
      ],
      [
        "199",
        "0"
      ],
      [
        "N",
        "A"
      ],
      [
        "h",
        "ost"
      ],
      [
        "h",
        "ar"
      ],
      [
        "j",
        "u"
      ],
      [
        "s",
        "am"
      ],
      [
        "m",
        "i"
      ],
      [
        "m",
        "as"
      ],
      [
        "b",
        "l"
      ],
      [
        "b",
        "a"
      ],
      [
        "m",
        "at"
      ],
      [
        "an",
        "a"
      ],
      [
        "2",
        "10"
      ],
      [
        "s",
        "1"
      ],
      [
        "f",
        "a"
      ],
      [
        "z",
        "a"
      ],
      [
        "l",
        "y"
      ],
      [
        "123456",
        "789"
      ],
      [
        "or",
        "d"
      ],
      [
        "3",
        "7"
      ],
      [
        "en",
        "d"
      ],
      [
        "c",
        "e"
      ],
      [
        "p",
        "a"
      ],
      [
        "77",
        "7"
      ],
      [
        "j",
        "a"
      ],
      [
        "199",
        "1"
      ],
      [
        "5",
        "2"
      ],
      [
        "is",
        "t"
      ],
      [
        "200",
        "7"
      ],
      [
        "al",
        "i"
      ],
      [
        "b",
        "e"
      ],
      [
        "o",
        "1"
      ],
      [
        "M",
        "w"
      ],
      [
        "o",
        "v"
      ],
      [
        "g",
        "r"
      ],
      [
        "199",
        "2"
      ],
      [
        "h",
        "am"
      ],
      [
        "5",
        "9"
      ],
      [
        "k",
        "ar"
      ],
      [
        "4",
        "7"
      ],
      [
        "m",
        "on"
      ],
      [
        "u",
        "g"
      ],
      [
        "ic",
        "k"
      ],
      [
        "s",
        "er"
      ],
      [
        "w",
        "e"
      ],
      [
        "3",
        "r"
      ],
      [
        "5",
        "8"
      ],
      [
        "f",
        "e"
      ],
      [
        "11",
        "1"
      ],
      [
        "0",
        "20"
      ],
      [
        "i",
        "1"
      ],
      [
        "it",
        "a"
      ],
      [
        "4",
        "8"
      ],
      [
        "3",
        "21"
      ],
      [
        "p",
        "h"
      ],
      [
        "4",
        "2"
      ],
      [
        "s",
        "m"
      ],
      [
        "9",
        "7"
      ],
      [
        "z",
        "z"
      ],
      [
        "s",
        "y"
      ],
      [
        "ac",
        "k"
      ],
      [
        "c",
        "c"
      ],
      [
        "j",
        "k"
      ],
      [
        "r",
        "y"
      ],
      [
        "198",
        "3"
      ],
      [
        "5",
        "0"
      ],
      [
        "5",
        "7"
      ],
      [
        "1",
        "n"
      ],
      [
        "ar",
        "t"
      ],
      [
        "e",
        "123"
      ],
      [
        "el",
        "l"
      ],
      [
        "199",
        "3"
      ],
      [
        "ar",
        "i"
      ],
      [
        "p",
        "ass"
      ],
      [
        "200",
        "0"
      ],
      [
        "4",
        "9"
      ],
      [
        "M",
        "Q"
      ],
      [
        "as",
        "t"
      ],
      [
        "h",
        "t"
      ],
      [
        "o",
        "o"
      ],
      [
        "ab",
        "c"
      ],
      [
        "N",
        "w"
      ],
      [
        "O",
        "Q"
      ],
      [
        "O",
        "A"
      ],
      [
        "g",
        "a"
      ],
      [
        "N",
        "Q"
      ],
      [
        "as",
        "h"
      ],
      [
        "f",
        "or"
      ],
      [
        "lo",
        "ve"
      ],
      [
        "it",
        "o"
      ],
      [
        "in",
        "d"
      ],
      [
        "ar",
        "d"
      ],
      [
        "in",
        "e"
      ],
      [
        "u",
        "c"
      ],
      [
        "N",
        "g"
      ],
      [
        "3",
        "8"
      ],
      [
        "198",
        "2"
      ],
      [
        "2",
        "20"
      ],
      [
        "n",
        "y"
      ],
      [
        "h",
        "er"
      ],
      [
        "3",
        "9"
      ],
      [
        "i",
        "123"
      ],
      [
        "m",
        "ad"
      ],
      [
        "M",
        "g"
      ],
      [
        "f",
        "re"
      ],
      [
        ".",
        "com"
      ],
      [
        "o",
        "g"
      ],
      [
        "m",
        "er"
      ],
      [
        "s",
        "c"
      ],
      [
        "e",
        "z"
      ],
      [
        "o",
        "w"
      ],
      [
        "00",
        "1"
      ],
      [
        "us",
        "t"
      ],
      [
        "4",
        "0"
      ],
      [
        "m",
        "m"
      ],
      [
        "i",
        "x"
      ],
      [
        "es",
        "s"
      ],
      [
        "o",
        "c"
      ],
      [
        "m",
        "u"
      ],
      [
        "t",
        "u"
      ],
      [
        "6",
        "0"
      ],
      [
        "f",
        "l"
      ],
      [
        "k",
        "u"
      ],
      [
        "g",
        "e"
      ],
      [
        "4",
        "r"
      ],
      [
        "q",
        "q"
      ],
      [
        "b",
        "ar"
      ],
      [
        "n",
        "et"
      ],
      [
        "s",
        "an"
      ],
      [
        "is",
        "h"
      ],
      [
        "11",
        "11"
      ],
      [
        "198",
        "0"
      ],
      [
        "f",
        "er"
      ],
      [
        "p",
        "p"
      ],
      [
        "200",
        "6"
      ],
      [
        "p",
        "ar"
      ],
      [
        "6",
        "2"
      ],
      [
        "a",
        "2"
      ],
      [
        "y",
        "u"
      ],
      [
        "f",
        "i"
      ],
      [
        "d",
        "j"
      ],
      [
        "d",
        "r"
      ],
      [
        "p",
        "ro"
      ],
      [
        "z",
        "x"
      ],
      [
        "b",
        "b"
      ],
      [
        "d",
        "ar"
      ],
      [
        "199",
        "4"
      ],
      [
        "c",
        "on"
      ],
      [
        "s",
        "l"
      ],
      [
        "f",
        "o"
      ],
      [
        "k",
        "r"
      ],
      [
        "c",
        "l"
      ],
      [
        "4",
        "1"
      ],
      [
        "i",
        "j"
      ],
      [
        "ch",
        "a"
      ],
      [
        "0",
        "n"
      ],
      [
        "200",
        "5"
      ],
      [
        "f",
        "u"
      ],
      [
        "s",
        "al"
      ],
      [
        "e",
        "e"
      ],
      [
        "00",
        "00"
      ],
      [
        "ad",
        "min"
      ],
      [
        "er",
        "o"
      ],
      [
        "99",
        "9"
      ],
      [
        "i",
        "y"
      ],
      [
        "qw",
        "er"
      ],
      [
        "j",
        "an"
      ],
      [
        "0",
        "r"
      ],
      [
        "14",
        "3"
      ],
      [
        "10",
        "1"
      ],
      [
        "d",
        "u"
      ],
      [
        "0",
        "12"
      ],
      [
        "k",
        "h"
      ],
      [
        "5",
        "1"
      ],
      [
        "f",
        "t"
      ],
      [
        "198",
        "1"
      ],
      [
        "j",
        "e"
      ],
      [
        "b",
        "y"
      ],
      [
        "bo",
        "y"
      ],
      [
        "am",
        "a"
      ],
      [
        "s",
        "d"
      ],
      [
        "in",
        "t"
      ],
      [
        "an",
        "h"
      ],
      [
        "v",
        "i"
      ],
      [
        "ar",
        "a"
      ],
      [
        "w",
        "w"
      ],
      [
        "web",
        "host"
      ],
      [
        "3",
        "00"
      ],
      [
        "r",
        "u"
      ],
      [
        "k",
        "i"
      ],
      [
        "88",
        "8"
      ],
      [
        "s",
        "w"
      ],
      [
        "s",
        "i"
      ],
      [
        "d",
        "en"
      ],
      [
        "t",
        "or"
      ],
      [
        "m",
        "al"
      ],
      [
        "w",
        "h"
      ],
      [
        "t",
        "i"
      ],
      [
        "d",
        "y"
      ],
      [
        "6",
        "1"
      ],
      [
        "ik",
        "a"
      ],
      [
        "ma",
        "il"
      ],
      [
        "w",
        "in"
      ],
      [
        "t",
        "on"
      ],
      [
        "ic",
        "a"
      ],
      [
        "5",
        "20"
      ],
      [
        "e",
        "ver"
      ],
      [
        "o",
        "u"
      ],
      [
        "m",
        "ed"
      ],
      [
        "c",
        "y"
      ],
      [
        "it",
        "e"
      ],
      [
        "p",
        "e"
      ],
      [
        "9",
        "87"
      ],
      [
        "19",
        "79"
      ],
      [
        "b",
        "u"
      ],
      [
        "o",
        "123"
      ],
      [
        "j",
        "un"
      ],
      [
        "w",
        "an"
      ],
      [
        "n",
        "i"
      ],
      [
        "r",
        "am"
      ],
      [
        "78",
        "6"
      ],
      [
        "k",
        "y"
      ],
      [
        "3",
        "n"
      ],
      [
        "g",
        "g"
      ],
      [
        "w",
        "s"
      ],
      [
        "2",
        "12"
      ],
      [
        "w",
        "ar"
      ],
      [
        "at",
        "e"
      ],
      [
        "l",
        "l"
      ],
      [
        "o",
        "b"
      ],
      [
        "on",
        "e"
      ],
      [
        "55",
        "5"
      ],
      [
        "c",
        "an"
      ],
      [
        "h",
        "n"
      ],
      [
        "il",
        "o"
      ],
      [
        "m",
        "et"
      ],
      [
        "A",
        "N"
      ],
      [
        "19",
        "78"
      ],
      [
        "p",
        "at"
      ],
      [
        "d",
        "d"
      ],
      [
        "ma",
        "x"
      ],
      [
        "al",
        "ex"
      ],
      [
        "i",
        "el"
      ],
      [
        "p",
        "ol"
      ],
      [
        "k",
        "k"
      ],
      [
        "d",
        "er"
      ],
      [
        "v",
        "an"
      ],
      [
        "k",
        "e"
      ],
      [
        "y",
        "an"
      ],
      [
        "a",
        "f"
      ],
      [
        "12",
        "12"
      ],
      [
        "14",
        "7"
      ],
      [
        "d",
        "es"
      ],
      [
        "d",
        "f"
      ],
      [
        "d",
        "1"
      ],
      [
        "m",
        "il"
      ],
      [
        "r",
        "os"
      ],
      [
        "s",
        "en"
      ],
      [
        "w",
        "a"
      ],
      [
        "ol",
        "a"
      ],
      [
        "w",
        "er"
      ],
      [
        "ha",
        "ck"
      ],
      [
        "at",
        "i"
      ],
      [
        "j",
        "os"
      ],
      [
        "199",
        "5"
      ],
      [
        "p",
        "an"
      ],
      [
        "h",
        "y"
      ],
      [
        "k",
        "er"
      ],
      [
        "b",
        "ab"
      ],
      [
        "s",
        "n"
      ],
      [
        "z",
        "y"
      ],
      [
        "mas",
        "ter"
      ],
      [
        "k",
        "an"
      ],
      [
        "w",
        "ord"
      ],
      [
        "*",
        "*"
      ],
      [
        "g",
        "er"
      ],
      [
        "c",
        "i"
      ],
      [
        "v",
        "in"
      ],
      [
        "t",
        "t"
      ],
      [
        "e",
        "f"
      ],
      [
        "l",
        "ol"
      ],
      [
        "c",
        "as"
      ],
      [
        "ch",
        "o"
      ],
      [
        "43",
        "21"
      ],
      [
        "12",
        "5"
      ],
      [
        "k",
        "l"
      ],
      [
        "E",
        "R"
      ],
      [
        "p",
        "i"
      ],
      [
        "ang",
        "el"
      ],
      [
        "at",
        "a"
      ],
      [
        "c",
        "or"
      ],
      [
        "T",
        "A"
      ],
      [
        "c",
        "u"
      ],
      [
        "al",
        "a"
      ],
      [
        "75",
        "3"
      ],
      [
        "j",
        "h"
      ],
      [
        "w",
        "n"
      ],
      [
        "m",
        "r"
      ],
      [
        "w",
        "o"
      ],
      [
        "b",
        "i"
      ],
      [
        "s",
        "un"
      ],
      [
        "b",
        "en"
      ],
      [
        "j",
        "am"
      ],
      [
        "t",
        "1"
      ],
      [
        "ra",
        "g"
      ],
      [
        "y",
        "1"
      ],
      [
        "200",
        "4"
      ],
      [
        "a",
        "3"
      ],
      [
        "j",
        "c"
      ],
      [
        "k",
        "s"
      ],
      [
        "re",
        "d"
      ],
      [
        "D",
        "A"
      ],
      [
        "k",
        "1"
      ],
      [
        "k",
        "am"
      ],
      [
        "13",
        "5"
      ],
      [
        "10",
        "10"
      ],
      [
        "t",
        "an"
      ],
      [
        "n",
        "g"
      ],
      [
        "e",
        "u"
      ],
      [
        "b",
        "an"
      ],
      [
        "j",
        "i"
      ],
      [
        "l",
        "an"
      ],
      [
        "yo",
        "u"
      ],
      [
        "m",
        "4"
      ],
      [
        "m",
        "or"
      ],
      [
        "t",
        "om"
      ],
      [
        "v",
        "a"
      ],
      [
        "l",
        "am"
      ],
      [
        "er",
        "1"
      ],
      [
        "p",
        "or"
      ],
      [
        "h",
        "as"
      ],
      [
        "200",
        "3"
      ],
      [
        "z",
        "h"
      ],
      [
        "19",
        "77"
      ],
      [
        "g",
        "ar"
      ],
      [
        "r",
        "on"
      ],
      [
        "20",
        "10"
      ],
      [
        "n",
        "ik"
      ],
      [
        "qwer",
        "ty"
      ],
      [
        "ad",
        "e"
      ],
      [
        "at",
        "h"
      ],
      [
        "es",
        "h"
      ],
      [
        "al",
        "e"
      ],
      [
        "t",
        "in"
      ],
      [
        "m",
        "us"
      ],
      [
        "j",
        "ul"
      ],
      [
        "y",
        "n"
      ],
      [
        "d",
        "el"
      ],
      [
        "D",
        "E"
      ],
      [
        "c",
        "v"
      ],
      [
        "d",
        "s"
      ],
      [
        "ma",
        "g"
      ],
      [
        "p",
        "ut"
      ],
      [
        "u",
        "ra"
      ],
      [
        "c",
        "s"
      ],
      [
        "ad",
        "i"
      ],
      [
        "65",
        "4"
      ],
      [
        "c",
        "t"
      ],
      [
        "D",
        "I"
      ],
      [
        "a",
        "12"
      ],
      [
        "c",
        "ol"
      ],
      [
        "T",
        "E"
      ],
      [
        "b",
        "n"
      ],
      [
        "s",
        "ol"
      ],
      [
        "25",
        "8"
      ],
      [
        "T",
        "I"
      ],
      [
        "m",
        "el"
      ],
      [
        "e",
        "2"
      ],
      [
        "c",
        "at"
      ],
      [
        "m",
        "1"
      ],
      [
        "u",
        "y"
      ],
      [
        "g",
        "i"
      ],
      [
        "k",
        "4"
      ],
      [
        "s",
        "3"
      ],
      [
        "a",
        "i"
      ],
      [
        "lo",
        "v"
      ],
      [
        "23",
        "3"
      ],
      [
        "s",
        "4"
      ],
      [
        "g",
        "am"
      ],
      [
        "q",
        "az"
      ],
      [
        "r",
        "an"
      ],
      [
        "in",
        "o"
      ],
      [
        "ch",
        "e"
      ],
      [
        "33",
        "3"
      ],
      [
        "m",
        "p"
      ],
      [
        "f",
        "h"
      ],
      [
        "th",
        "e"
      ],
      [
        ".",
        "."
      ],
      [
        "g",
        "re"
      ],
      [
        "k",
        "n"
      ],
      [
        "s",
        "123"
      ],
      [
        "ch",
        "i"
      ],
      [
        "d",
        "3"
      ],
      [
        "c",
        "am"
      ],
      [
        "f",
        "ar"
      ],
      [
        "n",
        "am"
      ],
      [
        "s",
        "ar"
      ],
      [
        "200",
        "2"
      ],
      [
        "b",
        "el"
      ],
      [
        "ad",
        "a"
      ],
      [
        "c",
        "al"
      ],
      [
        "c",
        "el"
      ],
      [
        "x",
        "y"
      ],
      [
        "k",
        "ing"
      ],
      [
        "d",
        "on"
      ],
      [
        "j",
        "j"
      ],
      [
        "1",
        "19"
      ],
      [
        "ma",
        "h"
      ],
      [
        "3",
        "10"
      ],
      [
        "o",
        "f"
      ],
      [
        "o",
        "y"
      ],
      [
        "o",
        "z"
      ],
      [
        "r",
        "is"
      ],
      [
        "c",
        "n"
      ],
      [
        "19",
        "75"
      ],
      [
        "ro",
        "ck"
      ],
      [
        "s",
        "im"
      ],
      [
        "t",
        "ra"
      ],
      [
        "m",
        "am"
      ],
      [
        "d",
        "av"
      ],
      [
        "23",
        "4"
      ],
      [
        "g",
        "l"
      ],
      [
        "19",
        "76"
      ],
      [
        "r",
        "en"
      ],
      [
        "12",
        "0"
      ],
      [
        "b",
        "al"
      ],
      [
        "g",
        "y"
      ],
      [
        "g",
        "1"
      ],
      [
        "b",
        "at"
      ],
      [
        "s",
        "at"
      ],
      [
        "s",
        "ha"
      ],
      [
        "g",
        "en"
      ],
      [
        "su",
        "per"
      ],
      [
        "in",
        "i"
      ],
      [
        "c",
        "1"
      ],
      [
        "t",
        "im"
      ],
      [
        "an",
        "1"
      ],
      [
        "m",
        "n"
      ],
      [
        "il",
        "a"
      ],
      [
        "i",
        "ra"
      ],
      [
        "ic",
        "o"
      ],
      [
        "m",
        "3"
      ],
      [
        "v",
        "al"
      ],
      [
        "u",
        "z"
      ],
      [
        "u",
        "el"
      ],
      [
        "a",
        "5"
      ],
      [
        "c",
        "3"
      ],
      [
        "a",
        "4"
      ],
      [
        "l",
        "os"
      ],
      [
        "e",
        "h"
      ],
      [
        "t",
        "ar"
      ],
      [
        "l",
        "1"
      ],
      [
        "d",
        "h"
      ],
      [
        "ic",
        "e"
      ],
      [
        "s",
        "il"
      ],
      [
        "g",
        "ol"
      ],
      [
        "r",
        "om"
      ],
      [
        "st",
        "ar"
      ],
      [
        "T",
        "Y"
      ],
      [
        "c",
        "4"
      ],
      [
        "w",
        "or"
      ],
      [
        "20",
        "3"
      ],
      [
        "p",
        "al"
      ],
      [
        "s",
        "2"
      ],
      [
        "j",
        "es"
      ],
      [
        "m",
        "is"
      ],
      [
        "p",
        "t"
      ],
      [
        "d",
        "4"
      ],
      [
        "1",
        "45"
      ],
      [
        "b",
        "as"
      ],
      [
        "9",
        "11"
      ],
      [
        "and",
        "re"
      ],
      [
        "12",
        "4"
      ],
      [
        "c",
        "re"
      ],
      [
        "k",
        "al"
      ],
      [
        "n",
        "at"
      ],
      [
        "19",
        "74"
      ],
      [
        "ak",
        "u"
      ],
      [
        "i",
        "h"
      ],
      [
        "r",
        "es"
      ],
      [
        "co",
        "ol"
      ],
      [
        "m",
        "s"
      ],
      [
        "22",
        "2"
      ],
      [
        "e",
        "4"
      ],
      [
        "f",
        "g"
      ],
      [
        "c",
        "0"
      ],
      [
        "m",
        "b"
      ],
      [
        "t",
        "4"
      ],
      [
        "en",
        "a"
      ],
      [
        "an",
        "i"
      ],
      [
        "k",
        "en"
      ],
      [
        "u",
        "f"
      ],
      [
        "A",
        "S"
      ],
      [
        "d",
        "in"
      ],
      [
        "!",
        "@"
      ],
      [
        "r",
        "ad"
      ],
      [
        "s",
        "el"
      ],
      [
        "p",
        "et"
      ],
      [
        "v",
        "en"
      ],
      [
        "m",
        "c"
      ],
      [
        "19",
        "73"
      ],
      [
        "T",
        "U"
      ],
      [
        "an",
        "123"
      ],
      [
        "s",
        "r"
      ],
      [
        "h",
        "el"
      ],
      [
        "p",
        "as"
      ],
      [
        "t",
        "k"
      ],
      [
        "er",
        "s"
      ],
      [
        "11",
        "3"
      ],
      [
        "fu",
        "ck"
      ],
      [
        "ay",
        "a"
      ],
      [
        "f",
        "1"
      ],
      [
        "2",
        "13"
      ],
      [
        "m",
        "en"
      ],
      [
        "200",
        "1"
      ],
      [
        "b",
        "1"
      ],
      [
        "ig",
        "ht"
      ],
      [
        "a",
        "x"
      ],
      [
        "k",
        "as"
      ],
      [
        "k",
        "3"
      ],
      [
        "qw",
        "e"
      ],
      [
        "u",
        "x"
      ],
      [
        "it",
        "h"
      ],
      [
        "199",
        "6"
      ],
      [
        "fr",
        "an"
      ],
      [
        "w",
        "i"
      ],
      [
        "c",
        "d"
      ],
      [
        "it",
        "y"
      ],
      [
        "id",
        "e"
      ],
      [
        "an",
        "n"
      ],
      [
        "j",
        "on"
      ],
      [
        "ilo",
        "ve"
      ],
      [
        "j",
        "r"
      ],
      [
        "g",
        "4"
      ],
      [
        "n",
        "ar"
      ],
      [
        "ne",
        "w"
      ],
      [
        "12",
        "1"
      ],
      [
        "b",
        "h"
      ],
      [
        "t",
        "3"
      ],
      [
        "t",
        "el"
      ],
      [
        "00",
        "9"
      ],
      [
        "ik",
        "e"
      ],
      [
        "ad",
        "o"
      ],
      [
        "18",
        "2"
      ],
      [
        "l",
        "d"
      ],
      [
        "D",
        "U"
      ],
      [
        "n",
        "h"
      ],
      [
        "s",
        "z"
      ],
      [
        "13",
        "14"
      ],
      [
        "b",
        "on"
      ],
      [
        "p",
        "u"
      ],
      [
        "er",
        "123"
      ],
      [
        "d",
        "am"
      ],
      [
        "k",
        "at"
      ],
      [
        "ra",
        "h"
      ],
      [
        "A",
        "R"
      ],
      [
        "c",
        "z"
      ],
      [
        "e",
        "3"
      ],
      [
        "es",
        "1"
      ],
      [
        "35",
        "7"
      ],
      [
        "g",
        "t"
      ],
      [
        "k",
        "0"
      ],
      [
        "b",
        "or"
      ],
      [
        "h",
        "1"
      ],
      [
        "10",
        "20"
      ],
      [
        "b",
        "4"
      ],
      [
        "f",
        "y"
      ],
      [
        "h",
        "4"
      ],
      [
        "000",
        "webhost"
      ],
      [
        "i",
        "am"
      ],
      [
        "u",
        "1"
      ],
      [
        "0",
        "11"
      ],
      [
        "is",
        "a"
      ],
      [
        "00",
        "8"
      ],
      [
        "!",
        "!"
      ],
      [
        "p",
        "le"
      ],
      [
        "j",
        "d"
      ],
      [
        "p",
        "en"
      ],
      [
        "A",
        "L"
      ],
      [
        "as",
        "1"
      ],
      [
        "j",
        "g"
      ],
      [
        "n",
        "u"
      ],
      [
        "s",
        "in"
      ],
      [
        "2",
        "k"
      ],
      [
        "f",
        "an"
      ],
      [
        "ma",
        "y"
      ],
      [
        "p",
        "1"
      ],
      [
        "f",
        "d"
      ],
      [
        "t",
        "re"
      ],
      [
        "b",
        "in"
      ],
      [
        "w",
        "al"
      ],
      [
        "I",
        "N"
      ],
      [
        "n",
        "n"
      ],
      [
        "D",
        "Y"
      ],
      [
        "h",
        "ot"
      ],
      [
        "k",
        "in"
      ],
      [
        "t",
        "s"
      ],
      [
        "asd",
        "f"
      ],
      [
        "T",
        "M"
      ],
      [
        "al",
        "o"
      ],
      [
        "p",
        "op"
      ],
      [
        "an",
        "o"
      ],
      [
        "88",
        "88"
      ],
      [
        "D",
        "M"
      ],
      [
        "i",
        "2"
      ],
      [
        "b",
        "d"
      ],
      [
        "s",
        "and"
      ],
      [
        "j",
        "or"
      ],
      [
        "ju",
        "an"
      ],
      [
        "p",
        "re"
      ],
      [
        "pass",
        "word"
      ],
      [
        "t",
        "am"
      ],
      [
        "d",
        "em"
      ],
      [
        "g",
        "ab"
      ],
      [
        "y",
        "ah"
      ],
      [
        "D",
        "Q"
      ],
      [
        "m",
        "k"
      ],
      [
        "y",
        "123"
      ],
      [
        "O",
        "N"
      ],
      [
        "m",
        "l"
      ],
      [
        "w",
        "il"
      ],
      [
        "g",
        "od"
      ],
      [
        "j",
        "as"
      ],
      [
        "n",
        "1"
      ],
      [
        "0",
        "18"
      ],
      [
        "g",
        "ra"
      ],
      [
        "v",
        "ic"
      ],
      [
        "v",
        "o"
      ],
      [
        "w",
        "1"
      ],
      [
        "b",
        "is"
      ],
      [
        "k",
        "om"
      ],
      [
        "ul",
        "l"
      ],
      [
        "b",
        "ang"
      ],
      [
        "n",
        "d"
      ],
      [
        "w",
        "at"
      ],
      [
        "a",
        "u"
      ],
      [
        "n",
        "er"
      ],
      [
        "d",
        "ie"
      ],
      [
        "li",
        "fe"
      ],
      [
        "bl",
        "ack"
      ],
      [
        "h",
        "h"
      ],
      [
        "j",
        "ack"
      ],
      [
        "s",
        "em"
      ],
      [
        "k",
        "ill"
      ],
      [
        "65",
        "4321"
      ],
      [
        "f",
        "c"
      ],
      [
        "f",
        "k"
      ],
      [
        "i",
        "en"
      ],
      [
        "p",
        "ap"
      ],
      [
        "10",
        "5"
      ],
      [
        "p",
        "s"
      ],
      [
        "el",
        "a"
      ],
      [
        "y",
        "s"
      ],
      [
        "ch",
        "u"
      ],
      [
        "4",
        "ever"
      ],
      [
        "d",
        "l"
      ],
      [
        "16",
        "8"
      ],
      [
        "r",
        "1"
      ],
      [
        "dan",
        "iel"
      ],
      [
        "s",
        "ur"
      ],
      [
        "id",
        "a"
      ],
      [
        "123",
        "123"
      ],
      [
        "T",
        "Q"
      ],
      [
        "b",
        "et"
      ],
      [
        "e",
        "w"
      ],
      [
        "3",
        "69"
      ],
      [
        "4",
        "20"
      ],
      [
        "v",
        "is"
      ],
      [
        "z",
        "1"
      ],
      [
        "t",
        "ha"
      ],
      [
        "ia",
        "1"
      ],
      [
        "2",
        "23"
      ],
      [
        "s",
        "ay"
      ],
      [
        "w",
        "3"
      ],
      [
        "as",
        "123"
      ],
      [
        "t",
        "al"
      ],
      [
        "e",
        "5"
      ],
      [
        "m",
        "d"
      ],
      [
        "p",
        "4"
      ],
      [
        "85",
        "2"
      ],
      [
        "j",
        "ak"
      ],
      [
        "lo",
        "g"
      ],
      [
        "f",
        "el"
      ],
      [
        "u",
        "i"
      ],
      [
        "y",
        "en"
      ],
      [
        "a",
        "7"
      ],
      [
        "c",
        "x"
      ],
      [
        "de",
        "v"
      ],
      [
        "i",
        "er"
      ],
      [
        "p",
        "in"
      ],
      [
        "o",
        "2"
      ],
      [
        "w",
        "ang"
      ],
      [
        "19",
        "72"
      ],
      [
        "0",
        "88"
      ],
      [
        "25",
        "5"
      ],
      [
        "ch",
        "ar"
      ],
      [
        "g",
        "un"
      ],
      [
        "j",
        "ay"
      ],
      [
        "o",
        "h"
      ],
      [
        "t",
        "op"
      ],
      [
        "c",
        "ap"
      ],
      [
        "l",
        "0"
      ],
      [
        "f",
        "v"
      ],
      [
        "9",
        "63"
      ],
      [
        "t",
        "n"
      ],
      [
        "b",
        "ur"
      ],
      [
        "h",
        "ol"
      ],
      [
        "x",
        "1"
      ],
      [
        "2",
        "11"
      ],
      [
        "e",
        "12"
      ],
      [
        "and",
        "a"
      ],
      [
        "k",
        "im"
      ],
      [
        "q",
        "1"
      ],
      [
        "t",
        "ur"
      ],
      [
        "d",
        "om"
      ],
      [
        "i",
        "us"
      ],
      [
        "t",
        "w"
      ],
      [
        "0",
        "19"
      ],
      [
        "am",
        "o"
      ],
      [
        "99",
        "99"
      ],
      [
        "e",
        "i"
      ],
      [
        "s",
        "ak"
      ],
      [
        "g",
        "et"
      ],
      [
        "l",
        "3"
      ],
      [
        "@",
        "@"
      ],
      [
        "d",
        "b"
      ],
      [
        "19",
        "71"
      ],
      [
        "5",
        "00"
      ],
      [
        "j",
        "l"
      ],
      [
        "b",
        "lu"
      ],
      [
        "k",
        "on"
      ],
      [
        "l",
        "es"
      ],
      [
        "z",
        "e"
      ],
      [
        "10",
        "3"
      ],
      [
        "25",
        "6"
      ],
      [
        "t",
        "ri"
      ],
      [
        "l",
        "et"
      ],
      [
        "z",
        "o"
      ],
      [
        "el",
        "o"
      ],
      [
        "t",
        "0"
      ],
      [
        "66",
        "66"
      ],
      [
        "a",
        "ch"
      ],
      [
        "g",
        "al"
      ],
      [
        "k",
        "ur"
      ],
      [
        "p",
        "y"
      ],
      [
        "123456",
        "7"
      ],
      [
        "i",
        "4"
      ],
      [
        "r",
        "at"
      ],
      [
        "a",
        "9"
      ],
      [
        "c",
        "ra"
      ],
      [
        "i",
        "ch"
      ],
      [
        "n",
        "an"
      ],
      [
        "un",
        "d"
      ],
      [
        "k",
        "ey"
      ],
      [
        "123456",
        "78"
      ],
      [
        "c",
        "2"
      ],
      [
        "o",
        "x"
      ],
      [
        "10",
        "8"
      ],
      [
        "j",
        "av"
      ],
      [
        "a",
        "6"
      ],
      [
        "c",
        "er"
      ],
      [
        "i",
        "3"
      ],
      [
        "n",
        "as"
      ],
      [
        "10",
        "4"
      ],
      [
        "s",
        "as"
      ],
      [
        "f",
        "il"
      ],
      [
        "j",
        "4"
      ],
      [
        "ma",
        "k"
      ],
      [
        "0",
        "28"
      ],
      [
        "b",
        "all"
      ],
      [
        "m",
        "ur"
      ],
      [
        "b",
        "v"
      ],
      [
        "k",
        "it"
      ],
      [
        "n",
        "is"
      ],
      [
        "y",
        "y"
      ],
      [
        "b",
        "3"
      ],
      [
        "p",
        "c"
      ],
      [
        "t",
        "en"
      ],
      [
        "f",
        "at"
      ],
      [
        "h",
        "om"
      ],
      [
        "E",
        "L"
      ],
      [
        "ma",
        "c"
      ],
      [
        "b",
        "ad"
      ],
      [
        "y",
        "4"
      ],
      [
        "45",
        "5"
      ],
      [
        "E",
        "N"
      ],
      [
        "f",
        "4"
      ],
      [
        "b",
        "ig"
      ],
      [
        "m",
        "t"
      ],
      [
        "r",
        "3"
      ],
      [
        "h",
        "al"
      ],
      [
        "b",
        "ra"
      ],
      [
        "b",
        "re"
      ],
      [
        "R",
        "A"
      ],
      [
        "ch",
        "en"
      ],
      [
        "@",
        "123"
      ],
      [
        "a",
        "o"
      ],
      [
        "k",
        "2"
      ],
      [
        "p",
        "ed"
      ],
      [
        "00",
        "3"
      ],
      [
        "12",
        "6"
      ],
      [
        "159",
        "753"
      ],
      [
        "d",
        "0"
      ],
      [
        "d",
        "ay"
      ],
      [
        "g",
        "3"
      ],
      [
        "g",
        "n"
      ],
      [
        "mail",
        ".com"
      ],
      [
        "w",
        "ay"
      ],
      [
        "!@",
        "#"
      ],
      [
        "15",
        "3"
      ],
      [
        "jo",
        "hn"
      ],
      [
        "u",
        "an"
      ],
      [
        "k",
        "ak"
      ],
      [
        "s",
        "ab"
      ],
      [
        "15",
        "4"
      ],
      [
        "l",
        "4"
      ],
      [
        "s",
        "ite"
      ],
      [
        "100",
        "0"
      ],
      [
        "19",
        "70"
      ],
      [
        "g",
        "an"
      ],
      [
        "r",
        "as"
      ],
      [
        "or",
        "e"
      ],
      [
        "r",
        "4"
      ],
      [
        "r",
        "us"
      ],
      [
        "t",
        "est"
      ],
      [
        "th",
        "er"
      ],
      [
        "y",
        "e"
      ],
      [
        "c",
        "es"
      ],
      [
        "15",
        "5"
      ],
      [
        "b",
        "ro"
      ],
      [
        "c",
        "os"
      ],
      [
        "i",
        "12"
      ],
      [
        "ol",
        "o"
      ],
      [
        "15",
        "7"
      ],
      [
        "19",
        "69"
      ],
      [
        "g",
        "s"
      ],
      [
        "qu",
        "e"
      ],
      [
        "k",
        "el"
      ],
      [
        "l",
        "ad"
      ],
      [
        "l",
        "as"
      ],
      [
        "th",
        "anh"
      ],
      [
        "ch",
        "an"
      ],
      [
        "m",
        "ir"
      ],
      [
        "10",
        "9"
      ],
      [
        "15",
        "6"
      ],
      [
        "78",
        "5"
      ],
      [
        "a",
        "8"
      ],
      [
        "0",
        "13"
      ],
      [
        "h",
        "on"
      ],
      [
        "m",
        "ot"
      ],
      [
        "u",
        "j"
      ],
      [
        "v",
        "ol"
      ],
      [
        "r",
        "ic"
      ],
      [
        "b",
        "c"
      ],
      [
        "hack",
        "er"
      ],
      [
        "z",
        "i"
      ],
      [
        "am",
        "e"
      ],
      [
        "jes",
        "us"
      ],
      [
        "jun",
        "i"
      ],
      [
        "st",
        "er"
      ],
      [
        "15",
        "0"
      ],
      [
        "R",
        "I"
      ],
      [
        "g",
        "0"
      ],
      [
        "p",
        "k"
      ],
      [
        "g",
        "j"
      ],
      [
        "or",
        "a"
      ],
      [
        "re",
        "am"
      ],
      [
        "11",
        "5"
      ],
      [
        "d",
        "rag"
      ],
      [
        "dar",
        "k"
      ],
      [
        "25",
        "25"
      ],
      [
        "ac",
        "e"
      ],
      [
        "13",
        "2"
      ],
      [
        "and",
        "y"
      ],
      [
        "n",
        "ic"
      ],
      [
        "p",
        "3"
      ],
      [
        "in",
        "ho"
      ],
      [
        "m",
        "x"
      ],
      [
        "r",
        "t"
      ],
      [
        "sk",
        "y"
      ],
      [
        "u",
        "123"
      ],
      [
        "00",
        "5"
      ],
      [
        "12",
        "8"
      ],
      [
        "l",
        "ar"
      ],
      [
        "n",
        "3"
      ],
      [
        "12",
        "2"
      ],
      [
        "24",
        "6"
      ],
      [
        "w",
        "l"
      ],
      [
        "E",
        "S"
      ],
      [
        "g",
        "b"
      ],
      [
        "h",
        "k"
      ],
      [
        "in",
        "ter"
      ],
      [
        "ra",
        "k"
      ],
      [
        "h",
        "en"
      ],
      [
        "v",
        "3"
      ],
      [
        "08",
        "5"
      ],
      [
        "g",
        "w"
      ],
      [
        "in",
        "h"
      ],
      [
        "b",
        "ol"
      ],
      [
        "i",
        "5"
      ],
      [
        "i",
        "ma"
      ],
      [
        "p",
        "ak"
      ],
      [
        "ro",
        "d"
      ],
      [
        "st",
        "e"
      ],
      [
        "@",
        "g"
      ],
      [
        "d",
        "k"
      ],
      [
        "em",
        "on"
      ],
      [
        "go",
        "od"
      ],
      [
        "h",
        "at"
      ],
      [
        "l",
        "il"
      ],
      [
        "b",
        "il"
      ],
      [
        "em",
        "an"
      ],
      [
        "j",
        "n"
      ],
      [
        "d",
        "m"
      ],
      [
        "h",
        "r"
      ],
      [
        "10",
        "6"
      ],
      [
        "A",
        "B"
      ],
      [
        "at",
        "o"
      ],
      [
        "l",
        "and"
      ],
      [
        "2",
        "14"
      ],
      [
        "le",
        "y"
      ],
      [
        "dav",
        "id"
      ],
      [
        "r",
        "0"
      ],
      [
        "0",
        "29"
      ],
      [
        "199",
        "7"
      ],
      [
        "an",
        "e"
      ],
      [
        "b",
        "s"
      ],
      [
        "w",
        "y"
      ],
      [
        "$",
        "$"
      ],
      [
        "22",
        "4"
      ],
      [
        "b",
        "k"
      ],
      [
        "m",
        "ik"
      ],
      [
        "j",
        "y"
      ],
      [
        "at",
        "or"
      ],
      [
        "00",
        "2"
      ],
      [
        "A",
        "M"
      ],
      [
        "m",
        "em"
      ],
      [
        "m",
        "os"
      ],
      [
        "00",
        "4"
      ],
      [
        "23",
        "5"
      ],
      [
        "45",
        "4"
      ],
      [
        "u",
        "h"
      ],
      [
        "c",
        "od"
      ],
      [
        "er",
        "a"
      ],
      [
        "j",
        "p"
      ],
      [
        "k",
        "ol"
      ],
      [
        "O",
        "R"
      ],
      [
        "e",
        "o"
      ],
      [
        "l",
        "ong"
      ],
      [
        "20",
        "12"
      ],
      [
        "m",
        "h"
      ],
      [
        "t",
        "ro"
      ],
      [
        "i",
        "i"
      ],
      [
        "3",
        "13"
      ],
      [
        "b",
        "ag"
      ],
      [
        "z",
        "A"
      ],
      [
        "fre",
        "e"
      ],
      [
        "id",
        "er"
      ],
      [
        "is",
        "s"
      ],
      [
        "or",
        "n"
      ],
      [
        "18",
        "5"
      ],
      [
        "am",
        "an"
      ],
      [
        "b",
        "ud"
      ],
      [
        "f",
        "ab"
      ],
      [
        "w",
        "ol"
      ],
      [
        "r",
        "r"
      ],
      [
        "w",
        "4"
      ],
      [
        "y",
        "as"
      ],
      [
        "ah",
        "med"
      ],
      [
        "g",
        "on"
      ],
      [
        "m",
        "ill"
      ],
      [
        "11",
        "4"
      ],
      [
        "20",
        "5"
      ],
      [
        "g",
        "or"
      ],
      [
        "p",
        "on"
      ],
      [
        "id",
        "o"
      ],
      [
        "m",
        "g"
      ],
      [
        "00",
        "6"
      ],
      [
        "2",
        "25"
      ],
      [
        "r",
        "il"
      ],
      [
        "ws",
        "x"
      ],
      [
        "ar",
        "o"
      ],
      [
        "ig",
        "n"
      ],
      [
        "p",
        "0"
      ],
      [
        "p",
        "el"
      ],
      [
        "16",
        "5"
      ],
      [
        "77",
        "77"
      ],
      [
        "ber",
        "t"
      ],
      [
        "j",
        "Q"
      ],
      [
        "v",
        "1"
      ],
      [
        "h",
        "g"
      ],
      [
        "os",
        "s"
      ],
      [
        "ri",
        "an"
      ],
      [
        "s",
        "x"
      ],
      [
        "19",
        "68"
      ],
      [
        "ed",
        "u"
      ],
      [
        "l",
        "im"
      ],
      [
        "m",
        "ic"
      ],
      [
        "es",
        "123"
      ],
      [
        "ian",
        "a"
      ],
      [
        "k",
        "z"
      ],
      [
        "ra",
        "j"
      ],
      [
        "in",
        "1"
      ],
      [
        "m",
        "0"
      ],
      [
        "n",
        "ur"
      ],
      [
        "ra",
        "p"
      ],
      [
        "s",
        "5"
      ],
      [
        "s",
        "it"
      ],
      [
        "h",
        "ab"
      ],
      [
        "j",
        "U"
      ],
      [
        "p",
        "ep"
      ],
      [
        "s",
        "ant"
      ],
      [
        "x",
        "ia"
      ],
      [
        "ar",
        "e"
      ],
      [
        "b",
        "0"
      ],
      [
        "b",
        "us"
      ],
      [
        "fi",
        "re"
      ],
      [
        "26",
        "3"
      ],
      [
        "C",
        "H"
      ],
      [
        "ra",
        "y"
      ],
      [
        "s",
        "et"
      ],
      [
        "s",
        "um"
      ],
      [
        "st",
        "r"
      ],
      [
        "13",
        "4"
      ],
      [
        "v",
        "el"
      ],
      [
        "f",
        "in"
      ],
      [
        "f",
        "n"
      ],
      [
        "j",
        "1"
      ],
      [
        "j",
        "A"
      ],
      [
        "k",
        "5"
      ],
      [
        "on",
        "a"
      ],
      [
        "t",
        "l"
      ],
      [
        "10",
        "7"
      ],
      [
        "ar",
        "do"
      ],
      [
        "b",
        "ir"
      ],
      [
        "f",
        "3"
      ],
      [
        "j",
        "er"
      ],
      [
        "m",
        "it"
      ],
      [
        "10",
        "2"
      ],
      [
        "p",
        "un"
      ],
      [
        "pa",
        "ul"
      ],
      [
        "c",
        "in"
      ],
      [
        "f",
        "ir"
      ],
      [
        "n",
        "or"
      ],
      [
        "h",
        "3"
      ],
      [
        "l",
        "on"
      ],
      [
        "16",
        "3"
      ],
      [
        "b",
        "lo"
      ],
      [
        "j",
        "en"
      ],
      [
        "k",
        "w"
      ],
      [
        "l",
        "or"
      ],
      [
        "s",
        "om"
      ],
      [
        "te",
        "ch"
      ],
      [
        "v",
        "v"
      ],
      [
        "23",
        "6"
      ],
      [
        "I",
        "S"
      ],
      [
        "et",
        "a"
      ],
      [
        "l",
        "en"
      ],
      [
        "lu",
        "is"
      ],
      [
        "mo",
        "ham"
      ],
      [
        "s",
        "ad"
      ],
      [
        "m",
        "un"
      ],
      [
        "s",
        "ch"
      ],
      [
        "t",
        "ig"
      ],
      [
        "19",
        "67"
      ],
      [
        "20",
        "6"
      ],
      [
        "O",
        "L"
      ],
      [
        "d",
        "is"
      ],
      [
        "m",
        "z"
      ],
      [
        "p",
        "ir"
      ],
      [
        "22",
        "6"
      ],
      [
        "d",
        "c"
      ],
      [
        "f",
        "un"
      ],
      [
        "I",
        "L"
      ],
      [
        "b",
        "and"
      ],
      [
        "g",
        "5"
      ],
      [
        "h",
        "ak"
      ],
      [
        "s",
        "us"
      ],
      [
        "12",
        "9"
      ],
      [
        "O",
        "S"
      ],
      [
        "q",
        "2"
      ],
      [
        "u",
        "2"
      ],
      [
        "v",
        "it"
      ],
      [
        "25",
        "4"
      ],
      [
        "78",
        "7"
      ],
      [
        "g",
        "z"
      ],
      [
        "ha",
        "y"
      ],
      [
        "n",
        "gu"
      ],
      [
        "23",
        "0"
      ],
      [
        "d",
        "2"
      ],
      [
        "m",
        "and"
      ],
      [
        "3",
        "03"
      ],
      [
        "3",
        "45"
      ],
      [
        "as",
        "ter"
      ],
      [
        "at",
        "ion"
      ],
      [
        "b",
        "2"
      ],
      [
        "d",
        "n"
      ],
      [
        "h",
        "un"
      ],
      [
        "k",
        "j"
      ],
      [
        "m",
        "2"
      ],
      [
        "p",
        "w"
      ],
      [
        "18",
        "7"
      ],
      [
        "88",
        "9"
      ],
      [
        "c",
        "ia"
      ],
      [
        "m",
        "od"
      ],
      [
        "u",
        "a"
      ],
      [
        "19",
        "7"
      ],
      [
        "ad",
        "or"
      ],
      [
        "ch",
        "in"
      ],
      [
        "e",
        "a"
      ],
      [
        "is",
        "1"
      ],
      [
        "m",
        "j"
      ],
      [
        "t",
        "v"
      ],
      [
        "12",
        "7"
      ],
      [
        "j",
        "ust"
      ],
      [
        "p",
        "ur"
      ],
      [
        "u",
        "re"
      ],
      [
        "1111",
        "11"
      ],
      [
        "13",
        "3"
      ],
      [
        "d",
        "z"
      ],
      [
        "j",
        "ar"
      ],
      [
        "n",
        "ok"
      ],
      [
        "aa",
        "aa"
      ],
      [
        "e",
        "7"
      ],
      [
        "j",
        "Y"
      ],
      [
        "car",
        "los"
      ],
      [
        "g",
        "2"
      ],
      [
        "i",
        "re"
      ],
      [
        "te",
        "am"
      ],
      [
        "ut",
        "o"
      ],
      [
        "14",
        "4"
      ],
      [
        "18",
        "9"
      ],
      [
        "h",
        "0"
      ],
      [
        "h",
        "p"
      ],
      [
        "ha",
        "i"
      ],
      [
        "k",
        "et"
      ],
      [
        "ot",
        "o"
      ],
      [
        "ik",
        "o"
      ],
      [
        "x",
        "p"
      ],
      [
        "1",
        "a"
      ],
      [
        "k",
        "os"
      ],
      [
        "sh",
        "ad"
      ],
      [
        "t",
        "ak"
      ],
      [
        "yah",
        "oo"
      ],
      [
        "09",
        "0"
      ],
      [
        "20",
        "4"
      ],
      [
        "R",
        "E"
      ],
      [
        "c",
        "5"
      ],
      [
        "drag",
        "on"
      ],
      [
        "g",
        "ir"
      ],
      [
        "16",
        "9"
      ],
      [
        "ho",
        "ang"
      ],
      [
        "in",
        "ha"
      ],
      [
        "j",
        "s"
      ],
      [
        "v",
        "ir"
      ],
      [
        "13",
        "13"
      ],
      [
        "A",
        "n"
      ],
      [
        "j",
        "M"
      ],
      [
        "le",
        "x"
      ],
      [
        "z",
        "U"
      ],
      [
        "11",
        "7"
      ],
      [
        "e",
        "9"
      ],
      [
        "h",
        "2"
      ],
      [
        "k",
        "ok"
      ],
      [
        "mar",
        "t"
      ],
      [
        "A",
        "A"
      ],
      [
        "f",
        "lo"
      ],
      [
        "n",
        "es"
      ],
      [
        "p",
        "ri"
      ],
      [
        "w",
        "q"
      ],
      [
        "19",
        "05"
      ],
      [
        "am",
        "ar"
      ],
      [
        "bab",
        "y"
      ],
      [
        "d",
        "im"
      ],
      [
        "i",
        "9"
      ],
      [
        "un",
        "a"
      ],
      [
        "25",
        "0"
      ],
      [
        "g",
        "at"
      ],
      [
        "r",
        "in"
      ],
      [
        "zx",
        "c"
      ],
      [
        "26",
        "4"
      ],
      [
        "et",
        "h"
      ],
      [
        "f",
        "b"
      ],
      [
        "ia",
        "123"
      ],
      [
        "lin",
        "e"
      ],
      [
        "m",
        "ig"
      ],
      [
        "no",
        "w"
      ],
      [
        "10",
        "12"
      ],
      [
        "@g",
        "mail.com"
      ],
      [
        "ec",
        "t"
      ],
      [
        "on",
        "1"
      ],
      [
        "po",
        "wer"
      ],
      [
        "s",
        "0"
      ],
      [
        "z",
        "I"
      ],
      [
        "11",
        "6"
      ],
      [
        "19",
        "3"
      ],
      [
        "24",
        "4"
      ],
      [
        "26",
        "5"
      ],
      [
        "f",
        "x"
      ],
      [
        "4",
        "u"
      ],
      [
        "c",
        "en"
      ],
      [
        "ing",
        "1"
      ],
      [
        "m",
        "es"
      ],
      [
        "s",
        "v"
      ],
      [
        "t",
        "ek"
      ],
      [
        "24",
        "7"
      ],
      [
        "3",
        "14"
      ],
      [
        "d",
        "al"
      ],
      [
        "i",
        "u"
      ],
      [
        "19",
        "66"
      ],
      [
        "g",
        "x"
      ],
      [
        "55",
        "55"
      ],
      [
        "am",
        "or"
      ],
      [
        "as",
        "a"
      ],
      [
        "ch",
        "el"
      ],
      [
        "o",
        "5"
      ],
      [
        "t",
        "it"
      ],
      [
        "xx",
        "x"
      ],
      [
        "0",
        "17"
      ],
      [
        "az",
        "er"
      ],
      [
        "d",
        "or"
      ],
      [
        "d",
        "ra"
      ],
      [
        "d",
        "v"
      ],
      [
        "g",
        "io"
      ],
      [
        "ul",
        "a"
      ],
      [
        "z",
        "Y"
      ],
      [
        "0",
        "77"
      ],
      [
        "09",
        "8"
      ],
      [
        "45",
        "3"
      ],
      [
        "am",
        "i"
      ],
      [
        "b",
        "t"
      ],
      [
        "d",
        "t"
      ],
      [
        "11",
        "12"
      ],
      [
        "13",
        "6"
      ],
      [
        "and",
        "o"
      ],
      [
        "s",
        "is"
      ],
      [
        "23",
        "23"
      ],
      [
        "35",
        "4"
      ],
      [
        "j",
        "I"
      ],
      [
        "p",
        "ok"
      ],
      [
        "t",
        "em"
      ],
      [
        "19",
        "07"
      ],
      [
        "d",
        "g"
      ],
      [
        "do",
        "g"
      ],
      [
        "e",
        "ed"
      ],
      [
        "j",
        "v"
      ],
      [
        "l",
        "ab"
      ],
      [
        "r",
        "ol"
      ],
      [
        "s",
        "eb"
      ],
      [
        "0",
        "123"
      ],
      [
        "9",
        "89"
      ],
      [
        "ag",
        "e"
      ],
      [
        "d",
        "w"
      ],
      [
        "en",
        "1"
      ],
      [
        "f",
        "al"
      ],
      [
        "no",
        "v"
      ],
      [
        "19",
        "5"
      ],
      [
        "ak",
        "a"
      ],
      [
        "b",
        "ot"
      ],
      [
        "p",
        "ra"
      ],
      [
        "44",
        "4"
      ],
      [
        "b",
        "g"
      ],
      [
        "b",
        "it"
      ],
      [
        "em",
        "e"
      ],
      [
        "n",
        "t"
      ],
      [
        "il",
        "e"
      ],
      [
        "un",
        "i"
      ],
      [
        "2",
        "45"
      ],
      [
        "24",
        "3"
      ],
      [
        "i",
        "7"
      ],
      [
        "j",
        "im"
      ],
      [
        "l",
        "at"
      ],
      [
        "t",
        "es"
      ],
      [
        "y",
        "ang"
      ],
      [
        "zx",
        "cv"
      ],
      [
        "19",
        "2"
      ],
      [
        "b",
        "m"
      ],
      [
        "13",
        "37"
      ],
      [
        "66",
        "5"
      ],
      [
        "b",
        "ul"
      ],
      [
        "i",
        "al"
      ],
      [
        "o",
        "3"
      ],
      [
        "123",
        "321"
      ],
      [
        "16",
        "7"
      ],
      [
        "19",
        "65"
      ],
      [
        "19",
        "99"
      ],
      [
        "an",
        "k"
      ],
      [
        "m",
        "v"
      ],
      [
        "o",
        "4"
      ],
      [
        "11",
        "8"
      ],
      [
        "c",
        "ur"
      ],
      [
        "c",
        "w"
      ],
      [
        "i",
        "as"
      ],
      [
        "l",
        "er"
      ],
      [
        "x",
        "u"
      ],
      [
        "w",
        "el"
      ],
      [
        "aa",
        "a"
      ],
      [
        "m",
        "ul"
      ],
      [
        "z",
        "E"
      ],
      [
        "1020",
        "30"
      ],
      [
        "13",
        "0"
      ],
      [
        "14",
        "12"
      ],
      [
        "22",
        "22"
      ],
      [
        "k",
        "id"
      ],
      [
        "n",
        "ad"
      ],
      [
        "v",
        "ar"
      ],
      [
        "d",
        "ig"
      ],
      [
        "h",
        "it"
      ],
      [
        "m",
        "ol"
      ],
      [
        "n",
        "on"
      ],
      [
        "p",
        "ac"
      ],
      [
        "sh",
        "ar"
      ],
      [
        "t",
        "as"
      ],
      [
        "y",
        "2"
      ],
      [
        "16",
        "4"
      ],
      [
        "88",
        "5"
      ],
      [
        "and",
        "er"
      ],
      [
        "c",
        "p"
      ],
      [
        "et",
        "e"
      ],
      [
        "im",
        "e"
      ],
      [
        "in",
        "123"
      ],
      [
        "l",
        "av"
      ],
      [
        "18",
        "3"
      ],
      [
        "U",
        "S"
      ],
      [
        "c",
        "ac"
      ],
      [
        "m",
        "5"
      ],
      [
        "me",
        "h"
      ],
      [
        "n",
        "av"
      ],
      [
        "ri",
        "x"
      ],
      [
        "ak",
        "e"
      ],
      [
        "b",
        "ay"
      ],
      [
        "p",
        "us"
      ],
      [
        "pl",
        "ay"
      ],
      [
        "re",
        "y"
      ],
      [
        "w",
        "2"
      ],
      [
        "20",
        "20"
      ],
      [
        "k",
        "or"
      ],
      [
        "r",
        "f"
      ],
      [
        "j",
        "E"
      ],
      [
        "l",
        "p"
      ],
      [
        "ra",
        "fa"
      ],
      [
        "z",
        "M"
      ],
      [
        "ad",
        "am"
      ],
      [
        "k",
        "han"
      ],
      [
        "m",
        "om"
      ],
      [
        "n",
        "0"
      ],
      [
        "t",
        "5"
      ],
      [
        "v",
        "iv"
      ],
      [
        "w",
        "0r"
      ],
      [
        "y",
        "3"
      ],
      [
        "z",
        "Q"
      ],
      [
        "z",
        "er"
      ],
      [
        "z",
        "u"
      ],
      [
        "05",
        "5"
      ],
      [
        "17",
        "3"
      ],
      [
        "d",
        "5"
      ],
      [
        "d",
        "ol"
      ],
      [
        "il",
        "la"
      ],
      [
        "k",
        "un"
      ],
      [
        "ww",
        "w"
      ],
      [
        "22",
        "7"
      ],
      [
        "25",
        "3"
      ],
      [
        "H",
        "A"
      ],
      [
        "am",
        "er"
      ],
      [
        "d",
        "ad"
      ],
      [
        "i",
        "ro"
      ],
      [
        "s",
        "ap"
      ],
      [
        "x",
        "2"
      ],
      [
        "18",
        "6"
      ],
      [
        "19",
        "0"
      ],
      [
        "22",
        "9"
      ],
      [
        "78",
        "4"
      ],
      [
        "a",
        "13"
      ],
      [
        "am",
        "p"
      ],
      [
        "ch",
        "er"
      ],
      [
        "h",
        "ell"
      ],
      [
        "le",
        "o"
      ],
      [
        "ri",
        "z"
      ],
      [
        "tr",
        "an"
      ],
      [
        "w",
        "en"
      ],
      [
        "k",
        "ay"
      ],
      [
        "le",
        "on"
      ],
      [
        "n",
        "ick"
      ],
      [
        "t",
        "ol"
      ],
      [
        "20",
        "8"
      ],
      [
        "h",
        "or"
      ],
      [
        "iv",
        "an"
      ],
      [
        "om",
        "ar"
      ],
      [
        "t",
        "2"
      ],
      [
        "05",
        "05"
      ],
      [
        "13",
        "1"
      ],
      [
        "19",
        "1"
      ],
      [
        "ant",
        "on"
      ],
      [
        "f",
        "eb"
      ],
      [
        "f",
        "m"
      ],
      [
        "19",
        "63"
      ],
      [
        "22",
        "8"
      ],
      [
        "l",
        "v"
      ],
      [
        "o",
        "12"
      ],
      [
        "so",
        "ft"
      ],
      [
        "a",
        "0"
      ],
      [
        "f",
        "ly"
      ],
      [
        "n",
        "in"
      ],
      [
        "o",
        "9"
      ],
      [
        "x",
        "i"
      ],
      [
        "0000",
        "00"
      ],
      [
        "an",
        "y"
      ],
      [
        "b",
        "ut"
      ],
      [
        "c",
        "ab"
      ],
      [
        "f",
        "5"
      ],
      [
        "os",
        "h"
      ],
      [
        "23",
        "2"
      ],
      [
        "h",
        "s"
      ],
      [
        "i",
        "6"
      ],
      [
        "il",
        "ov"
      ],
      [
        "l",
        "al"
      ],
      [
        "put",
        "er"
      ],
      [
        "us",
        "e"
      ],
      [
        "w",
        "r"
      ],
      [
        "15",
        "8"
      ],
      [
        "g",
        "ro"
      ],
      [
        "t",
        "at"
      ],
      [
        "x",
        "3"
      ],
      [
        "09",
        "09"
      ],
      [
        "77",
        "5"
      ],
      [
        "b",
        "un"
      ],
      [
        "k",
        "ir"
      ],
      [
        "y",
        "t"
      ],
      [
        "b",
        "z"
      ],
      [
        "f",
        "ac"
      ],
      [
        "ip",
        "e"
      ],
      [
        "j",
        "m"
      ],
      [
        "lu",
        "ck"
      ],
      [
        "ol",
        "i"
      ],
      [
        "p",
        "hu"
      ],
      [
        "p",
        "it"
      ],
      [
        "17",
        "4"
      ],
      [
        "ag",
        "u"
      ],
      [
        "cy",
        "ber"
      ],
      [
        "k",
        "ik"
      ],
      [
        "n",
        "ot"
      ],
      [
        "o",
        "i"
      ],
      [
        "s",
        "or"
      ],
      [
        "v",
        "n"
      ],
      [
        "05",
        "0"
      ],
      [
        "135",
        "79"
      ],
      [
        "28",
        "5"
      ],
      [
        "and",
        "ra"
      ],
      [
        "d",
        "ream"
      ],
      [
        "l",
        "k"
      ],
      [
        "os",
        "1"
      ],
      [
        "y",
        "am"
      ],
      [
        "12",
        "08"
      ],
      [
        "159",
        "357"
      ],
      [
        "20",
        "1"
      ],
      [
        "23",
        "1"
      ],
      [
        "h",
        "ad"
      ],
      [
        "l",
        "is"
      ],
      [
        "m",
        "im"
      ],
      [
        "x",
        "t"
      ],
      [
        "10",
        "24"
      ],
      [
        "a",
        "q"
      ],
      [
        "al",
        "1"
      ],
      [
        "i",
        "8"
      ],
      [
        "s",
        "9"
      ],
      [
        "w",
        "as"
      ],
      [
        "123456789",
        "0"
      ],
      [
        "28",
        "3"
      ],
      [
        "a",
        "e"
      ],
      [
        "c",
        "la"
      ],
      [
        "l",
        "ak"
      ],
      [
        "n",
        "4"
      ],
      [
        "s",
        "id"
      ],
      [
        "us",
        "1"
      ],
      [
        "09",
        "87"
      ],
      [
        "ar",
        "1"
      ],
      [
        "c",
        "ut"
      ],
      [
        "jos",
        "e"
      ],
      [
        "s",
        "7"
      ],
      [
        "x",
        "d"
      ],
      [
        "19",
        "03"
      ],
      [
        "br",
        "un"
      ],
      [
        "f",
        "ri"
      ],
      [
        "k",
        "t"
      ],
      [
        "s",
        "ag"
      ],
      [
        "u",
        "lo"
      ],
      [
        "13",
        "9"
      ],
      [
        "18",
        "4"
      ],
      [
        "19",
        "6"
      ],
      [
        "d",
        "ed"
      ],
      [
        "el",
        "e"
      ],
      [
        "h",
        "us"
      ],
      [
        "kill",
        "er"
      ],
      [
        "u",
        "v"
      ],
      [
        "08",
        "08"
      ],
      [
        "17",
        "9"
      ],
      [
        "c",
        "b"
      ],
      [
        "li",
        "p"
      ],
      [
        "ma",
        "z"
      ],
      [
        "p",
        "ot"
      ],
      [
        "we",
        "et"
      ],
      [
        "+",
        "+"
      ],
      [
        "112",
        "2"
      ],
      [
        "74",
        "1"
      ],
      [
        "L",
        "A"
      ],
      [
        "M",
        "ar"
      ],
      [
        "ab",
        "d"
      ],
      [
        "g",
        "f"
      ],
      [
        "r",
        "id"
      ],
      [
        "s",
        "ir"
      ],
      [
        "18",
        "0"
      ],
      [
        "19",
        "64"
      ],
      [
        "20",
        "7"
      ],
      [
        "A",
        "l"
      ],
      [
        "h",
        "il"
      ],
      [
        "im",
        "an"
      ],
      [
        "o",
        "0"
      ],
      [
        "re",
        "al"
      ],
      [
        "t",
        "p"
      ],
      [
        "10",
        "11"
      ],
      [
        "12",
        "05"
      ],
      [
        "2",
        "15"
      ],
      [
        "20",
        "11"
      ],
      [
        "65",
        "6"
      ],
      [
        "h",
        "ong"
      ],
      [
        "s",
        "ah"
      ],
      [
        "v",
        "as"
      ],
      [
        "112",
        "233"
      ],
      [
        "16",
        "0"
      ],
      [
        "j",
        "3"
      ],
      [
        "y",
        "l"
      ],
      [
        "12",
        "06"
      ],
      [
        "13",
        "7"
      ],
      [
        "20",
        "9"
      ],
      [
        "27",
        "4"
      ],
      [
        "b",
        "ah"
      ],
      [
        "fo",
        "x"
      ],
      [
        "j",
        "in"
      ],
      [
        "jul",
        "i"
      ],
      [
        "k",
        "ap"
      ],
      [
        "s",
        "ul"
      ],
      [
        "s",
        "ung"
      ],
      [
        "C",
        "K"
      ],
      [
        "b",
        "ak"
      ],
      [
        "k",
        "9"
      ],
      [
        "s",
        "g"
      ],
      [
        "t",
        "z"
      ],
      [
        "un",
        "der"
      ],
      [
        "w",
        "is"
      ],
      [
        "el",
        "y"
      ],
      [
        "em",
        "ber"
      ],
      [
        "mar",
        "tin"
      ],
      [
        "r",
        "ick"
      ],
      [
        "y",
        "0"
      ],
      [
        "199",
        "8"
      ],
      [
        "20",
        "2"
      ],
      [
        "22",
        "1"
      ],
      [
        "a",
        "ir"
      ],
      [
        "am",
        "il"
      ],
      [
        "e",
        "8"
      ],
      [
        "r",
        "h"
      ],
      [
        "w",
        "x"
      ],
      [
        ".",
        "1"
      ],
      [
        "88",
        "6"
      ],
      [
        "e",
        "6"
      ],
      [
        "l",
        "it"
      ],
      [
        "o",
        "j"
      ],
      [
        "re",
        "g"
      ],
      [
        "w",
        "ah"
      ],
      [
        "zh",
        "ang"
      ],
      [
        "25",
        "9"
      ],
      [
        "9",
        "00"
      ],
      [
        "T",
        "H"
      ],
      [
        "os",
        "o"
      ],
      [
        "r",
        "ul"
      ],
      [
        "s",
        "av"
      ],
      [
        "t",
        "6"
      ],
      [
        "23",
        "10"
      ],
      [
        "f",
        "q"
      ],
      [
        "j",
        "b"
      ],
      [
        "or",
        "o"
      ],
      [
        "p",
        "2"
      ],
      [
        "ri",
        "ch"
      ],
      [
        "w",
        "u"
      ],
      [
        "12",
        "10"
      ],
      [
        "17",
        "6"
      ],
      [
        "36",
        "0"
      ],
      [
        "89",
        "0"
      ],
      [
        "al",
        "an"
      ],
      [
        "c",
        "m"
      ],
      [
        "d",
        "as"
      ],
      [
        "en",
        "123"
      ],
      [
        "n",
        "el"
      ],
      [
        "25",
        "2"
      ],
      [
        "35",
        "6"
      ],
      [
        "78",
        "3"
      ],
      [
        "f",
        "ish"
      ],
      [
        "k",
        "ut"
      ],
      [
        "n",
        "ie"
      ],
      [
        "on",
        "123"
      ],
      [
        "t",
        "g"
      ],
      [
        "17",
        "5"
      ],
      [
        "19",
        "4"
      ],
      [
        "aj",
        "a"
      ],
      [
        "h",
        "b"
      ],
      [
        "n",
        "it"
      ],
      [
        "24",
        "8"
      ],
      [
        "28",
        "4"
      ],
      [
        "28",
        "9"
      ],
      [
        "4",
        "h"
      ],
      [
        "O",
        "M"
      ],
      [
        "f",
        "en"
      ],
      [
        "lo",
        "ck"
      ],
      [
        "lo",
        "w"
      ],
      [
        "th",
        "eb"
      ],
      [
        "v",
        "il"
      ],
      [
        "z",
        "ak"
      ],
      [
        "ar",
        "io"
      ],
      [
        "i",
        "es"
      ],
      [
        "n",
        "go"
      ],
      [
        "ol",
        "e"
      ],
      [
        "pr",
        "in"
      ],
      [
        "r",
        "s"
      ],
      [
        "ra",
        "c"
      ],
      [
        "t",
        "m"
      ],
      [
        "x",
        "z"
      ],
      [
        "0",
        "14"
      ],
      [
        "all",
        "ah"
      ],
      [
        "l",
        "ap"
      ],
      [
        "u",
        "3"
      ],
      [
        "v",
        "y"
      ],
      [
        "12",
        "03"
      ],
      [
        "12",
        "07"
      ],
      [
        "45",
        "7"
      ],
      [
        "@",
        "yahoo"
      ],
      [
        "f",
        "p"
      ],
      [
        "in",
        "k"
      ],
      [
        "k",
        "is"
      ],
      [
        "l",
        "ing"
      ],
      [
        "s",
        "ek"
      ],
      [
        "say",
        "ang"
      ],
      [
        "010",
        "1"
      ],
      [
        "K",
        "A"
      ],
      [
        "al",
        "123"
      ],
      [
        "f",
        "7"
      ],
      [
        "g",
        "ur"
      ],
      [
        "i",
        "q"
      ],
      [
        "om",
        "an"
      ],
      [
        "v",
        "ip"
      ],
      [
        "33",
        "5"
      ],
      [
        "S",
        "T"
      ],
      [
        "ab",
        "lo"
      ],
      [
        "c",
        "j"
      ],
      [
        "p",
        "il"
      ],
      [
        "s",
        "ing"
      ],
      [
        "ud",
        "i"
      ],
      [
        "y",
        "7"
      ],
      [
        "03",
        "03"
      ],
      [
        "26",
        "8"
      ],
      [
        "45",
        "8"
      ],
      [
        "66",
        "4"
      ],
      [
        "az",
        "z"
      ],
      [
        "f",
        "s"
      ],
      [
        "g",
        "il"
      ],
      [
        "k",
        "m"
      ],
      [
        "l",
        "ord"
      ],
      [
        "ra",
        "f"
      ],
      [
        "t",
        "ang"
      ],
      [
        "13",
        "8"
      ],
      [
        "fer",
        "n"
      ],
      [
        "k",
        "ad"
      ],
      [
        "k",
        "ot"
      ],
      [
        "k",
        "x"
      ],
      [
        "l",
        "s"
      ],
      [
        "on",
        "es"
      ],
      [
        "p",
        "ad"
      ],
      [
        "p",
        "ul"
      ],
      [
        "th",
        "an"
      ],
      [
        "u",
        "e"
      ],
      [
        "un",
        "t"
      ],
      [
        "vic",
        "tor"
      ],
      [
        "05",
        "4"
      ],
      [
        "08",
        "9"
      ],
      [
        "95",
        "1"
      ],
      [
        "S",
        "A"
      ],
      [
        "er",
        "ic"
      ],
      [
        "g",
        "as"
      ],
      [
        "i",
        "w"
      ],
      [
        "is",
        "ta"
      ],
      [
        "ngu",
        "yen"
      ],
      [
        "ri",
        "el"
      ],
      [
        "12",
        "09"
      ],
      [
        "23",
        "9"
      ],
      [
        "25",
        "10"
      ],
      [
        "5",
        "21"
      ],
      [
        "h",
        "ung"
      ],
      [
        "17",
        "1"
      ],
      [
        "27",
        "3"
      ],
      [
        "et",
        "o"
      ],
      [
        "f",
        "ed"
      ],
      [
        "g",
        "m"
      ],
      [
        "pp",
        "y"
      ],
      [
        "r",
        "ub"
      ],
      [
        "25",
        "12"
      ],
      [
        "b",
        "6"
      ],
      [
        "b",
        "7"
      ],
      [
        "h",
        "ie"
      ],
      [
        "sh",
        "in"
      ],
      [
        "23",
        "7"
      ],
      [
        "b",
        "om"
      ],
      [
        "on",
        "y"
      ],
      [
        "ra",
        "z"
      ],
      [
        "x",
        "123"
      ],
      [
        "y",
        "z"
      ],
      [
        "88",
        "4"
      ],
      [
        "a",
        "2009"
      ],
      [
        "f",
        "6"
      ],
      [
        "t",
        "un"
      ],
      [
        "04",
        "0"
      ],
      [
        "05",
        "06"
      ],
      [
        "06",
        "06"
      ],
      [
        "08",
        "09"
      ],
      [
        "24",
        "12"
      ],
      [
        "d",
        "od"
      ],
      [
        "gre",
        "en"
      ],
      [
        "i",
        "2009"
      ],
      [
        "r",
        "ist"
      ],
      [
        "w",
        "t"
      ],
      [
        "y",
        "un"
      ],
      [
        "05",
        "3"
      ],
      [
        "123",
        "654"
      ],
      [
        "22",
        "10"
      ],
      [
        "L",
        "O"
      ],
      [
        "c",
        "lu"
      ],
      [
        "cr",
        "is"
      ],
      [
        "d",
        "at"
      ],
      [
        "e",
        "j"
      ],
      [
        "en",
        "o"
      ],
      [
        "fl",
        "or"
      ],
      [
        "jo",
        "y"
      ],
      [
        "lo",
        "p"
      ],
      [
        "n",
        "ab"
      ],
      [
        "s",
        "12"
      ],
      [
        "v",
        "u"
      ],
      [
        "15",
        "1"
      ],
      [
        "29",
        "3"
      ],
      [
        "44",
        "44"
      ],
      [
        "U",
        "N"
      ],
      [
        "al",
        "do"
      ],
      [
        "b",
        "est"
      ],
      [
        "em",
        "o"
      ],
      [
        "jam",
        "es"
      ],
      [
        "n",
        "os"
      ],
      [
        "v",
        "et"
      ],
      [
        "22",
        "12"
      ],
      [
        "26",
        "9"
      ],
      [
        "A",
        "r"
      ],
      [
        "d",
        "7"
      ],
      [
        "h",
        "os"
      ],
      [
        "j",
        "ok"
      ],
      [
        "m",
        "ut"
      ],
      [
        "mill",
        "ah"
      ],
      [
        "t",
        "ab"
      ],
      [
        "u",
        "ck"
      ],
      [
        "100",
        "5"
      ],
      [
        "2",
        "a"
      ],
      [
        "A",
        "d"
      ],
      [
        "I",
        "A"
      ],
      [
        "R",
        "O"
      ],
      [
        "l",
        "h"
      ],
      [
        "man",
        "1"
      ],
      [
        "mar",
        "k"
      ],
      [
        "mo",
        "h"
      ],
      [
        "w",
        "k"
      ],
      [
        "y",
        "5"
      ],
      [
        "14",
        "0"
      ],
      [
        "27",
        "9"
      ],
      [
        "c",
        "is"
      ],
      [
        "el",
        "la"
      ],
      [
        "g",
        "us"
      ],
      [
        "id",
        "i"
      ],
      [
        "ie",
        "1"
      ],
      [
        "lu",
        "cas"
      ],
      [
        "ot",
        "e"
      ],
      [
        "r",
        "ia"
      ],
      [
        "se",
        "cre"
      ],
      [
        "z",
        "3"
      ],
      [
        "1",
        "123"
      ],
      [
        "33",
        "4"
      ],
      [
        "al",
        "in"
      ],
      [
        "an",
        "im"
      ],
      [
        "ha",
        "o"
      ],
      [
        "it",
        "ar"
      ],
      [
        "k",
        "ab"
      ],
      [
        "n",
        "um"
      ],
      [
        "z",
        "123"
      ],
      [
        "010",
        "203"
      ],
      [
        "03",
        "3"
      ],
      [
        "03",
        "5"
      ],
      [
        "100",
        "1"
      ],
      [
        "21",
        "12"
      ],
      [
        "56",
        "7"
      ],
      [
        "66",
        "7"
      ],
      [
        "c",
        "op"
      ],
      [
        "em",
        "re"
      ],
      [
        "g",
        "em"
      ],
      [
        "ha",
        "123"
      ],
      [
        "is",
        "on"
      ],
      [
        "me",
        "i"
      ],
      [
        "r",
        "ik"
      ],
      [
        "s",
        "b"
      ],
      [
        "z",
        "4"
      ],
      [
        "08",
        "0"
      ],
      [
        "12",
        "04"
      ],
      [
        "2",
        "99"
      ],
      [
        "24",
        "0"
      ],
      [
        "28",
        "7"
      ],
      [
        "b",
        "am"
      ],
      [
        "f",
        "j"
      ],
      [
        "ing",
        "123"
      ],
      [
        "k",
        "ev"
      ],
      [
        "v",
        "4"
      ],
      [
        "A",
        "Z"
      ],
      [
        "b",
        "os"
      ],
      [
        "c",
        "6"
      ],
      [
        "f",
        "9"
      ],
      [
        "n",
        "ut"
      ],
      [
        "o",
        "7"
      ],
      [
        "sh",
        "e"
      ],
      [
        "u",
        "5"
      ],
      [
        "wo",
        "od"
      ],
      [
        "24",
        "68"
      ],
      [
        "87",
        "4"
      ],
      [
        "c",
        "8"
      ],
      [
        "for",
        "ever"
      ],
      [
        "he",
        "ad"
      ],
      [
        "k",
        "op"
      ],
      [
        "o",
        "8"
      ],
      [
        "r",
        "j"
      ],
      [
        "ra",
        "has"
      ],
      [
        "s",
        "ed"
      ],
      [
        "s",
        "q"
      ],
      [
        "u",
        "ch"
      ],
      [
        "14",
        "9"
      ],
      [
        "E",
        "T"
      ],
      [
        "ah",
        "mad"
      ],
      [
        "al",
        "am"
      ],
      [
        "b",
        "p"
      ],
      [
        "g",
        "k"
      ],
      [
        "ia",
        "h"
      ],
      [
        "l",
        "ie"
      ],
      [
        "ne",
        "y"
      ],
      [
        "02",
        "10"
      ],
      [
        "15",
        "05"
      ],
      [
        "28",
        "6"
      ],
      [
        "@",
        "n"
      ],
      [
        "and",
        "ro"
      ],
      [
        "as",
        "i"
      ],
      [
        "d",
        "123"
      ],
      [
        "d",
        "x"
      ],
      [
        "ma",
        "j"
      ],
      [
        "o",
        "6"
      ],
      [
        "os",
        "123"
      ],
      [
        "p",
        "and"
      ],
      [
        "p",
        "is"
      ],
      [
        "100",
        "4"
      ],
      [
        "17",
        "2"
      ],
      [
        "26",
        "7"
      ],
      [
        "78",
        "0"
      ],
      [
        "789",
        "456"
      ],
      [
        "I",
        "n"
      ],
      [
        "b",
        "5"
      ],
      [
        "h",
        "j"
      ],
      [
        "hel",
        "lo"
      ],
      [
        "l",
        "2"
      ],
      [
        "nok",
        "ia"
      ],
      [
        "or",
        "t"
      ],
      [
        "ud",
        "io"
      ],
      [
        "us",
        "h"
      ],
      [
        "14",
        "2"
      ],
      [
        "d",
        "9"
      ],
      [
        "d",
        "p"
      ],
      [
        "f",
        "it"
      ],
      [
        "ia",
        "go"
      ],
      [
        "mon",
        "ey"
      ],
      [
        "w",
        "ill"
      ],
      [
        "14",
        "6"
      ],
      [
        "15",
        "12"
      ],
      [
        "B",
        "A"
      ],
      [
        "P",
        "ass"
      ],
      [
        "b",
        "ill"
      ],
      [
        "b",
        "le"
      ],
      [
        "de",
        "f"
      ],
      [
        "l",
        "ac"
      ],
      [
        "r",
        "2"
      ],
      [
        "s",
        "weet"
      ],
      [
        "08",
        "4"
      ],
      [
        "22",
        "11"
      ],
      [
        "28",
        "2"
      ],
      [
        "66",
        "9"
      ],
      [
        "88",
        "3"
      ],
      [
        "D",
        "O"
      ],
      [
        "and",
        "i"
      ],
      [
        "el",
        "i"
      ],
      [
        "08",
        "7"
      ],
      [
        "69",
        "69"
      ],
      [
        "99",
        "5"
      ],
      [
        "a",
        "09"
      ],
      [
        "ag",
        "ust"
      ],
      [
        "al",
        "ia"
      ],
      [
        "d",
        "eb"
      ],
      [
        "e",
        "ar"
      ],
      [
        "l",
        "t"
      ],
      [
        "le",
        "e"
      ],
      [
        "lu",
        "c"
      ],
      [
        "p",
        "ang"
      ],
      [
        "sh",
        "an"
      ],
      [
        "shad",
        "ow"
      ],
      [
        "v",
        "id"
      ],
      [
        "v",
        "ik"
      ],
      [
        "16",
        "1"
      ],
      [
        "27",
        "0"
      ],
      [
        "45",
        "0"
      ],
      [
        "a",
        "1234"
      ],
      [
        "a",
        "in"
      ],
      [
        "cr",
        "ist"
      ],
      [
        "s",
        "6"
      ],
      [
        "u",
        "4"
      ],
      [
        "w",
        "z"
      ],
      [
        "wor",
        "ld"
      ],
      [
        "12",
        "11"
      ],
      [
        "23",
        "8"
      ],
      [
        "C",
        "A"
      ],
      [
        "I",
        "T"
      ],
      [
        "d",
        "6"
      ],
      [
        "g",
        "p"
      ],
      [
        "min",
        "h"
      ],
      [
        "on",
        "d"
      ],
      [
        "-",
        "J"
      ],
      [
        "13",
        "06"
      ],
      [
        "am",
        "in"
      ],
      [
        "as",
        "y"
      ],
      [
        "end",
        "er"
      ],
      [
        "is",
        "e"
      ],
      [
        "u",
        "7"
      ],
      [
        "u",
        "ka"
      ],
      [
        "z",
        "an"
      ],
      [
        "110",
        "6"
      ],
      [
        "15",
        "03"
      ],
      [
        "29",
        "5"
      ],
      [
        "3",
        "d"
      ],
      [
        "66",
        "3"
      ],
      [
        "88",
        "7"
      ],
      [
        "@yahoo",
        ".com"
      ],
      [
        "_",
        "_"
      ],
      [
        "ag",
        "us"
      ],
      [
        "ar",
        "k"
      ],
      [
        "d",
        "uc"
      ],
      [
        "en",
        "e"
      ],
      [
        "er",
        "n"
      ],
      [
        "f",
        "ur"
      ],
      [
        "is",
        "123"
      ],
      [
        "li",
        "ve"
      ],
      [
        "m",
        "7"
      ],
      [
        "th",
        "u"
      ],
      [
        "v",
        "ent"
      ],
      [
        "x",
        "4"
      ],
      [
        "y",
        "eu"
      ],
      [
        "08",
        "6"
      ],
      [
        "29",
        "0"
      ],
      [
        "33",
        "6"
      ],
      [
        "A",
        "1"
      ],
      [
        "as",
        "e"
      ],
      [
        "c",
        "it"
      ],
      [
        "k",
        "em"
      ],
      [
        "mo",
        "on"
      ],
      [
        "p",
        "5"
      ],
      [
        "ra",
        "in"
      ],
      [
        "v",
        "b"
      ],
      [
        "08",
        "3"
      ],
      [
        "55",
        "6"
      ],
      [
        "63",
        "6"
      ],
      [
        "W",
        "E"
      ],
      [
        "a",
        "2008"
      ],
      [
        "ar",
        "ta"
      ],
      [
        "go",
        "og"
      ],
      [
        "j",
        "0"
      ],
      [
        "j",
        "t"
      ],
      [
        "kh",
        "al"
      ],
      [
        "n",
        "2"
      ],
      [
        "-",
        "A"
      ],
      [
        "14",
        "25"
      ],
      [
        "15",
        "2"
      ],
      [
        "24",
        "9"
      ],
      [
        "25",
        "05"
      ],
      [
        "99",
        "8"
      ],
      [
        "abc",
        "d"
      ],
      [
        "azer",
        "ty"
      ],
      [
        "bis",
        "millah"
      ],
      [
        "es",
        "ter"
      ],
      [
        "om",
        "e"
      ],
      [
        "sil",
        "ver"
      ],
      [
        "t",
        "ot"
      ],
      [
        "110",
        "5"
      ],
      [
        "14",
        "789"
      ],
      [
        "45",
        "2"
      ],
      [
        "a",
        "10"
      ],
      [
        "ber",
        "to"
      ],
      [
        "c",
        "7"
      ],
      [
        "d",
        "ian"
      ],
      [
        "do",
        "wn"
      ],
      [
        "r",
        "k"
      ],
      [
        "07",
        "07"
      ],
      [
        "14",
        "8"
      ],
      [
        "27",
        "6"
      ],
      [
        "28",
        "0"
      ],
      [
        "45",
        "1"
      ],
      [
        "b",
        "ub"
      ],
      [
        "ed",
        "o"
      ],
      [
        "en",
        "te"
      ],
      [
        "il",
        "lo"
      ],
      [
        "o",
        "ut"
      ],
      [
        "re",
        "t"
      ],
      [
        "s",
        "8"
      ],
      [
        "06",
        "0"
      ],
      [
        "09",
        "9"
      ],
      [
        "27",
        "5"
      ],
      [
        "45",
        "9"
      ],
      [
        "55",
        "4"
      ],
      [
        "L",
        "E"
      ],
      [
        "_",
        "1"
      ],
      [
        "a",
        "11"
      ],
      [
        "ak",
        "i"
      ],
      [
        "an",
        "j"
      ],
      [
        "and",
        "res"
      ],
      [
        "ar",
        "y"
      ],
      [
        "c",
        "io"
      ],
      [
        "f",
        "8"
      ],
      [
        "f",
        "z"
      ],
      [
        "ha",
        "ha"
      ],
      [
        "ian",
        "o"
      ],
      [
        "k",
        "8"
      ],
      [
        "l",
        "z"
      ],
      [
        "p",
        "os"
      ],
      [
        "so",
        "ul"
      ],
      [
        "we",
        "i"
      ],
      [
        "14",
        "1"
      ],
      [
        "29",
        "4"
      ],
      [
        "63",
        "2"
      ],
      [
        "ad",
        "el"
      ],
      [
        "c",
        "ast"
      ],
      [
        "d",
        "ang"
      ],
      [
        "f",
        "2"
      ],
      [
        "m",
        "ama"
      ],
      [
        "mar",
        "cel"
      ],
      [
        "n",
        "ah"
      ],
      [
        "p",
        "ag"
      ],
      [
        "r",
        "d"
      ],
      [
        "ro",
        "w"
      ],
      [
        "s",
        "op"
      ],
      [
        "110",
        "4"
      ],
      [
        "13",
        "05"
      ],
      [
        "34",
        "6"
      ],
      [
        "S",
        "E"
      ],
      [
        "a",
        "23"
      ],
      [
        "ac",
        "o"
      ],
      [
        "ar",
        "123"
      ],
      [
        "er",
        "t"
      ],
      [
        "k",
        "p"
      ],
      [
        "q",
        "3"
      ],
      [
        "010",
        "4"
      ],
      [
        "010",
        "5"
      ],
      [
        "R",
        "o"
      ],
      [
        "al",
        "p"
      ],
      [
        "b",
        "eb"
      ],
      [
        "ch",
        "ris"
      ],
      [
        "d",
        "ong"
      ],
      [
        "f",
        "ut"
      ],
      [
        "j",
        "ah"
      ],
      [
        "r",
        "un"
      ],
      [
        "y",
        "6"
      ],
      [
        "05",
        "6"
      ],
      [
        "14",
        "78"
      ],
      [
        "77",
        "9"
      ],
      [
        "a",
        "."
      ],
      [
        "an",
        "ak"
      ],
      [
        "b",
        "9"
      ],
      [
        "b",
        "es"
      ],
      [
        "g",
        "v"
      ],
      [
        "h",
        "im"
      ],
      [
        "lo",
        "ver"
      ],
      [
        "m",
        "ang"
      ],
      [
        "ped",
        "ro"
      ],
      [
        "vi",
        "et"
      ],
      [
        "x",
        "5"
      ],
      [
        "x",
        "c"
      ],
      [
        "-",
        "-"
      ],
      [
        "01",
        "10"
      ],
      [
        "04",
        "04"
      ],
      [
        "110",
        "3"
      ],
      [
        "13",
        "03"
      ],
      [
        "25",
        "7"
      ],
      [
        "74",
        "7"
      ],
      [
        "O",
        "O"
      ],
      [
        "b",
        "8"
      ],
      [
        "i",
        "0"
      ],
      [
        "ma",
        "i"
      ],
      [
        "ol",
        "og"
      ],
      [
        "s",
        "es"
      ],
      [
        "u",
        "8"
      ],
      [
        "$",
        "%"
      ],
      [
        "100",
        "3"
      ],
      [
        "12",
        "45"
      ],
      [
        "14",
        "05"
      ],
      [
        "99",
        "4"
      ],
      [
        "@",
        "1"
      ],
      [
        "M",
        "E"
      ],
      [
        "a",
        "123456"
      ],
      [
        "a",
        "is"
      ],
      [
        "ar",
        "if"
      ],
      [
        "dev",
        "il"
      ],
      [
        "g",
        "ot"
      ],
      [
        "har",
        "d"
      ],
      [
        "l",
        "ah"
      ],
      [
        "le",
        "1"
      ],
      [
        "od",
        "e"
      ],
      [
        "r",
        "it"
      ],
      [
        "u",
        "ro"
      ],
      [
        "w",
        "ow"
      ],
      [
        "12",
        "13"
      ],
      [
        "L",
        "I"
      ],
      [
        "d",
        "8"
      ],
      [
        "k",
        "6"
      ],
      [
        "m",
        "4n"
      ],
      [
        "mat",
        "rix"
      ],
      [
        "p",
        "ing"
      ],
      [
        "q",
        "i"
      ],
      [
        "r",
        "ang"
      ],
      [
        "r",
        "p"
      ],
      [
        "x",
        "l"
      ],
      [
        "zz",
        "zz"
      ],
      [
        "04",
        "4"
      ],
      [
        "17",
        "0"
      ],
      [
        "f",
        "0"
      ],
      [
        "h",
        "7"
      ],
      [
        "juni",
        "or"
      ],
      [
        "k",
        "ul"
      ],
      [
        "o",
        "ff"
      ],
      [
        "p",
        "am"
      ],
      [
        "ro",
        "ot"
      ],
      [
        "s",
        "ang"
      ],
      [
        "t",
        "c"
      ],
      [
        "w",
        "d"
      ],
      [
        "xx",
        "xx"
      ],
      [
        "z",
        "am"
      ],
      [
        "03",
        "0"
      ],
      [
        "19",
        "60"
      ],
      [
        "29",
        "6"
      ],
      [
        "77",
        "3"
      ],
      [
        "77",
        "4"
      ],
      [
        "M",
        "a"
      ],
      [
        "MA",
        "N"
      ],
      [
        "ag",
        "o"
      ],
      [
        "ch",
        "1"
      ],
      [
        "h",
        "op"
      ],
      [
        "l",
        "em"
      ],
      [
        "mar",
        "et"
      ],
      [
        "por",
        "t"
      ],
      [
        "qu",
        "ang"
      ],
      [
        "u",
        "u"
      ],
      [
        "uk",
        "i"
      ],
      [
        "ur",
        "i"
      ],
      [
        "z",
        "ero"
      ],
      [
        "19",
        "62"
      ],
      [
        "89",
        "1"
      ],
      [
        "a",
        "ut"
      ],
      [
        "at",
        "1"
      ],
      [
        "f",
        "on"
      ],
      [
        "k",
        "123"
      ],
      [
        "ok",
        "e"
      ],
      [
        "ok",
        "o"
      ],
      [
        "p",
        "ip"
      ],
      [
        "se",
        "x"
      ],
      [
        "zxcv",
        "bn"
      ],
      [
        "010",
        "2"
      ],
      [
        "07",
        "0"
      ],
      [
        "13",
        "10"
      ],
      [
        "26",
        "0"
      ],
      [
        "35",
        "9"
      ],
      [
        "78",
        "2"
      ],
      [
        "89",
        "5"
      ],
      [
        "at",
        "t"
      ],
      [
        "de",
        "ad"
      ],
      [
        "f",
        "is"
      ],
      [
        "f",
        "w"
      ],
      [
        "h",
        "and"
      ],
      [
        "k",
        "d"
      ],
      [
        "k",
        "ha"
      ],
      [
        "m",
        "ing"
      ],
      [
        "man",
        "uel"
      ],
      [
        "me",
        "g"
      ],
      [
        "moham",
        "ed"
      ],
      [
        "op",
        "en"
      ],
      [
        "os",
        "a"
      ],
      [
        "s",
        "j"
      ],
      [
        "s",
        "ong"
      ],
      [
        "st",
        "em"
      ],
      [
        "t",
        "ah"
      ],
      [
        "win",
        "do"
      ],
      [
        "100",
        "6"
      ],
      [
        "123",
        "0"
      ],
      [
        "21",
        "10"
      ],
      [
        "M",
        "y"
      ],
      [
        "ar",
        "is"
      ],
      [
        "c",
        "ad"
      ],
      [
        "d",
        "ud"
      ],
      [
        "ig",
        "h"
      ],
      [
        "l",
        "ang"
      ],
      [
        "mu",
        "ham"
      ],
      [
        "ol",
        "d"
      ],
      [
        "sh",
        "it"
      ],
      [
        "us",
        "a"
      ],
      [
        "z",
        "ar"
      ],
      [
        "z",
        "en"
      ],
      [
        "19",
        "12"
      ],
      [
        "23",
        "12"
      ],
      [
        "66",
        "8"
      ],
      [
        "75",
        "6"
      ],
      [
        "com",
        "puter"
      ],
      [
        "ha",
        "ppy"
      ],
      [
        "k",
        "il"
      ],
      [
        "li",
        "on"
      ],
      [
        "m",
        "id"
      ],
      [
        "n",
        "az"
      ],
      [
        "n",
        "c"
      ],
      [
        "ol",
        "as"
      ],
      [
        "v",
        "es"
      ],
      [
        "w0r",
        "d"
      ],
      [
        "#",
        "#"
      ],
      [
        "19",
        "10"
      ],
      [
        "35",
        "3"
      ],
      [
        "ap",
        "a"
      ],
      [
        "bo",
        "x"
      ],
      [
        "g",
        "in"
      ],
      [
        "i",
        "2008"
      ],
      [
        "io",
        "1"
      ],
      [
        "jk",
        "l"
      ],
      [
        "or",
        "p"
      ],
      [
        "t",
        "7"
      ],
      [
        "w",
        "ell"
      ],
      [
        "020",
        "5"
      ],
      [
        "03",
        "12"
      ],
      [
        "09",
        "5"
      ],
      [
        "100",
        "8"
      ],
      [
        "24",
        "1"
      ],
      [
        "28",
        "10"
      ],
      [
        "M",
        "I"
      ],
      [
        "S",
        "H"
      ],
      [
        "asdf",
        "gh"
      ],
      [
        "c",
        "ent"
      ],
      [
        "n",
        "ing"
      ],
      [
        "n",
        "ir"
      ],
      [
        "sam",
        "sung"
      ],
      [
        "u",
        "9"
      ],
      [
        "020",
        "3"
      ],
      [
        "06",
        "4"
      ],
      [
        "110",
        "8"
      ],
      [
        "18",
        "12"
      ],
      [
        "23",
        "05"
      ],
      [
        "34",
        "3"
      ],
      [
        "al",
        "es"
      ],
      [
        "c",
        "ul"
      ],
      [
        "g",
        "7"
      ],
      [
        "j",
        "ang"
      ],
      [
        "m",
        "8"
      ],
      [
        "mar",
        "i"
      ],
      [
        "mus",
        "ic"
      ],
      [
        "n",
        "b"
      ],
      [
        "t",
        "ut"
      ],
      [
        "C",
        "O"
      ],
      [
        "an",
        "na"
      ],
      [
        "ch",
        "am"
      ],
      [
        "el",
        "1"
      ],
      [
        "em",
        "il"
      ],
      [
        "gab",
        "riel"
      ],
      [
        "h",
        "end"
      ],
      [
        "jan",
        "u"
      ],
      [
        "man",
        "123"
      ],
      [
        "p",
        "av"
      ],
      [
        "pr",
        "es"
      ],
      [
        "r",
        "n"
      ],
      [
        "t",
        "ay"
      ],
      [
        "06",
        "5"
      ],
      [
        "14",
        "03"
      ],
      [
        "520",
        "1314"
      ],
      [
        "69",
        "6"
      ],
      [
        "8",
        "00"
      ],
      [
        "99",
        "0"
      ],
      [
        "L",
        "o"
      ],
      [
        "c",
        "9"
      ],
      [
        "f",
        "ah"
      ],
      [
        "g",
        "ig"
      ],
      [
        "l",
        "ay"
      ],
      [
        "l",
        "f"
      ],
      [
        "met",
        "al"
      ],
      [
        "op",
        "er"
      ],
      [
        "os",
        "e"
      ],
      [
        "p",
        "ic"
      ],
      [
        "y",
        "ak"
      ],
      [
        "07",
        "08"
      ],
      [
        "18",
        "1"
      ],
      [
        "25",
        "09"
      ],
      [
        "_",
        "123"
      ],
      [
        "b",
        "ack"
      ],
      [
        "b",
        "ug"
      ],
      [
        "g",
        "8"
      ],
      [
        "hu",
        "y"
      ],
      [
        "k",
        "az"
      ],
      [
        "m",
        "6"
      ],
      [
        "qaz",
        "wsx"
      ],
      [
        "tu",
        "an"
      ],
      [
        "v",
        "ie"
      ],
      [
        "y",
        "es"
      ],
      [
        "..",
        "."
      ],
      [
        "43",
        "2"
      ],
      [
        "99",
        "1"
      ],
      [
        "c",
        "123"
      ],
      [
        "c",
        "le"
      ],
      [
        "ch",
        "rist"
      ],
      [
        "it",
        "al"
      ],
      [
        "li",
        "am"
      ],
      [
        "s",
        "ud"
      ],
      [
        "u",
        "6"
      ],
      [
        "u",
        "ma"
      ],
      [
        "w",
        "j"
      ],
      [
        "06",
        "9"
      ],
      [
        "07",
        "5"
      ],
      [
        "3",
        "000"
      ],
      [
        "3",
        "65"
      ],
      [
        "7",
        "00"
      ],
      [
        "ed",
        "1"
      ],
      [
        "ek",
        "o"
      ],
      [
        "g",
        "ok"
      ],
      [
        "h",
        "ip"
      ],
      [
        "he",
        "art"
      ],
      [
        "pro",
        "j"
      ],
      [
        "t",
        "ap"
      ],
      [
        "t",
        "um"
      ],
      [
        "ta",
        "fa"
      ],
      [
        "v",
        "2"
      ],
      [
        "y",
        "us"
      ],
      [
        "/",
        "/"
      ],
      [
        "03",
        "4"
      ],
      [
        "05",
        "10"
      ],
      [
        "24",
        "05"
      ],
      [
        "3",
        "12"
      ],
      [
        "ap",
        "ple"
      ],
      [
        "c",
        "ess"
      ],
      [
        "c",
        "g"
      ],
      [
        "ch",
        "ang"
      ],
      [
        "ck",
        "er"
      ],
      [
        "die",
        "go"
      ],
      [
        "h",
        "id"
      ],
      [
        "j",
        "ac"
      ],
      [
        "k",
        "us"
      ],
      [
        "l",
        "ik"
      ],
      [
        "o",
        "e"
      ],
      [
        "um",
        "i"
      ],
      [
        "v",
        "l"
      ],
      [
        "0",
        "16"
      ],
      [
        "13",
        "12"
      ],
      [
        "18",
        "10"
      ],
      [
        "33",
        "33"
      ],
      [
        "77",
        "6"
      ],
      [
        "an",
        "s"
      ],
      [
        "ant",
        "eng"
      ],
      [
        "bo",
        "b"
      ],
      [
        "cha",
        "el"
      ],
      [
        "des",
        "ign"
      ],
      [
        "e",
        "us"
      ],
      [
        "g",
        "fh"
      ],
      [
        "h",
        "6"
      ],
      [
        "host",
        "ing"
      ],
      [
        "ma",
        "in"
      ],
      [
        "od",
        "y"
      ],
      [
        "p",
        "m"
      ],
      [
        "ro",
        "y"
      ],
      [
        "rod",
        "ri"
      ],
      [
        "to",
        "ber"
      ],
      [
        "-",
        "S"
      ],
      [
        "010",
        "6"
      ],
      [
        "15",
        "15"
      ],
      [
        "23",
        "03"
      ],
      [
        "am",
        "123"
      ],
      [
        "an",
        "as"
      ],
      [
        "ha",
        "z"
      ],
      [
        "in",
        "fo"
      ],
      [
        "m",
        "@"
      ],
      [
        "o",
        "2009"
      ],
      [
        "p",
        "ong"
      ],
      [
        "s",
        "f"
      ],
      [
        "t",
        "123"
      ],
      [
        "220",
        "5"
      ],
      [
        "26",
        "2"
      ],
      [
        "T",
        "O"
      ],
      [
        "e",
        "0"
      ],
      [
        "et",
        "te"
      ],
      [
        "fri",
        "end"
      ],
      [
        "h",
        "l"
      ],
      [
        "ion",
        "1"
      ],
      [
        "j",
        "ab"
      ],
      [
        "j",
        "ie"
      ],
      [
        "lin",
        "k"
      ],
      [
        "r",
        "b"
      ],
      [
        "rahas",
        "ia"
      ],
      [
        "t",
        "d"
      ],
      [
        "w",
        "5"
      ],
      [
        "z",
        "2"
      ],
      [
        "03",
        "10"
      ],
      [
        "04",
        "05"
      ],
      [
        "12",
        "25"
      ],
      [
        "14",
        "10"
      ],
      [
        "19",
        "56"
      ],
      [
        "19",
        "59"
      ],
      [
        "210",
        "5"
      ],
      [
        "23",
        "11"
      ],
      [
        "24",
        "2"
      ],
      [
        "3",
        "16"
      ],
      [
        "3",
        "23"
      ],
      [
        "4",
        "l"
      ],
      [
        "79",
        "5"
      ],
      [
        "79",
        "8"
      ],
      [
        "J",
        "A"
      ],
      [
        "a",
        "qu"
      ],
      [
        "al",
        "d"
      ],
      [
        "at",
        "er"
      ],
      [
        "ay",
        "ang"
      ],
      [
        "cha",
        "i"
      ],
      [
        "em",
        "in"
      ],
      [
        "gir",
        "l"
      ],
      [
        "h",
        "123"
      ],
      [
        "ia",
        "o"
      ],
      [
        "j",
        "2"
      ],
      [
        "m",
        "ike"
      ],
      [
        "n",
        "ak"
      ],
      [
        "ph",
        "il"
      ],
      [
        "r",
        "5"
      ],
      [
        "26",
        "12"
      ],
      [
        "3",
        "11"
      ],
      [
        "99",
        "6"
      ],
      [
        "C",
        "E"
      ],
      [
        "L",
        "U"
      ],
      [
        "c",
        "em"
      ],
      [
        "d",
        "ung"
      ],
      [
        "et",
        "1"
      ],
      [
        "f",
        "ad"
      ],
      [
        "ir",
        "on"
      ],
      [
        "k",
        "a1"
      ],
      [
        "n",
        "ag"
      ],
      [
        "or",
        "g"
      ],
      [
        "p",
        "es"
      ],
      [
        "r",
        "g"
      ],
      [
        "s",
        "ik"
      ],
      [
        "tr",
        "on"
      ],
      [
        "210",
        "4"
      ],
      [
        "25",
        "1"
      ],
      [
        "29",
        "2"
      ],
      [
        "N",
        "ov"
      ],
      [
        "ab",
        "el"
      ],
      [
        "ad",
        "rian"
      ],
      [
        "k",
        "7"
      ],
      [
        "li",
        "u"
      ],
      [
        "n",
        "op"
      ],
      [
        "rad",
        "io"
      ],
      [
        "ud",
        "a"
      ],
      [
        "us",
        "123"
      ],
      [
        "w",
        "0"
      ],
      [
        "w",
        "8"
      ],
      [
        "15",
        "06"
      ],
      [
        "15",
        "10"
      ],
      [
        "25",
        "11"
      ],
      [
        "25",
        "83"
      ],
      [
        "88",
        "1"
      ],
      [
        "V",
        "I"
      ],
      [
        "am",
        "ir"
      ],
      [
        "b",
        "ed"
      ],
      [
        "blu",
        "e"
      ],
      [
        "en",
        "s"
      ],
      [
        "ha",
        "1"
      ],
      [
        "in",
        "s"
      ],
      [
        "mig",
        "uel"
      ],
      [
        "n",
        "om"
      ],
      [
        "t",
        "ed"
      ],
      [
        "tr",
        "u"
      ],
      [
        "x",
        "a"
      ],
      [
        ".",
        "net"
      ],
      [
        "01",
        "12"
      ],
      [
        "03",
        "1"
      ],
      [
        "04",
        "06"
      ],
      [
        "09",
        "3"
      ],
      [
        "210",
        "3"
      ],
      [
        "69",
        "8"
      ],
      [
        "C",
        "h"
      ],
      [
        "b",
        "aj"
      ],
      [
        "b",
        "ri"
      ],
      [
        "c",
        "il"
      ],
      [
        "d",
        "iv"
      ],
      [
        "ev",
        "a"
      ],
      [
        "goog",
        "le"
      ],
      [
        "h",
        "8"
      ],
      [
        "j",
        "q"
      ],
      [
        "l",
        "5"
      ],
      [
        "m",
        "9"
      ],
      [
        "on",
        "ly"
      ],
      [
        "p",
        "9"
      ],
      [
        "sp",
        "ider"
      ],
      [
        "w",
        "id"
      ],
      [
        "w",
        "on"
      ],
      [
        "y",
        "12"
      ],
      [
        "100",
        "7"
      ],
      [
        "2",
        "16"
      ],
      [
        "25",
        "80"
      ],
      [
        "33",
        "7"
      ],
      [
        "34",
        "7"
      ],
      [
        "M",
        "O"
      ],
      [
        "P",
        "a"
      ],
      [
        "al",
        "is"
      ],
      [
        "c",
        "f"
      ],
      [
        "ist",
        "an"
      ],
      [
        "j",
        "ad"
      ],
      [
        "o",
        "ur"
      ],
      [
        "or",
        "ang"
      ],
      [
        "r",
        "el"
      ],
      [
        "sh",
        "er"
      ],
      [
        "t",
        "9"
      ],
      [
        "v",
        "f"
      ],
      [
        "z",
        "5"
      ],
      [
        ".",
        "0"
      ],
      [
        "1",
        "q"
      ],
      [
        "69",
        "4"
      ],
      [
        "S",
        "h"
      ],
      [
        "ab",
        "a"
      ],
      [
        "an",
        "th"
      ],
      [
        "car",
        "ol"
      ],
      [
        "d",
        "il"
      ],
      [
        "g",
        "6"
      ],
      [
        "g",
        "el"
      ],
      [
        "h",
        "d"
      ],
      [
        "h",
        "v"
      ],
      [
        "j",
        "ess"
      ],
      [
        "mar",
        "ia"
      ],
      [
        "r",
        "8"
      ],
      [
        "s",
        "ig"
      ],
      [
        "08",
        "06"
      ],
      [
        "18",
        "03"
      ],
      [
        "19",
        "45"
      ],
      [
        "65",
        "8"
      ],
      [
        "85",
        "4"
      ],
      [
        "A",
        "D"
      ],
      [
        "ad",
        "ri"
      ],
      [
        "ant",
        "i"
      ],
      [
        "b",
        "ek"
      ],
      [
        "ch",
        "at"
      ],
      [
        "ka",
        "123"
      ],
      [
        "l",
        "ight"
      ],
      [
        "ma",
        "1"
      ],
      [
        "n",
        "s"
      ],
      [
        "n",
        "v"
      ],
      [
        "p",
        "om"
      ],
      [
        "tr",
        "y"
      ],
      [
        "x",
        "9"
      ],
      [
        "-A",
        "pr"
      ],
      [
        "-Apr",
        "-"
      ],
      [
        "07",
        "4"
      ],
      [
        "112",
        "5"
      ],
      [
        "12",
        "23"
      ],
      [
[...]
